#version: 0.2
o n
e r
i n
Ġ t
a n
o r
a t
a l
a r
e n
e s
Ġt h
e d
i t
Ġ s
Ġ 2
i on
r o
Ġth e
Ġ M
i c
Ġ c
Ġ .
Ġ 1
l e
Ġ S
i s
r e
Ġ f
Ġ a
Ġ o
in g
p er
Ġ p
Ġ d
c t
Ġ G
Ġ2 0
u t
e t
c h
i a
an d
q u
Ġ w
Ġ in
Ġo f
en t
at ion
Ġ A
Ġ X
Ġ20 1
u m
an t
Ġ m
o m
i m
a s
Ġ b
Ġ R
e v
i v
per ia
e l
Ġ H
r a
e m
i g
Ġ F
Ġ (
s t
Ġ qu
Ġ and
Ġ W
Ġ 4
ant um
Ġ C
r i
Ġ T
Ġ g
on y
u n
Ġ on
Ġ 8
u l
ĠX peria
Ġ ,
ĠM P
Ġ n
a m
Ġ 5
i d
Ġ l
Ġ re
ro m
Ġ P
o l
Ġ L
a b
c e
Ġqu antum
p ut
e x
Ġt o
on t
p ar
0 0
i l
ĠS ony
Ġ â
Ġ [
ĠG B
o d
Ġ D
Ġs t
Ġf rom
a d
is t
Ġ ]
ic al
Ġp ro
, "
Ġ or
Ġ E
a p
l y
r es
s er
it h
at e
Ġ Q
Ġf or
o ut
0 2
m w
S M
o b
o w
u s
u al
Ġ "
o t
" :
i r
ĠA r
par ser
out put
1 1
Ģ ĵ
et ri
e ar
p l
p t
u r
ch iv
ĠR etri
ev ed
t er
a c
g e
in al
Ġ 3
Ġ I
ĠRetri eved
Ġ201 3
i z
e c
it y
Ġ is
Ġ 6
ĠAr chiv
Ġ N
ig inal
Ġor iginal
ĠArchiv ed
e ct
Ġw ith
Ĩ ĳ
Ġâ Ĩĳ
Ġ h
H z
i le
ar y
a v
ĠT h
f or
Ġ J
r u
Ġ v
Ġc om
Ġ $
Ġ Z
Ġ an
ĠG SM
Ġ ex
o s
" ,"
ĠG Hz
o g
ĠW e
Ġ8 02
P A
i f
Ġ1 2
ct ion
ĠL T
u re
a y
S PA
ĠH SPA
ation s
Ġ O
iv e
en s
el o
h er
un d
g on
Ġ ar
r ont
ev elo
ob ile
Ġa s
m ent
ĠM ar
Ġc on
o c
ĠR ear
1 0
ĠQ u
ĠF ront
Ġw e
ab le
Ġs u
for m
b er
or e
ra gon
Ġ Y
es s
d ragon
n ap
Ġ B
Ġth at
nap dragon
ĠS napdragon
ĠLT E
v er
Ġ e
Ġ1 0
Ġs p
ĠM obile
Ġw h
p h
â Ģĵ
ig h
ĠTh e
evelo per
i es
2 0
l d
r an
or ld
it s
a in
Ġd ual
S ony
o x
Ġp h
ĠMar ch
ĠQu antum
ĠY es
it e
ĠW orld
ĠD eveloper
Ġ +
ic s
ĠH D
Ġ201 6
l ist
Ġc o
Ġ1 3
c om
en ce
l as
en er
c ore
d u
Ġc h
Ġb y
b and
a ct
i al
or k
Ġ U
e b
y st
Ġ al
es t
} .
ĠI n
Ġ 7
at es
p le
Ġ at
on e
ul t
1 2
a ge
m ar
a g
s ical
b ox
u p
er s
or t
ed ia
": "
yst em
X peria
Ġâ Ģĵ
Ġ V
at ed
Ġth is
im e
ex t
ran s
Ġ1 6
Ġin t
f er
i an
ĠN o
com m
b it
u d
y n
em ber
d er
e w
f f
t h
t ic
Ġ res
igh t
i k
p p
Ġ1 5
ru ary
eb ruary
n av
ĠF ebruary
ul l
i p
er m
en c
Ġ un
ion s
ĠQ ual
Ã Ĺ
Ġ ÃĹ
Ġin ter
ĠA n
Ġm e
Ġb e
ĠQual comm
, .
at or
en d
Ġs h
Ġc ont
Ġ20 2
as e
Ġg ener
i ent
r ic
w g
Ġ 9
Ġs ystem
ĠS O
Ġar e
Ġ K
iz ation
c l
Ġs c
Ġd e
Ġm od
Ġn on
id e
) .
c u
h list
i b
w o
et w
Ġ us
an g
ĠM SM
ab il
Ġcom put
las sical
c o
in e
Ġt rans
le ct
re e
Ġ201 5
as ure
ig n
Ġ r
yn am
ĠX Q
or y
Ġo pt
ĠA p
as ed
ĠC om
2 5
8 0
c ol
im it
ev er
ra m
ri l
I M
c ess
p e
Ġ ro
Ġt wo
al l
ion al
Ġp ar
am e
ir cu
d ro
s e
Ġ le
Ġc an
ab l
av e
dro id
Ġs im
Ġ2 3
ic h
Ġa d
Ġ201 4
mar t
3 0
Ġ 0
er e
ir st
ĠAp ril
a ce
i el
o v
p ort
ar i
Ġ1 4
nav box
r y
s on
Ġa c
Ġd is
ĠF ull
ac k
i re
k in
o us
o ur
o und
an ce
ro du
is e
iel d
a ch
f t
p x
p os
r or
y m
in t
ĠP l
Ġsu b
u g
on g
on s
or der
ar e
5 0
d it
Ġ im
ar d
ĠM B
Ġd ec
un e
Ġst ate
ect or
if ic
form ation
ĠAn droid
asure ment
mart ph
- -
G A
a x
g ro
{ "
at h
Ġd ynam
Ġn o
od e
Ġpro v
ĠE r
Ġ6 4
ĠJ une
Ġwh ich
1 3
a k
} }
Ġ per
in d
at ing
ro l
Ġc lassical
Ġc ircu
ĠS e
ing le
im ens
Ġqu ad
un ction
Ġst ud
' s
l u
l ow
r al
Ġ |
on es
es e
ĠM IM
Ġo per
Ġp res
ri b
Ġst ates
og ical
ĠMIM O
l es
o le
t ra
Ġ er
Ġd ist
ct ob
Ġ201 2
st y
pl ay
able t
ff ic
etw ork
col or
ctob er
g or
Ġ2 7
Ġc or
Ġa pp
Ġo ct
Ġp re
ith m
iz e
ĠO ctober
ics son
Ġme asurement
Ġmod el
Ġoct a
3 2
6 0
V GA
t y
Ġ it
Ġ its
at ter
re f
Ġo ver
Ġd et
ut ion
Ġn e
am il
": {"
oc al
d ing
e ch
n et
s p
Ġ und
an u
at ure
al u
Ġ1 1
ĠS t
ul ar
Ġpro b
ot h
iz ed
Ġsh ow
Ġstud y
D R
i x
s kin
w ik
Ġt ime
Ġin formation
ation al
Ġb ut
ra ph
st ru
od y
ĠE DR
pt ember
oc k
Ġsu ch
abil ity
gor ithm
: :
A r
H D
a ction
m ath
p act
u pl
Ġ ev
at ive
Ġs ingle
Ġ2 5
Ġ2 9
Ġ20 20
Ġm in
im al
Ġon e
id th
ĠP ro
ĠE n
Ġ3 2
Ġsystem s
Ġsim ul
ĠEr icsson
ĠSe ptember
Ġund er
anu ary
0 3
a per
b ody
u st
Ġ ent
Ġ enc
on d
it ion
Ġc ap
is h
Ġf ram
Ġ201 9
as t
il l
pt ion
ĠJ anuary
Ġv ari
du ct
Ġal gorithm
) $
0 1
b ack
d e
d is
l o
m ain
u b
Ġ )
Ġ k
in ite
Ġs ol
Ġthe ir
ĠS p
Ġf ield
Ġp r
om et
Ġ5 12
Ġre qu
il d
1 5
I I
c ent
o st
p ro
t on
w are
Ġ ra
Ġ1 7
Ġo b
Ġb ound
ĠH ere
00 0
ĠE x
Ġat om
Ġint rodu
Ġsc al
ym m
Ġcor re
0 8
8 9
E D
\ /
e g
g et
o f
o p
Ġ est
le ment
Ġd es
Ġin v
ent s
ĠX Z
Ġn ot
Ġh igh
ĠTh is
imens ional
3 5
g in
t ain
u res
Ġ em
Ġs e
ĠM edia
ĠS T
ch ild
ent ial
Ġm et
ev ic
ĠW h
Ġl in
Ġl ow
Ġl imit
Ġre g
Ġre l
Ġh as
ew ork
Ġdynam ics
ffic ient
0 5
b order
c on
c ed
e y
e ad
n ot
p end
t ing
t oc
Ġt ra
Ġs ec
Ġ2 1
ro s
ro w
Ġthe ory
le ft
Ġw ork
el y
ĠT ablet
Ġl ocal
od es
Ġpro pos
pl ic
Ġcom ple
Ġph y
fer ence
ĠNo v
ator s
Ġ202 3
Ġgener al
Ġcircu it
Ġer ror
Ġfram ework
ymm et
0 9
7 2
L ED
c es
j ect
k s
l tra
w idth
} ,"
â Ħ
Ġ \
ar ge
Ġs martph
ĠM ay
Ġ1 9
Ġf unction
Ġa b
Ġp os
Ġd if
el l
ical ly
os e
her ent
Ġe qu
Ġsp in
Ġsp ec
ĠHD R
ĠU ltra
ple ment
ff ect
Ġcont rol
ib le
Ġus ing
ĠCom pact
ug h
sty le
âĦ ¢
0 6
D F
b ar
e en
l ock
n ing
n el
p res
r iv
Ġ y
Ġ up
on ic
er v
er y
al y
en g
Ġs ign
Ġ2 6
re ad
Ġf irst
Ġw as
em e
ĠD ec
Ġpro cess
Ġv ia
Ġex act
ĠO LED
Ġas s
Ġe lect
mar gin
Ġint o
ang lement
Ġim plement
Ġno ise
Ġapp ro
ty pe
amil ton
amilton ian
4 2
5 00
8 2
b ased
c it
c re
h t
n one
s ion
t her
t ext
v ant
an y
at ic
en a
Ġs et
ent al
ĠH amiltonian
un ic
am box
Ġl i
Ġre al
Ġpro toc
ru ct
ens ity
Ġ10 80
Ġwh ile
Ġph ot
etw een
our ce
stru ction
read y
5 5
P DF
T e
a il
c le
d ate
e ature
i ew
n ow
o k
o int
p ref
r ight
Ġ ed
at a
Ġth ese
ĠM T
Ġa ct
Ġp l
and om
Ġ201 7
Ġ201 8
ĠR e
Ġn um
Ġst r
ow ever
Ġcom m
Ġ$ \
Ġph one
las s
est ig
Ġinter action
Ġprotoc ol
a f
b its
f ont
i um
l og
l ine
l imit
n ess
p ad
s o
s ing
t ation
ã ĥ
Ġ /
Ġ en
Ġthe or
Ġc ent
Ġ1 8
Ġo ut
Ġp aper
Ġd er
qu bit
Ġb ased
Ġb etween
st r
ul y
Ġn ame
am p
Ġl at
Ġre main
ĠP h
ĠP re
Ġex t
Ġsu per
ener g
ĠU n
ag net
cl ient
ang u
Ġper form
ix ed
Ġmin i
Ġvari ant
Ġinv estig
Ġphy sical
ĠNov ember
Te k
1 8
1 00
5 2
W VGA
a j
a ul
a ult
b e
c ont
d imensional
e omet
i ed
l l
m edia
o u
r on
s c
v alu
in her
ed u
ro ugh
Ġf inite
Ġo l
Ġd evic
ch an
ĠX A
im es
ĠF WVGA
Ġon ly
am er
am et
od ing
Ġst ruct
ĠJ uly
Ġv ector
her e
Ġe ffect
Ġsp ect
Ġch an
nav bar
cl ud
Ġopt ical
Ġpar amet
ĠPl us
ific ations
gro und
gro up
ole c
Ġcap able
back ground
dis play
ĠMedia Tek
Ġcomple x
pad ding
aj or
inher it
$ -
1 6
2 8
3 3
C D
a u
b in
c ing
h od
n s
p or
w w
or d
le m
is ing
ia b
Ġ201 1
Ġb its
Ġb oth
ĠF or
ĠF HD
Ġqu bit
Ġg ro
Ġl ogical
od el
ist ic
Ġfor m
ĠN etwork
for e
Ġan aly
ĠO pt
ens or
Ġco herent
Ġch all
ult i
tic e
Ġ15 00
Ġun it
Ġopt imal
Ġle ar
abl ish
ĠPl ay
Ġdist rib
Ġmodel s
ech n
Ar ena
Ġent anglement
Ġintrodu ce
Ġest ablish
Ġdes c
angu age
aul i
0 4
2 02
7 0
A M
S O
f ob
i o
p on
v el
Ġ ever
Ġ energ
er ies
Ġ2 4
Ġc odes
Ġa p
Ġd d
Ġd t
Ġd evelo
Ġw here
ĠA s
Ġm at
em ory
Ġn etwork
Ġl arge
Ġpro per
Ġor der
ap t
pl o
ur al
ec k
Ġ12 0
ĠMar k
Ġres ult
ip edia
erm in
abil iz
Ġr edu
abl ed
Ġmeasurement s
ĠDec ember
now n
Ġed it
af ter
amer a
fob ox
Ġdevelo p
) ,
+ .
5 3
8 25
: #
O M
a us
e e
f ic
f irst
r m
r it
r ary
t o
t ime
} $
Ġ i
Ġ id
in u
at form
Ġd em
Ġm any
Ġqu bits
ĠC h
ĠC on
ri d
Ġg raph
ĠP auli
ol v
ol ogical
ad get
ap an
Ġh ave
ĠJ apan
Ġcon s
Ġcon st
Ġwh ose
Ġch ar
ag es
bit rary
tic le
enc y
enc es
Ġcomput ing
Ġad vant
Ġac ro
ire ct
Ġprov e
sp ace
math rm
Ġcorre l
Ġmet hod
Ġnum ber
agnet ic
au ge
abiliz er
( .
1 4
2 6
2 00
6 4
6 5
7 4
I n
] ]
e ight
i e
o un
p s
t s
t en
ã Ģ
ã Ĥ
on str
in fobox
Ġt em
Ġt echn
or g
Ġth rough
Ġc ol
is m
Ġf e
Ġf und
Ġf erm
per im
Ġin clud
Ġm ajor
im edia
im port
ĠH owever
ra c
em pt
Ġqu ant
ĠC M
ri ption
Ġg auge
ul ation
am ental
ol er
ol ution
ĠD is
iz ing
ru e
Ġex cit
her ence
Ġar bitrary
Ġcon f
Ġph ase
las t
Ġal so
ĠIn ter
fer ences
tic les
co ver
our ces
Ġpres ent
Ġprob lem
Ġsimul ation
Ġalgorithm s
Ġk ey
Ġatom s
Ġpropos e
ymmet ry
Ġspec ifications
unic ation
Ġlat tice
client pref
be fore
Ġstruct ure
Ġever y
825 5
Ġfund amental
$ ,
) {
2 3
2 7
3 9
6 8
E dit
P S
d en
l in
m an
n er
n ect
p ic
s ize
t rue
v ent
Ġ ul
in ed
at ial
en ch
Ġth erm
Ġs o
Ġs qu
Ġ2 2
ro ad
ĠM odel
ic t
Ġc ode
le ase
ĠS ystem
re en
Ġf re
Ġf ull
Ġf lu
Ġa m
and ard
Ġin it
Ġm ic
as s
as ing
ra ct
st ate
ĠW ik
Ġ4 8
ĠT em
ĠT rans
Ġg eomet
Ġre c
ĠL CD
il ity
Ġpro duct
res p
res s
": [
ur l
ĠI II
Ġv ers
Ġcom p
og y
og am
ber g
ĠB y
Ġsp ace
Ġph ones
Ġ7 20
Ġinter ference
Ġ202 1
Ġde g
Ġcomput ation
Ġro b
Ġcircu its
math b
Ġrequ ire
Ġsmartph one
Ġsign al
ht t
cle ar
Ġremain s
Ġperform ance
Ġinvestig ate
cont ent
Ġdevic es
Ġlear ning
Ġdistrib ution
Ġenerg y
Ġid ent
Ġdem onstr
Ġadvant age
) "
/ /
5 4
D A
S tation
T E
c s
e ous
f unction
g le
h or
j oint
l ed
l if
m all
m ium
o ver
r im
s ony
s ub
u e
x im
y b
y d
{ \
Ġ &
er g
er t
er ed
in em
Ġt ensor
or m
it ive
Ġs ymmetry
ĠM e
ĠM ogam
ic on
Ġc lass
Ġp rom
Ġd o
Ġd irect
Ġw ave
Ġin cre
Ġ201 0
Ġm ap
Ġm olec
im ization
as is
el t
ĠC ar
ĠC ont
Ġg ate
ĠP ad
par ation
ĠD et
Ġst andard
pl ate
ĠN on
for d
Ġan y
ĠGSM Arena
Ġex perim
if y
if ied
Ġ12 8
Ġsp atial
Ġco st
act er
ik e
Ġcont inu
ide o
Ġus e
Ġcomput ational
Ġr andom
Ġ23 00
ug ust
ak ing
low er
Ġoper ations
sty les
Ġprob ability
upl ed
pend ent
Ġappro ach
valu e
Ġchan nel
Ġcomplex ity
Ġmethod s
oler ant
lif ford
ĠMogam i
) ;
0 7
2 2
3 6
6 7
8 8
A P
P age
] ,"
b l
b ed
c c
f al
f ree
f eature
i res
m in
p re
p ect
t ur
t ies
v e
an c
at ch
al e
al ax
Ġth ree
ed om
Ġs ch
Ġs em
Ġs ens
Ġs eries
Ġthe y
ic e
Ġf ree
Ġa ch
Ġp ract
Ġd ate
ĠG alax
et s
Ġw ell
Ġof fer
Ġof ten
ĠA ugust
Ġm emory
ra d
ĠT o
ĠT ab
Ġg iv
Ġn ear
Ġ5 000
Ġre cover
ur ity
ĠO n
Ġsu pp
ver s
Ġe fficient
Ġal l
mar k
Ġres ource
Ġme chan
Ġbe en
Ġ202 2
Ġde f
Ġtrans port
ĠCom m
Ġdis c
ard ware
Ġprov id
ind ow
Ġne ed
upl ing
Ġ25 6
Ġk nown
Ġsol id
ĠSp ec
Ġcorre ction
Ġsec urity
pres ent
Ġprocess ing
Ġcomm unication
Ġder ive
Ġext end
ĠPlay Station
Ġchar acter
import ant
empt y
ĠCM D
Ġproduct s
Ġrob ust
yd berg
fal se
Ġach i
ĠGalax y
1 9
3 00
9 4
L TE
N ame
c lassical
h ead
n ed
t om
t olerant
Ã ©
á Ģ
Ġ #
er ror
in c
in ary
Ġt r
or s
at er
at ist
al ign
ar g
it ect
Ġs ever
Ġs ize
Ġ2 8
ĠM in
ĠS im
ĠS martph
re ferences
Ġf amil
Ġp ol
Ġd l
Ġd ensity
ĠG ener
Ġ20 08
ut e
et her
ch itect
and ing
ĠA d
ĠA l
om pos
im um
as h
Ġb ench
ĠR ydberg
iv ers
Ġqu est
ĠC or
ĠC ode
Ġg ates
Ġl ight
Ġl ong
Ġre f
Ġre cent
ĠP aper
Ġto p
par t
ly ing
ur r
ĠI I
Ġh ow
av ity
ĠZ L
if t
Ġcon dit
Ġcon struction
Ġwh ether
Ġint eg
Ġgener ator
ĠSO G
Ġde pend
co un
co pic
Ġdec o
Ġne o
wik imedia
stru ct
Ġsimul ations
Ġrequ ires
Ġra d
89 74
ĠWh ite
Ġlin ks
Ġsmartph ones
Ġfunction s
Ġpos itive
Ġy et
eng th
Ġappro xim
Ġstr ong
Ġprotocol s
Ġcent ral
Ġunit ary
Ġdesc ription
Ġap plic
Ġnetwork s
Ġproper ties
ee z
Ġferm ions
vent ional
Ġvers ion
mathb b
Ġdemonstr ate
rim in
yb rid
orm al
Ġpract ical
$ .
1 7
2 1
3 11
5 1
6 2
: -
W AP
[ [
a w
b el
b ra
f d
g o
g ram
l anguage
l ike
m s
m it
o per
o pt
s h
t imes
u ser
u clear
v ector
x peria
y ond
at iv
al k
ar t
ar row
en u
Ġs um
Ġs mall
ĠM o
ic k
Ġc le
ĠS IM
Ġd iv
Ġd imens
ch os
Ġw ay
Ġw ww
Ġin d
Ġin f
ĠA pp
Ġm ag
Ġm ulti
as es
Ġb os
Ġb road
ĠH VGA
ĠC o
Ġn ew
am pl
id den
Ġre present
ol d
ĠD e
Ġst abilizer
Ġpro of
ser v
ear ch
ac u
ac es
ge bra
Ġ3 1
Ġwith in
Ġwith out
Ġcom bin
ĠWe ight
Ġcon ver
Ġcon nect
ĠB lu
Ġe ach
Ġwh ite
ph a
ran ge
Ġch ip
ĠU sing
Ġbe yond
Ġcont ain
ric t
ric es
Ġsc reen
Ġtrans ition
ynam ics
Ġle ad
ry ption
ach ine
ft ware
Ġsub s
ific ation
Ġprov ide
atter y
ref list
Ġdet ect
Ġev olution
Ġenc oding
Ġbound s
Ġest im
Ġlimit ed
ros s
ros copic
ymmet ric
Ġab s
Ġdif fic
Ġequ ations
Ġup date
Ġinteraction s
Ġtheor ies
ĠPre mium
Ġeffect s
Ġparamet er
por al
Ġchall eng
apt ive
ĠDis play
lin ear
Ġinit ial
ĠTem plate
Ġgeomet ric
Ġcontinu ous
Ġprovid es
Ġachi ev
bel ian
Ġdiffic ult
" },"
% ;
5 12
8 00
9 00
: "
: //
A h
A n
B A
F i
K D
P Q
W ave
^ {
b r
c al
c ated
e qu
h i
h at
i qu
i ated
l is
m e
m l
m ed
n on
o oth
p en
p ag
r in
r um
r yst
s is
s ch
t able
v ail
w eb
y s
ã ģ
Ġ q
Ġ end
in line
Ġt ri
an eous
al pha
ar k
ar get
en ge
it le
it ions
Ġs ame
ĠM at
ĠM ulti
Ġc avity
is ed
is sion
Ġf ault
Ġo ther
per ature
Ġp ost
ĠG en
ut ions
et ic
et ooth
ia gon
and s
ĠA PQ
Ġm obile
Ġm ore
Ġm ax
Ġm ixed
Ġm agnetic
Ġm Ah
om e
om ic
Ġb ec
Ġb asis
ĠR ec
ĠR AM
ĠR OM
iv al
iv ity
el ity
ra b
st anding
ĠW i
Ġ4 00
ĠC ent
ĠC ort
ĠC inem
ri um
Ġg o
Ġ8 01
ul es
id elity
rom an
ĠL ite
od ed
Ġst or
ad e
Ġpro ject
ĠE u
ow er
us ic
ot s
ir on
ir ed
pt h
chiv e
ac y
ĠI PS
Ġh ardware
ĠTh ese
Ġv acu
ĠZ R
Ġan n
Ġex ist
og raph
ens e
Ġar c
ĠB attery
Ġwh en
up per
Ġinter f
Ġcont ext
wg C
ĠSO V
Ġsc atter
Ġus es
Ġus ed
Ġtrans form
lect ed
col um
abl es
ym b
ons ive
Ġdynam ical
Ġoper ators
ole an
Ġdist in
Ġ27 00
wik ipedia
duct ing
de pendent
ĠSp in
Ġfield s
Ġpr inc
pro of
Ġ17 50
Ġob tain
ĠWh ile
Ġlow er
Ġreg ime
con ducting
not e
Ġpropos ed
plic it
Ġdif fer
Ġelect ron
Ġset ting
Ġphot ons
Ġact ive
Ġpl atform
ĠRe lease
ĠPh one
Ġsuper conducting
sc ale
Ġgro und
Ġgro up
Ġchall enge
Ġmat rices
plo it
ĠMark et
ĠJapan ese
Ġcons ist
Ġconst ra
Ġfe at
Ġexcit ation
Ġsqu eez
ĠTrans form
resp onsive
Ġident ify
Ġprom ising
Ġmolec ular
bed d
Ġsch eme
Ġsupp ort
Ġdisc rimin
ater proof
Ġsever al
ĠSmartph ones
Ġfamil y
ivers al
Ġquest ion
Ġtop ological
Ġdeco herence
Ġrad i
ĠBlu etooth
An droid
hat note
ryst al
iagon al
ĠCort ex
ĠCinem a
( \
2 9
2 30
4 5
6 6
6 9
6 00
6 60
D M
L anguage
R L
S E
S Q
U ser
W ide
] {
c ill
c lass
d b
d ata
e le
e fficient
g ree
i ence
i ous
l i
l ap
l ob
l ocal
m Wave
n ame
o ch
o olean
p age
p ically
r ation
r ated
t l
t r
t im
t op
t itle
u il
u ations
v iew
w ay
w eight
y per
on ical
er ing
er ge
in ch
in ce
Ġt d
Ġt y
Ġt as
Ġt erm
Ġt ablet
at ural
al le
ar chive
en ess
Ġth an
ed ict
it al
it ies
Ġs yn
Ġs ampl
ĠM ont
ĠM Hz
Ġc l
Ġc y
Ġc ar
Ġc amera
Ġc ert
Ġc rystal
le ction
le vel
ĠS P
ĠS U
ĠS h
ĠS o
ĠS WAP
re es
Ġf oc
Ġf ixed
Ġa vail
Ġo pen
Ġp a
Ġp oint
Ġp ower
Ġd riv
Ġd ue
ct uations
and id
Ġw ere
Ġm ain
Ġm ov
Ġm ost
Ġm mWave
Ġb i
Ġb ot
ĠR es
ĠR andom
el ess
ĠF irst
ĠW alk
Ġ4 500
ĠC S
ĠC amera
ri er
ĠT ime
Ġg ap
ul s
Ġn atural
am es
Ġl ab
Ġre ce
Ġre tain
ĠP ur
ol ogy
ĠL ind
il i
il ib
Ġst e
Ġpro du
ot ic
Ġv alu
Ġcom par
Ġan cill
Ġex tra
ĠO ther
Ġar chitect
Ġcon ventional
oc iated
ĠB oolean
ran gle
Ġch ain
ĠV II
ĠNo ise
ew idth
th eme
wg R
Ġmod es
Ġnon linear
ib ility
Ġopt imization
pe at
Ġle vel
ov ian
Ġac c
Ġac cess
Ġdis order
Ġdis play
Ġdec ay
Ġdec ompos
ific ant
Ġpres ence
Ġdet ermin
Ġev en
Ġev alu
Ġmin imum
ĠEn c
Ġenc ryption
cent ral
Ġscal ing
Ġdes ign
Ġse qu
Ġse par
Ġgeneral ized
Ġsign ificant
Ġass ociated
Ġimplement ations
ht ml
unic ations
Ġphot on
Ġspect ral
Ġspect rum
iab atic
Ġresult s
aus s
Ġcorrel ations
Ġtechn iqu
Ġmajor ization
Ġtherm al
Ġfre edom
Ġflu ctuations
ĠWik ipedia
":[ "
Ġdeg rees
htt ps
Ġdo es
Ġincre asing
ĠCar lo
bl ad
rad ient
Ġgiv en
indow s
atist ics
Ġbench mark
urr ent
Ġcle an
Ġvacu um
ograph y
Ġscatter ing
Ġprinc i
ĠCinema Wide
lob al
alle l
ĠMont e
Ġfoc us
Ġavail able
ĠWalk man
ĠPur eness
ĠLind blad
ilib rium
Ġancill a
" ],"
) :
3 12
4 1
5 50
6 50
7 00
8 3
9 3
9 5
: \/
A C
A T
B C
C lifford
D P
I d
M s
N O
Q P
S t
S ymb
T o
T ub
T hor
U K
W ik
_ {\
a ut
a Thor
b f
c ite
f re
f ul
f ull
f ield
g an
g ing
g ence
g adget
h eight
i C
i er
i form
i rac
l ish
m box
n y
p an
p id
r ing
t em
u x
u ish
u rab
v ar
} (
} ,
} @
} );
Î ´
Ġ kin
Ġ joint
on al
al ing
al og
ar ies
Ġth en
Ġth ere
it ud
Ġs ur
Ġthe m
ĠM ic
ĠM et
ĠM ac
Ġc ase
Ġc rit
Ġc andid
Ġ1 10
le ased
ĠS u
ĠS earch
is ion
re at
re aking
Ġf act
ing uish
Ġp ot
Ġd imensional
et ime
ch es
qu ery
qu ency
Ġin st
Ġin ver
Ġin dependent
ent ly
ĠA c
ĠA qu
ĠA ce
Ġm ess
Ġm ult
Ġm ak
om ent
as ures
Ġb r
Ġb it
Ġb atter
ĠR Ã©
iv ed
el ow
ĠH el
ĠH igh
em ent
ĠF ault
Ġqu ery
ĠC ircu
ĠC lifford
ri x
Ġg radient
Ġ8 00
ul ating
Ġn uclear
id ata
Ġl og
Ġre t
ĠP R
ĠP r
ĠP er
ĠP ar
ĠP ol
ĠP DA
ol low
ĠL L
Ġpro pag
Ġor ac
ual ity
ot on
ot ion
ĠAr chos
pl ies
ac ity
ac etime
ĠI S
ĠI V
ĠI t
Ġ6 30
Ġh e
Ġh owever
Ġh ybrid
Ġh yper
Ġv ideo
Ġex plicit
Ġex ploit
if ies
Ġ12 00
ay er
Ġcon struct
ĠY ou
ĠB ound
ĠB log
Ġe ig
Ġco ver
Ġco herence
Ġco upled
Ġ13 5
act ing
Ġat t
ĠV erge
fer omet
Ġres t
Ġres on
Ġres ources
Ġ15 1
Ġun iversal
Ġsh ift
Ġgener ation
Ġgener ate
wg Page
Ġde pth
Ġmod e
ang led
Ġtrans m
lect ive
Ġro ll
Ġpar t
Ġ14 4
Ġdis cre
rodu ct
rodu cing
martph one
}} ,"
rol ogy
Ġer asure
Ġpre paration
ech an
ĠSt ate
wik i
Ar ticle
ĠPro cess
Ġunder lying
Ġenc oded
duct or
Ġra pid
Ġintrodu ced
Ġscal ar
Ġlin ear
Ġsec ure
Ġsec ond
row ave
Ġpos s
Ġequ ation
erv ing
Ġtheor em
Ġcent er
Ġext ens
Ġvariant s
ou rier
Ġparamet ers
por ation
ĠNetwork s
Ġanaly z
Ġdesc rib
pon ential
ĠMark ovian
Ġcons id
Ġconst ant
oun ced
ãĢ Į
ãĢ į
Ġcol lective
Ġtherm od
Ġso ftware
Ġam ong
htt p
icon ductor
ĠDet ermin
Ġexperim ental
Ġrecover y
ĠComm unications
Ġneed ed
ĠSpec s
Ġrobust ness
ĠMin i
ĠCor poration
part ite
Ġapplic ation
fd fd
sh ot
Ġdimens ion
Ġrepresent ation
Ġlead ing
Ġq HD
Ġtri ple
Ġdistin ct
Ġsetting s
Ġconstra int
bedd ed
Ġty pically
Ġterm s
Ġsampl ing
Ġpa ir
ĠEnc oding
auss ian
Ġclean up
:\/ \/
Symb ian
Tub e
ny i
pan sion
Ġpot ential
Ġbatter ies
ĠRÃ© nyi
ĠPDA db
ĠYou Tube
" "
" }},"
$ (
$ )
- \
. ,
1 60
2 4
2 10
2 35
5 7
5 80
5 30
7 15
8 4
9 9
A s
B Q
C T
D C
D I
D O
E n
E r
F C
F T
G F
I s
L S
O r
P ro
P ad
R I
S H
S h
T V
W ill
Y K
a ware
b o
c ial
c ircu
c ise
d ot
d ens
d ensity
e or
e lect
f us
g u
g es
g ain
g raph
h idden
i ate
i ber
j ector
k en
k nown
l ight
m obile
o ad
p ol
q r
s ist
s ite
s ics
s ip
s martphone
s qr
t t
t ely
u k
v is
v iron
v ious
w t
w atch
x on
z o
z er
{ {
} \
} )$
Ï Ģ
Ġ -
Ġ =
Ġ ion
on f
on struction
er ner
in ter
Ġt ip
Ġt imes
Ġt arget
or n
or ding
en eck
es is
Ġs ide
Ġs low
Ġs erv
Ġs ources
ro ken
ĠM olec
ĠM usic
Ġc urrent
le x
ĠS L
is es
Ġf ul
Ġf ind
Ġf eature
Ġf idelity
Ġf ollow
Ġa gain
ing s
Ġp ure
Ġp ric
Ġd om
Ġd ata
Ġd ots
Ġd iagonal
ĠG o
ĠG eomet
ia ms
Ġw id
ĠA O
ĠA m
ĠA ll
ĠA tom
ĠA belian
ĠA lex
Ġm on
Ġm ass
Ġm achine
im age
as i
as tic
Ġb inary
ev al
iv er
el er
ĠH ig
ĠH il
ra p
ra ction
ra ys
ig ur
ig ital
ĠF ourier
st ant
ĠC re
ĠC DM
ĠT wo
Ġg adget
un cated
Ġ8 10
ul ations
id ence
Ġl oc
Ġl aw
Ġre ve
rom agnetic
ol og
par e
il son
Ġ[ [
Ġst och
ist ory
res h
ĠQ R
ĠQ KD
11 4
ur ed
ur ing
ur ther
ter n
ter tain
Ġ3 0
Ġ3 3
av es
ĠZ e
Ġan alog
Ġex pect
Ġex ponential
os ed
og en
ĠO per
ment s
Ġcon dens
Ġwe ight
Ġwe ak
form ance
ber t
20 9
ain list
list style
Ġco un
Ġco upling
Ġ13 8
Ġch em
Ġal ong
Ġal gebra
Ġ7 0
ple x
ag g
ĠV ari
Ġ16 3
Ġint rin
comm ons
th eor
tic ular
Ġres olv
Ġres pect
Ġ15 4
Ġinter feromet
end ers
Ġsh ort
wg M
Ġ9 9
ĠSO L
Ġde ad
ib ase
co upled
Ġr ate
25 6
80 64
ram e
Ġro t
Ġro ute
Ġpar allel
Ġpar ticular
Ġle ast
Ġcan onical
abl ing
Ġsim ult
ari ant
Ġac ross
ĠPl atform
dit ional
Ġim port
}} @
ind e
Ġoper ator
Ġdist inguish
Ġcor resp
Ġover head
Ġdet un
Ġdet ector
Ġprob abil
Ġstudy ing
upl oad
ĠEn t
ĠEn tertain
Ġent angled
Ġcap acity
dis abled
Ġsol v
Ġpr edict
cent er
pro v
Ġra y
Ġbound ary
Ġscal e
Ġscal able
Ġinv olv
Ġmet rology
Ġlin ewidth
Ġreg ion
Ġreg ist
Ġtra in
Ġphy sics
ĠNov aThor
Ġerror s
72 27
Ġequ ival
Ġspin s
pres s
Ġy ield
erv a
Ġelect ric
Ġimplement ation
82 60
Ġphot onic
ok ie
Ġnum er
Ġcomm on
limit ed
so id
Ġout put
ĠPh ase
Ġphysical ly
media wiki
Ġdevic e
chan ge
Ġeffect ive
Ġchan ge
ord in
iab le
Ġanaly sis
ĠOpt imization
Ġestablish ed
202 2
plo y
Ġresult ing
Ġi To
Ġgraph s
Ġtem perature
Ġcol lis
Ġinclud ing
Ġconf igur
Ġproblem s
Ġsqu are
Ġam pl
Ġrec ording
":[ ],"
sub group
erg ence
ĠMe asurement
Ġdirect ly
min erva
Ġsens ing
ĠOn e
Ġmechan ics
Ġmechan ism
Ġpol ar
Ġrecent ly
Ġdepend s
coun t
ativ ely
Ġinf lu
Ġmag n
Ġbos onic
Ġproof s
Ġconver gence
Ġcontain ing
Ġdetect ion
Ġestim ation
Ġchalleng es
Ġmax imal
Ġstor age
Ġann ounced
Ġexist ing
ĠTransform er
Ġdiscrimin ation
tl eneck
tim eless
Ġtas k
Ġtablet s
Ġbot tleneck
ili ary
Ġdecompos ition
ĠLindblad ian
ux iliary
ĠMac Will
Ġbr and
ĠPR O
ĠPer formance
ĠLL C
Ġeig en
Ġdiscre t
echan ical
sqr t
viron ment
xon ium
Ġtip o
Ġful ly
Ġagain st
ĠHil bert
ĠCDM A
Ġstoch astic
ĠVari ational
Ġcorresp ond
ĠEntertain ment
ĠiTo F
ĠMacWill iams
" )
" //
$ _
% )
% }.
( --
( ){
( "//
. .
1 50
3 4
3 7
3 10
3 20
4 4
5 6
6 10
6 80
7 3
7 9
8 500
> .
A Q
A S
A Y
A belian
B O
C C
C h
C l
C s
D Q
D ual
D og
D TV
E S
G ord
K it
L AY
N S
O V
P U
P l
P res
Q C
Q u
S p
S ingle
T C
T F
U LS
V iew
X iv
X GA
_ \
a h
b a
b ot
b log
b asis
b serv
c er
c ons
c rib
c dot
d es
d eveloper
e f
f ect
f ace
f lo
f inite
g s
h e
h ol
h ib
h anc
i ro
i ency
j a
j query
k ill
l t
l ate
l ess
m ov
m ode
m oment
n oth
n ormal
o e
p in
p ing
p ies
p ite
p ub
r Ã
r ate
r ons
r atic
s m
s v
s ic
s ymmetric
t rans
t roducing
u le
u ri
v en
w ord
w aterproof
y sical
y pe
Î ĺ
Ï ģ
à ®
Ġ '
Ġ :
Ġ ut
Ġ ir
Ġ ess
Ġ ide
Ġ range
on omic
Ġt est
Ġt ext
or ter
at her
at omic
al f
al s
ar c
ar p
en om
ed back
it em
it ig
it ter
it ness
it ivity
Ġs at
Ġs id
Ġs ite
Ġs ource
Ġs ome
ro c
ro up
ro pe
ĠM any
ĠM emory
ĠM achine
ic y
Ġc ru
Ġ1 00
le in
le ash
ĠS X
ĠS m
ĠS am
ĠS ol
ĠS ur
is y
re am
re vers
re me
re peat
Ġf l
Ġf ront
Ġf ast
Ġf iber
Ġa ction
Ġa uxiliary
Ġo ur
Ġo cc
Ġp ort
Ġp op
Ġp ass
Ġd el
Ġd ense
ut ing
et er
ch a
ch eck
qu et
Ġw aterproof
Ġin put
Ġin com
ĠA I
Ġm an
Ġm id
Ġm atter
Ġm aking
Ġm ade
om ography
om echanical
im its
as urab
Ġb ran
Ġb est
Ġb lock
Ġb uil
Ġb roken
ĠR el
ĠR am
ĠR ob
ĠR ead
iv ing
el f
ĠH ay
ĠH ybrid
ra v
ra ined
em b
em ents
ĠF e
ĠF ound
ĠF lo
ĠF eature
Ġ( $
st er
st at
Ġqu asi
ĠW ith
ĠW indows
ĠW ilson
ĠC as
ĠC lassical
ĠC oun
ri ed
ĠT ro
ĠT ra
Ġg over
Ġg enu
Ġg lobal
Ġ8 45
ul d
ul ate
Ġn am
Ġn ow
Ġn ov
Ġn ature
Ġn arrow
Ġl ist
Ġl if
Ġl ay
Ġl arg
Ġl ength
Ġre ad
Ġre ly
Ġre con
Ġre ference
Ġre tur
Ġre view
Ġre leased
ĠP ict
ĠP LAY
ol s
ĠL ist
ab ly
ab ov
ex a
ont h
par se
il ing
il icon
ĠD ynamics
ĠD irac
ist ed
ist ent
Ġpro gram
Ġpro jector
Ġor gan
ĠE dit
ĠE fficient
ap e
ual Edit
ir c
ir Ã©
ĠAr ticles
etri es
ear ly
pl es
pl ac
pl ainlist
pt ions
ur s
ur ate
ac cess
Ġ3 000
iz es
Ġ6 00
Ġ6 000
ĠN e
ĠN ex
ĠN ations
ĠN FC
ĠN DTV
Ġh ide
Ġh exa
av or
ĠJ P
Ġv ar
Ġv ol
Ġv iew
Ġv ert
Ġcom pact
Ġex ce
Ġex hi
Ġex pansion
Ġex change
og onal
Ġ12 6
Ġar ticle
Ġas ym
ĠQu bits
Ġwe b
ĠB road
Ġsp acetime
ph ase
ph oton
ĠThe or
20 13
Ġph enom
list item
Ġco efficient
Ġco ordin
Ġco pies
Ġ13 7
com e
du ced
ial ly
ĠU L
ĠU S
eb ar
eb elow
Ġal low
ĠIn formation
ult ra
12 5
ĠV I
ĠV iew
ĠV ideo
Ġ16 1
Ġ16 2
Ġ16 4
Ġ16 8
ĠNo ok
pp ing
erm ine
Ġun cl
Ġun ified
Ġun iform
Ġun known
ĠAn d
ĠAn aly
Ġme an
Ġbe ing
end ed
Ġ202 4
Ġ202 5
Ġgener ates
wg ULS
Ġ9 4
ĠK ry
ĠK ey
ĠK lein
Ġcomput er
Ġcomput ers
Ġtrans fer
Ġtrans itions
lect ing
Ġr ig
ynam ic
ĠAp plic
ĠCom put
cess ing
pe ed
Ġro tation
se qu
se lected
Ġsim pl
Ġsim ple
Ġad d
Ġad mit
Ġad aptive
Ġad iabatic
Ġ14 3
Ġ14 6
Ġ14 7
Ġ14 8
Ġ14 9
-- -
Ġdynam ic
ĠEr ror
}} $
ind ing
lu ster
Ġoper ational
Ġpres erv
Ġpres crib
Ġdist ance
ffic iency
Ġapp ly
Ġpre vious
32 13
atter ns
Ġdet ermine
Ġne ural
Ġ11 5
ĠSt abilizer
ix ing
skin s
Ar ticles
ĠEn gadget
Ġfram e
Ġvari ous
Ġvari ational
lo ad
ub lish
ĠSp ect
Ġpr imit
Ġpr int
Ġrequ ired
Ġob ject
ĠEx act
89 60
89 94
Ġem erg
evic es
ĠWh en
Ġlin k
Ġlimit ing
Ġrel ation
ros sing
Ġab out
Ġdif fus
Ġspec s
pres erving
riv en
riv ial
Ġ26 20
Ġprocess or
Ġass um
cit ation
Ġreal istic
ail ed
Ġact s
Ġact ing
Ġpl an
Ġstr ength
Ġen abled
Ġen abling
Ġen vironment
Ġtheor et
ĠPre paration
ĠUn con
ĠUn like
ou ch
Ġspect ra
33 1
ww w
Ġform al
Ġanaly tic
ĠOpt ical
ĠOpt imal
202 1
pon se
Ġap plies
Ġproper ty
apt cha
Ġredu ce
Ġredu ced
olv ed
Ġcorrel ation
Ġcorrel ated
200 8
Ġtem poral
Ġferm ion
Ġinclud e
ĠInter ference
Ġfundamental ly
Ġflu xonium
Ġmic roscopic
Ġmic rowave
ĠTem poral
Ġgeomet ry
Ġcomp et
Ġdeg ree
Ġsignal s
sony mobile
Ġmap s
Ġmolec ules
elt a
ĠDet ailed
Ġexperim ents
Ġapproach es
Ġchannel s
Ġsem iconductor
Ġgiv es
Ġnear ly
Ġrecover ed
Ġneed ing
Ġcharacter ized
ĠSim ulations
ĠCor re
Ġcondit ional
Ġinteg er
coun ter
Ġapproxim ation
Ġapproxim ate
oper ator
xperia blog
ĠMo irÃ©
ĠApp ro
Ġmag ic
Ġmulti ple
ĠCo herent
Ġcombin es
Ġconnect ion
Ġsubs ets
Ġabs or
Ġabs ence
Ġchalleng ing
Ġachiev e
^{ -
ĠCent ral
ĠEu rope
Ġcontext uality
colum n
colum ns
Ġdiffer ent
Ġdiffer ential
ĠPhone Dog
Ġfeat ures
Ġsqueez ed
Ġradi ation
RL Q
class Name
gree k
Ġcy cle
Ġdriv ing
Ġmov e
ĠCS S
Ġlab el
Ġprodu cing
Ġvalu es
Ġarchitect ure
Ġsequ ential
Ġtechniqu es
Ġprinci ples
DP C
fre edom
itud e
ĠAqu a
Ġmess ages
Ġmak e
ĠHel io
Ġorac le
Ġhyper graph
Ġrest rict
Ġtransm ission
Ġroll ing
Ġanalyz e
ãĢį ãĢĮ
Ġthermod ynamic
ĠDetermin ing
Er icsson
bo ard
gu ide
zer o
onf ir
Ġserv ice
Ġfollow ing
Ġwid ely
ĠAO L
ĠHig gs
olog ies
ĠZe us
ogen eous
Ġcoun t
Ġchem ical
Ġsimult aneous
inde pendent
Ġprobabil istic
ĠEnt anglement
Ġsolv ing
Ġequival ent
Ġnumer ical
Ġconfigur ation
Ġinflu ence
Gord on
cons istent
flo at
hol onomic
noth eme
pin ned
rÃ ¶
sv g
uri fic
Ġess ential
Ġsid ebar
Ġcru cial
leash ed
ĠRam an
ĠFlo quet
Ġnov el
ĠPict ures
abov ebelow
ualEdit or
Ġvert ex
Ġexhi bit
Ġasym pt
' >
) [
) }.
+ \
1 02
3 80
3 42
4 0
4 3
5 20
7 10
A B
A U
B E
C Q
C S
C ont
C aptcha
D E
D is
E C
E GF
E RI
G B
G E
G aussian
I SQ
J s
L I
L P
L ock
M C
M I
M o
M and
N ot
N ames
O N
O S
O u
P F
P o
P ar
P ERI
Q I
Q R
Q KD
R es
R ad
S iC
S YK
T T
T rans
T ok
T he
U BO
V is
V ers
W indows
\ "
] }
a z
a un
a io
b ow
b ur
c or
c ation
c ell
c ible
d iv
d em
d oc
d ates
d ers
d ark
d riven
e p
e q
f a
f rom
f act
f low
f rame
g ent
g ist
g est
g ated
g ress
h an
h ar
h ite
i od
k er
l ing
l ad
l anc
l ick
l ayer
m i
m y
m or
m odel
m Edit
n g
n ight
o ff
o ugh
o pping
p y
p at
p ly
p ir
p ace
p rodu
r ong
r ast
r onic
s w
s at
s et
s ystem
s ible
s elf
s peed
t e
t al
t ical
t ter
t wo
t ech
t eg
v are
v ariant
w ith
w all
w ave
w ich
w hite
y cl
| [
} ^
} _
~ \
Â ·
Î ±
Î µ
Ð º
Ñ ģ
Ġ ;
Ġ É
Ġ et
Ġ ens
Ġ ran
Ġ --
Ġ }}
Ġ ãĤ
Ġ {\
Ġ iron
Ġ {{
Ġ Â·
Ģ Ķ
on able
er ion
er ic
in s
in it
in os
in ess
in sp
in duced
Ġt w
Ġt ree
Ġt reat
Ġt omography
an a
an nel
or es
or ed
or ent
or iz
or ator
at om
at ab
at ures
at ely
at tice
at io
al ly
al ity
al ty
al ized
ar ting
ar Xiv
en ed
en abled
en ormal
en alty
es h
es ian
ed ic
it es
Ġs l
Ġs ing
Ġs and
Ġs kin
Ġs ole
Ġs ensor
Ġs ince
Ġs parse
ro g
ro und
ro py
ĠM ob
ĠM ain
ĠM ult
ĠM ag
ĠM ajor
Ġc al
Ġc re
Ġc ut
Ġc all
Ġc ell
Ġc ross
Ġc irc
Ġc luster
le gated
ĠS ch
ĠS av
ĠS mart
ĠS ingle
ĠS eries
is on
is her
is son
re c
re port
re ak
re gist
Ġf er
Ġf il
Ġf low
Ġf ail
Ġf urther
Ġa ut
Ġa co
per atures
Ġp age
Ġp ath
Ġp ages
Ġp uls
Ġp atterns
Ġp urific
Ġp enalty
ct ing
ĠG raph
ĠG adget
ĠG reen
ĠG aussian
ĠG roup
Ġ20 0
ut ral
ut rit
ut hor
ut sch
et ter
ia gram
qu ad
qu ilibrium
Ġw aves
Ġw itness
ent ity
ĠA b
ĠA ra
ĠA uthor
um ent
um ber
Ġm ac
Ġm arg
Ġm usic
Ġm otion
Ġm iro
Ġm itig
Ġm onth
om ial
im ir
im ode
as ible
Ġb us
Ġb ond
ĠR ev
ĠR og
iv es
el ine
ĠH ong
ĠH ardware
ĠH istory
ra y
em s
em es
ig ation
ĠF an
ĠF isher
st ri
st art
st rained
Ġqu ar
Ġqu dit
ĠW ag
ĠW ign
ĠW ave
ĠW VGA
ĠW erner
Ġ4 000
ĠC ol
ĠC lo
ĠC ost
ĠC odes
ĠC NO
ri or
ri ft
ri eval
ĠT L
ĠT X
ĠT os
ĠT og
ĠT ech
ĠT op
ĠT echn
ĠT FT
Ġg ive
Ġg row
Ġg sm
Ġ8 20
Ġ8 35
Ġ8 65
Ġ8 88
ul se
Ġn an
Ġn ormal
am b
Ġ5 0
Ġ5 5
Ġl ad
Ġl ack
Ġl imits
Ġl aun
Ġre port
Ġre action
Ġre lease
Ġre mov
Ġre produ
ĠP ock
ĠP riv
ĠP roduct
ĠL o
ĠL in
ĠL ear
ĠL og
ĠL ogical
ĠL orent
ab s
ce pt
ex ist
Ġto w
Ġto tal
par ent
par soid
il y
il on
il ation
il izing
Ġâ ĢĶ
od er
ĠD o
ĠD u
ĠD es
ĠD ensity
ĠD iagonal
ĠD igital
ĠD elta
Ġst abil
Ġst atistics
ist or
ist ance
Ġpro gress
ĠE l
ĠE m
ĠE qu
ĠE lect
res nel
res olved
ate gor
ĠQ VGA
ow n
us h
us ion
Ġ" }.
11 0
ear s
ear ance
pl ace
pl ied
chiv al
inal ly
Ġ3 4
Ġ3 300
Ġ3 580
ĠI m
ĠI ts
ĠI QP
iz ations
Ġ6 0
Ġ6 2
Ġ6 5
ĠN ot
ĠN uclear
ect ion
Ġh el
Ġh ere
Ġh old
Ġh alf
av ing
ĠTh rough
ĠJ ames
ru str
Ġv er
Ġv ery
Ġcom pon
Ġan ch
Ġex pl
og le
Ġ12 9
ction s
ay esian
ĠO ur
ĠO ffic
ĠO bserv
ens ive
Ġar ound
Ġar ise
Ġar riv
Ġar ising
Ġar rays
Ġar chival
Ġcon es
ĠQu ad
ĠQu bit
ĠB et
ĠB uil
ĠB orn
ĠB ayesian
ver age
Ġe lement
Ġe fficiency
Ġsp aces
ph ab
ph asing
igh b
20 12
ran g
ox el
Ġco uld
Ġco exist
Ġ13 6
las ov
Ġch ang
Ġch arge
Ġch eck
ĠU r
Ġal ign
Ġal tern
Ġal phab
est rict
ĠIn c
Ġat tra
one able
12 8
12 17
ers on
edia View
":" [[
":" +\
ĠV aio
ĠV lad
ĠV lasov
ext ended
Ġ16 9
Ġint ensity
ian ce
yn man
yn omial
th esis
th ough
tic es
pp ed
Ġ15 2
Ġ15 3
Ġ15 5
Ġ15 6
Ġ15 9
ip her
ip se
ip ulation
enc ies
Ġun cer
Ġinter pre
Ġinter med
Ġinter atomic
ĠAn ime
Ġme V
Ġme asurab
ator ial
Ġcont rib
Ġ202 6
Ġgener ating
Ġgener ative
wg T
wg Is
Ġsystem atic
ĠK y
cl usion
Ġsc ram
Ġsc ience
Ġde pre
Ġde phasing
Ġnon local
Ġnon holonomic
ide finite
cu rac
ib r
Ġcomput e
co okie
Ġtrans du
ĠCom p
ĠCom plex
25 0
col lap
Ġro uting
Ġpar ad
Ġpar ity
Ġpar ticle
Ġad m
Ġad v
Ġ14 2
ry pt
Ġac curac
Ġdis cover
Ġdis sip
ack s
int eg
Ġsub space
dit ion
ard s
Ġno isy
13 65
}} ]}
Ġper sist
Ġper iod
rol led
ĠSe e
Ġoper ation
Ġoper ating
Ġpres ents
Ġapp ear
Ġpre clud
Ġpre cise
Ġpre pare
32 23
Ġover come
Ġne g
Ġne ighb
":{" @
ding er
sp an
Ġ11 7
ĠSt rong
ular ization
wik ibase
Ġev ents
Ġ29 00
ĠPro f
Ġsimul ator
Ġunder standing
Ġent ire
Ġent ropy
Ġenc ode
Ġcap t
Ġcap tur
ast ing
ast atistics
main t
Ġsol a
Ġsol ution
pro f
pro cessing
Ġ17 8
Ġob struction
Ġob serv
ĠEx cit
ĠEx mor
Ġscal es
ymm etries
eg ra
ĠXZ s
Ġhigh ly
35 93
tain ty
Ġem ission
Ġem ploy
Ġem itter
Ġse lected
evic e
Ġlimit ation
Ġrel ations
Ġrel ies
Ġrel ated
ead y
Ġtra de
Ġtra ject
Ġlocal ly
Ġlocal ization
Ġcomple tely
Ġgeneral ly
Ġgeneral izes
Ġab br
Ġspec ial
Ġcontrol led
Ġup dates
Ġ26 00
Ġexact ly
Ġelect romagnetic
Ġimplement ed
Ġimplement ing
Ġreal ize
now rap
pref ers
Ġstr ings
limit report
Ġcent ers
Ġ18 7
Ġder ived
ĠPh ysical
energ y
ĠUn der
sc ription
valu es
33 11
lem an
iab les
Ġunit aries
Ġdistrib utions
SO I
Ġenerg ies
Ġwhere as
Ġmat rix
Ġredu ction
aus e
aus al
}$ .
Ġchar ging
Ġnumber s
64 3593
In troducing
ie zo
ps ilon
Ġtem peratures
Ġtechn ologies
Ġfe edback
Ġfe asible
Ġinclud ed
import ance
rac k
Ġquant ization
ĠDis c
Ġexcit on
Ġconf ir
ĠInter action
ĠInter acting
Ġpresent ed
Ġkey board
68 33
Ġfre qu
Ġfre quency
ĠWik imedia
ĠWik idata
ĠTrans port
Ġrec ip
Ġvers ions
mathb f
Ġrequire ment
sub scription
inem ent
ĠCar leman
ĠCont ext
ĠCont rol
Ġspatial ly
67 57
bl er
tur b
Ġsch emes
Ġsens itivity
Ġefficient ly
Ġdef ined
Ġextend ed
head er
áĢ ¬
Ġtr uncated
Ġ28 70
ĠSim ulation
ĠGener ation
ĠAd aptive
Ġref lection
ift ed
Ġcondit ion
Ġcondit ions
Ġinteg rated
Ġstrong ly
Ġapplic ations
311 3
mit ter
opt omechanical
Ġsum s
Ġdiv ergence
Ġdimens ions
Ġway s
Ġinf inite
ĠDe f
ĠDe utsch
Ġlead s
Ġencoding s
Ġestim ates
BA R
equ ilibrium
lis her
me asure
sch eme
ĠMat rix
Ġbec ome
Ġbec ause
ĠRec ent
ĠCent er
Ġinterf ace
Ġinterf aces
wgC onfir
Ġtransform s
Ġplatform s
Ġsqueez ing
Ġradi ative
660 3
ele vant
Ġcl ose
Ġcl osed
Ġcy cl
Ġcar ried
Ġcert ification
ĠSo ftware
Ġdriv en
Ġmain t
Ġbi partite
Ġlab orator
Ġretain s
Ġste p
Ġste ering
Ġvalu e
Ġcompar ison
Ġarchitect ures
ĠVII I
wgR elevant
peat ers
Ġacc urate
Ġaccess ible
central aut
Ġsequ ence
Ġsepar ated
Ġtechniqu e
":[" ","
Ġincreasing ly
Ġprinci ple
Ġfocus ing
550 3
650 6
St art
tem perature
Ġkin etic
Ġjoint ly
Ġsur face
ĠMic ro
Ġcrit ical
Ġcandid ate
Ġcandid ates
Ġfact or
Ġinst ead
Ġinver sion
ĠCircu it
ĠCircu its
Ġgradient s
Ġlog ic
Ġret rieval
Ġhe av
Ġexploit ed
Ġexploit ing
Ġatt acks
Ġreson ators
Ġpart ial
Ġrapid ly
Ġextens ion
Ġconsid er
Ġexperimental ly
fdfd fd
Ġconstraint s
715 2
En abled
Sh ort
circu it
ĠMolec ular
Ġpric ing
Ġdom ain
ĠGeomet ric
ĠAm eric
Ġgadget s
Ġloc ations
Ġlaw s
Ġreve al
ĠQR OM
114 1217
Ġexpect ation
Ġexponential ly
ĠOper ators
Ġcondens ation
209 7152
agg ered
Ġintrin sic
theor etic
Ġinterferomet ry
wgM ediaView
Ġimport ant
Ġregist er
Ġtrain ability
Ġpolar ization
Ġmaximal ly
Ġeigen values
Ġcorrespond ence
Pres kill
QC B
bot tom
hib a
pub lisher
ĠSm ith
ĠSol utions
revers ibility
Ġfront ier
Ġport al
Ġpop ular
eter ogeneous
Ġman ipulation
ĠHay den
ĠFound ation
stat us
ĠWith in
ĠCas imir
ĠCoun ter
ĠTro tter
Ġgenu ine
Ġrecon struction
Ġretur ns
Ġprogram m
Ġprojector s
plac ed
ĠNex us
Ġvar iables
Ġcoordin ates
Ġuncl oneable
ĠAnaly sis
ĠKry o
ĠKey l
ĠApplic ations
Ġsimpl ified
Ġadd ress
Ġpreserv es
Ġprescrib ed
Ġprimit ives
Ġobject s
Ġdiffus ive
Ġtheoret ical
Ġformal ism
operator name
ĠAppro ach
Ġrestrict ed
Ġsimultaneous ly
rÃ¶ dinger
Mand el
Not ice
Po isson
PERI A
Rad ar
Trans form
Tok en
Vers ion
doc ument
teg rated
vare psilon
insp ired
oriz on
enormal ization
edic ting
Ġsing ular
Ġsand wich
ĠMajor ana
ĠSch rÃ¶dinger
ĠSav ov
regist ration
Ġaco ust
Ġpuls es
ĠAra go
ĠAuthor ity
Ġmac roscopic
Ġmarg inal
ĠRog erson
ĠWag ner
ĠWign er
ĠCNO T
ĠTos hiba
ĠTog gle
ĠTech Radar
ĠTop ological
Ġgsm Arena
ĠPock et
ĠPriv acy
ĠLorent z
Ġstabil ization
ategor ies
Ġarriv es
ĠBuil ding
Ġattra ct
Ġuncer tainty
Ġintermed iate
Ġscram bler
Ġdepre cated
collap se
Ġaccurac y
1365 643593
}}]} '>
Ġtraject ory
wgConfir mEdit
Ġlaborator y
wgMediaView er
" ,
" ;
" ]
" }
" }.
' $
' +
' t
( $
( '
( /
( {"
) !
) &
) )
) /
) =
) >
, #
- $
. },
1 89
1 42
2 20
2 60
3 8
3 02
4 7
4 11
5 10
6 30
6 94
7 50
7 05
7 70
8 5
8 6
8 10
8 50
8 13
9 0
9 6
9 02
9 10
; /
= \
= {"
= [[
> [[
> "}},"
? .
A D
A N
A O
A X
A p
A ware
A ll
B T
B in
B ad
B ased
B ack
B right
B lanc
C K
C o
C ol
C AM
D X
D ate
D imensional
D irac
D DI
D ef
E m
E x
E fficient
F E
F I
F S
F W
F l
F or
F ree
F ock
F resnel
G o
H int
H ead
H OM
H ON
I F
I sing
I QP
I DI
J oe
K AN
L U
L ab
L ow
L ive
L DPC
M A
M D
M Z
M od
M ad
M obile
M ax
N ow
N ew
N ov
O W
P I
P auli
P ublish
Q D
Q NS
R D
R G
R e
R ev
S P
S R
S e
S u
S IM
S WAP
S elect
T able
T ime
T olerant
T arget
U XGA
U OS
V L
V IDI
W A
W M
W erner
[ "
\ ","
\ ""
\ }}$
] +
] ).
^ |
_ {
a ev
a par
a os
a ug
a In
a als
b y
b an
b um
b ase
b ient
b lock
b hi
b reaking
b ably
b rack
c x
c an
c ri
c ers
c ase
c cess
c ast
c apt
c amera
c ision
c ement
c ÏĢ
c rossing
d d
d s
d om
d ev
d rom
d ec
d op
d iabatic
d evice
e ed
e ak
e ering
e aling
e iling
e Col
f ig
f ies
f rac
f idelity
g acy
g lobal
g lish
g gest
h d
h ing
h om
h ap
h ogonal
i á
i or
i omet
i PS
j s
k ov
k top
l a
l int
l arge
m a
m f
m m
m p
m od
m ax
m ak
m atter
m onic
m enu
n o
n ate
n ear
n ull
n etwork
n ost
n eg
n umber
o o
o ot
o ir
o ich
o ok
o ice
p ed
p ath
p ost
p roduct
p ng
p ush
p ensive
q utrit
r en
r ed
r un
r ive
r ite
r edu
r ised
r reversibility
s im
s un
s ure
s ide
s cre
s izing
s mall
s ue
s earch
s ince
s Js
t ed
t ot
t age
t ag
t ril
t ablet
t ible
t ables
u ch
u ple
u ild
v o
v ex
v ideo
w n
w s
w ap
w indow
w ned
y lo
y Max
z uk
{ .
{ |
| \
| |[
} ]
} {
£ ²
ª ŀ
± Ø
³ ãĥ
» Î
¼ r
Ã §
Ã ¼r
Î ©
Î Ķ
Î Ľ
Ï Ħ
Ï Ĩ
Ð °
Ø §
Ø ±Ø
ä ¸
å £²
è ªŀ
Ġ j
Ġ u
Ġ Ð
Ġ ant
Ġ el
Ġ ru
Ġ if
Ġ ell
Ġ eng
Ġ zo
Ġ early
Ġ ultra
Ġ zero
Ġ ÏĦ
Ġ ä¸
on ant
on ly
on ate
on ators
er eb
in a
in k
in es
in ing
in ant
in for
in formation
in ning
in bow
in variant
Ġt im
Ġt un
Ġt able
Ġt ack
Ġt ele
Ġt rivial
an e
an ar
an iel
an ces
an onical
or ing
or ation
or ous
or ption
at o
al t
al es
al id
al ous
al ance
al ks
al gebra
ar on
ar ed
ar ch
ar se
ar ithm
ar ts
ar chitect
ar rang
ar ren
en e
en n
en us
en der
en ari
en han
Ġth us
Ġth ous
Ġth ose
Ġth esis
Ġth resh
Ġth ereb
ed irect
it ch
it ial
it ian
it ors
Ġs pl
Ġs mart
Ġs ilicon
Ġs ites
Ġs ymmetries
ro cal
ĠM K
ĠM Z
ĠM ed
ĠM im
ĠM od
ĠM ot
ĠM ore
ĠM ode
ĠM ixed
ĠM agnetic
ĠM otion
ic lassical
ic ators
Ġc at
Ġc ite
Ġc lock
Ġc amer
Ġc ases
Ġc rossing
Ġc rypt
Ġc ausal
Ġ1 80
Ġ1 000
le vant
le ven
ĠS c
ĠS qu
ĠS em
ĠS ec
ĠS ever
ĠS ym
ĠS low
ĠS ources
ĠS ymmetric
ĠS cal
ĠS ince
ĠS YK
ĠS late
ĠS ilicon
ĠS QD
is s
is ation
is ol
is fies
re w
re place
Ġf ar
Ġf ile
Ġf ine
Ġf ace
Ġf raction
Ġf avor
Ġf rustr
Ġa x
Ġa ffect
Ġo pp
Ġo wned
per i
Ġp ip
Ġp ast
Ġp rior
Ġp iezo
Ġp eak
Ġd i
Ġd ates
Ġd ire
Ġd ict
Ġd igital
Ġd my
Ġd atab
Ġd rift
Ġd own
ct ability
ĠG ame
ĠG reat
Ġ20 09
ut s
ut ed
ut ual
ut ting
et y
et ically
ch en
ch ing
ch ron
ia d
ia s
qu ant
Ġw o
Ġw orld
Ġw ire
Ġw ill
Ġw rit
Ġw indow
Ġw ater
Ġw inding
Ġw alks
Ġin consistent
Ġin cor
Ġof f
Ġof fic
ent ion
ĠA X
ĠA k
ĠA t
ĠA in
ĠA cc
ĠA MC
ĠA gent
ĠA ctions
ĠX B
ĠX PERIA
um b
um e
um p
um er
um inos
ant s
Ġm ay
Ġm enu
Ġm ark
Ġm oment
Ġm ixing
Ġm uch
Ġm utual
om i
om inally
om alous
im ize
im ising
as er
Ġb as
Ġb ig
Ġb ur
Ġb ud
Ġb ack
Ġb ody
Ġb ases
Ġb reaking
Ġb elow
Ġb uild
Ġb arren
ĠR C
ĠR ol
ĠR ich
ĠR eg
ĠR ash
ĠR SOI
ĠR enormalization
ev en
ev ent
iv id
iv ated
iv ative
iv ely
iv acy
iv ious
el ike
el iC
ĠH a
ĠH e
ĠH ess
ĠH erm
ĠH idden
ĠH TC
ra de
em a
em ph
em bedd
em bedded
ig her
ĠF rom
ĠF ree
ĠF ram
ĠF unction
ĠF ast
ĠF inite
ĠF urther
ĠF inding
ĠF eliC
Ġ( \
st ac
st abilizer
Ġqu ality
ĠW T
ĠW ay
ĠW ork
ĠW XGA
ĠW UXGA
ĠW aals
Ġ4 0
Ġ4 1
Ġ4 2
Ġ4 3
Ġ4 7
Ġ4 30
ĠC D
ĠC ore
ĠC ell
ĠC rit
ĠC PU
ĠC ipher
ri ple
ĠT r
ĠT w
ĠT ensor
ĠT DA
ĠT ele
ĠT RI
ĠT uring
ĠT ype
ĠT ouch
ĠT egra
Ġg u
Ġg as
un iform
un leashed
un cation
un stri
Ġon ce
Ġon to
Ġ8 8
Ġ8 55
ul can
Ġn ont
Ġn ec
Ġn one
Ġn ative
am s
am ple
Ġ5 7
Ġ5 28
id a
id s
id er
id ent
Ġl os
Ġl ine
Ġl ast
Ġl angu
Ġl aser
Ġre form
Ġre pe
Ġre ach
Ġre peaters
Ġre arrang
Ġre levant
rom od
rom agnet
ĠP age
ĠP ort
ĠP ress
ĠP AC
ĠP OV
ĠP ublish
ĠP HON
ol ic
ol ition
ol ute
ĠL P
ĠL U
ĠL e
ĠL ive
ĠL ip
ĠL ocal
ĠL arge
ĠL ie
ĠL oun
ĠL DPC
ĠL attice
ĠL etter
ĠL amb
ĠL ifted
ont aneous
par astatistics
00 00
il ayer
ĠD A
ĠD em
ĠD ata
ĠD ick
ĠD evices
ĠD QI
ĠD onate
ĠD aniel
Ġst ability
Ġst ill
Ġst atic
Ġst atist
Ġst art
Ġst rict
Ġst eady
Ġst aggered
Ġst arts
ad oo
ist rib
ist ants
Ġor ders
ĠE V
ĠE ffect
ĠE valu
ĠE ee
ĠE ven
ap p
ap ing
res onant
ith er
ate g
ate aus
ĠQ C
ĠQ UBO
us s
us age
us hi
ot es
ot ically
ot onic
ir l
ir al
ĠAr ena
ĠAr rays
pl atform
pl anar
ur v
ur er
ur ated
ĠRetri eval
ter m
ter ative
ac ing
Ġ3 5
Ġ3 7
ĠI rreversibility
ĠI terative
ec s
ec ompos
Ġis sue
Ġ6 6
Ġ6 50
Ġ6 95
ĠN ew
ĠN ative
ĠN arrow
ĠN EGF
ĠN ISQ
ĠN TT
ĠN VIDI
ĠN iPS
Ġh om
Ġh ost
Ġh istory
Ġh opping
Ġh istor
Ġh eterogeneous
Ġh orizon
Ġh igher
ile vel
av is
ĠTh en
ĠJ oe
ĠJ adoo
ru ply
Ġv an
Ġv oxel
Ġv alid
Ġcom ing
Ġcom pos
ĠZ X
Ġan sat
Ġex otic
Ġex press
os ite
ĠWe ather
PA D
if ier
if iable
Ġ12 4
Ġ12 5
Ġ12 7
ay s
ĠO S
ĠO ver
ĠO ja
und s
Ġar row
Ġar ticles
Ġas ks
ĠMar ton
Ġcon e
Ġcon ject
Ġcon serv
Ġcon sequ
Ġcon cept
10 1
10 5
ĠQu ant
Ġsu pre
Ġsu ccess
Ġsu ggest
form at
ess ment
ess ional
ĠB e
ĠB ob
ĠB ey
ĠB ose
ĠB etween
ĠB rid
ĠB ench
ĠB inary
ĠB enders
ĠB rav
Ġe ither
Ġ10 1
Ġ10 4
Ġ10 7
Ġsp ontaneous
Ġwh at
ph ones
ĠThe ory
20 1
20 10
20 160
Ġco inc
Ġco uple
Ġco arse
Ġco planar
Ġ13 1
Ġ13 9
Ġ13 20
Ġ13 05
com pon
du p
Ġch iral
ĠU se
ĠU plo
Ġal way
est ro
est Kit
ĠIn st
ĠIn As
ĠIn tegrated
ĠIn itial
Ġ7 1
Ġ7 6
ple tely
ag ed
ag ing
ag nost
sical ly
up s
ers onal
ort hogonal
":" {{
ĠV L
ĠV enus
ĠV ulcan
ext reme
Ġ16 0
Ġ16 7
Ġint ense
ud y
ff ing
th ogonal
Ġres erv
Ġres olution
Ġres istance
Ġres hap
Ġ15 0
Ġ15 7
nav igation
ip s
ip al
Ġun its
Ġun con
Ġun leashed
Ġme asure
Ġme asures
Ġbe h
Ġbe gin
Ġsh arp
Ġsh oot
Ġsh ared
Ġsh aping
Ġcont ents
Ġgener ic
Ġgener ated
wg P
wg User
wg Vis
wg WM
Ġ9 0
Ġ9 5
Ġ9 7
Ġ9 8
ĠK och
ĠK DDI
cl ip
Ġde legated
Ġmod al
Ġmod ule
Ġnon classical
Ġnon zero
ib ration
co upling
Ġtrans vers
lect or
ign s
ign aling
Ġr ates
Ġr enders
Ġr ather
Ġopt im
Ġopt ically
ĠCom bin
80 56
col ation
Ġro w
Ġro le
Ġro ot
Ġro unds
all back
Ġpar ticles
se lection
Ġle ft
Ġle verage
Ġle gacy
Ġcan not
Ġsim plic
Ġ23 30
Ġ23 70
Ġad ditional
mart ing
ov e
Ġ14 5
Ġac count
Ġdis joint
our ing
pos al
pos ition
int roducing
Ġsub circu
Ġsub stant
Ġim pact
Ġim plies
Ġim prov
Ġdec re
Ġdec oding
Ġdec onstruction
Ġdec oder
ific ates
ĠAndroid central
gro wn
Ġprov ed
ĠEr asure
ĠEr asures
Ġper fect
Ġper turb
ĠSe par
Ġquad ratic
Ġstud ies
Ġstud ied
Ġpres sure
ole m
Ġer asures
Ġapp lying
Ġpre par
Ġpre vent
32 1
32 12
32 42
32 26
32 21
Ġit er
Ġover all
Ġover lap
Ġdet ail
Ġne utral
sp acing
sp ecs
Ġund ermin
anu fact
ĠSt ore
ĠSt ates
ĠSt ruct
ĠSt ream
ĠSt udy
Ġshow s
Ġshow ing
ix el
wik idata
Ar chos
Ġev idence
Ġsingle t
Ġ25 00
Ġ29 30
Ġmin imal
ĠPro posal
ĠEn hanc
Ġenc odes
ill er
ill ar
)$ -
de ad
de pth
de gree
dis sip
Ġsol ve
Ġpr im
Ġpr edicting
Ġpr ivacy
pro pag
Ġra inbow
Ġ17 0
Ġ17 2
Ġ17 5
Ġob ser
Ġob ey
Ġob struct
Ġob stac
Ġbound ed
ĠEx t
ĠEx plicit
ĠEx tern
ĠEx clusion
Ġatom ic
Ġintrodu ces
89 28
op ups
Ġdes pite
Ġem ulation
Ġem bedded
Ġem pir
Ġse ed
Ġse lection
Ġlimit ations
Ġreg ions
Ġreg imes
Ġrel ax
Ġrel ative
Ġrel ativ
Ġrel iable
con nect
Ġtra ce
Ġtra ffic
Ġtra ctability
Ġwork s
Ġlocal ized
72 00
72 25
Ġ19 00
Ġfunction al
Ġpos ed
Ġpos ition
Ġcontrol s
Ġy ou
Ġy ears
Ġprocess es
Ġprocess ors
Ġass emb
Ġass istants
Ġass essment
Ġelect ro
Ġelect rons
Ġelect ronic
42 13
82 3
82 10
82 74
text it
text bf
Ġset s
Ġset up
ĠHamiltonian s
55 02
ok ens
Ġed ge
Ġpl ateaus
ĠRe al
ĠRe ferences
ĠRe leased
Ġstr ateg
Ġcomm ut
log o
ãĥ ¼
ãĥ ĭ
Ġen ables
Ġ18 1
Ġder iving
Ġlat er
Ġremain ed
ĠPh oton
ĠPre cise
Ġsuper rad
Ġinvestig ation
cont rolled
sc ill
sc ience
sc ape
chan nel
Ġstruct ural
Ġvector s
Ġparamet rised
33 13
CD MA
hod s
iab ility
ĠFor m
Ġform ing
Ġform ulation
Ġform ulate
Ġanaly tical
Ġlear n
ĠPlay Now
Ġestablish ing
202 3
202 6
Ġap plied
Ġmat ches
Ġnetwork ing
eck er
Ġredu ces
Ġredu cing
Ġdevelop ed
Ġdevelop ment
53 02
Ġi SWAP
inu um
ĠCh r
ĠCh aw
ĠCh annel
ĠCh romod
ĠCon ver
ĠCon nect
ĠCon sequ
ological ly
Ġadvant ages
64 0
65 02
In P
In fobox
]] \
ãĤ ³ãĥ
Ġtem plate
Ġtechn ical
Ġtechn ologically
Ġcol or
perim ents
Ġinclud es
Ġquant it
Ġquant ifier
oler ance
Ġexcit ations
Ġconf idence
Ġconf inement
){ .
68 02
Edit able
lin k
Ġ22 1
ĠSystem s
Ġflu ores
Ġinit io
Ġ48 5
Ġcomp ens
Ġcomp ilation
Ġdeg rade
Ġrob otic
Ġident ifies
Ġdemonstr ated
)" \
)" },"
over flow
ĠMe et
Ġclass es
Ġprom ises
Ġwave function
Ġwave guide
Ġincre ase
Ġincre ases
Ġmap ping
ĠCar r
ĠCont act
ĠCont ents
ĠPad re
Ġexperim ent
ify ing
Ġcost s
Ġcost ly
Ġrandom ness
67 55
67 52
67 37
Page Name
Page Is
min i
pre mium
anc y
atch ing
Ġsem i
Ġsem idefinite
Ġsem iclassical
Ġoffer ed
ĠTo ols
Ġsupp ress
mark ing
Ġdef ect
Ġdef ine
ĠComm ons
ĠComm unication
Ġdisc uss
ĠSpec ifications
ĠSpec ification
Ġextend s
Ġcharacter ization
Ġcharacter ize
Ġcharacter istic
Ġachi eved
áĢ Ļ
Ġtr uncation
align ed
Ġsever e
ĠSim ulating
ĠSmartph one
Ġfamil ies
Ġpol y
Ġpol ynomial
ĠGener ating
ĠGener alized
ĠAd aIn
ĠAl gorithm
ĠAl gebra
ĠAl though
ĠAl bum
Ġquest ions
Ġlong er
Ġref lecting
part ition
Ġinteg ral
Ġdeco upling
wikimedia Bad
Ġapproxim ately
Ġstrong er
eez ing
oper ation
opt ical
opt ions
Ġsum m
Ġsmall er
ĠMo ore
Ġcle ar
Ġway back
Ġind ex
Ġind icators
Ġind ivid
Ġind ecompos
ĠApp earance
Ġmulti qubit
Ġbos on
Ġbos ons
Ġbroad band
ampl es
Ġrepresent ations
Ġcombin ed
Ġcombin atorial
Ġconnect ed
Ġcontain s
Ġsubs et
Ġdetect ed
Ġachiev es
Ġachiev ing
web site
ĠMat t
ĠMulti ple
Ġmax imum
Ġbec om
ĠRec onstruction
Ġgo al
Ġgo od
Ġstor ing
Ġproject s
Ġproject ed
ĠEu Cl
Ġann ealing
Ġinterf ac
Ġcontext s
wgC anonical
Ġtransform ations
ymb olic
Ġdistin ction
Ġobtain ed
ĠPhone Arena
Ġgroup s
Ġconsist s
Ġconsist ency
Ġfeat uring
Ġidentify ing
Ġsupport s
Ġdiscrimin ated
29 0
66 02
69 02
69 03
69 06
DM RG
Language Select
SQ D
SQ L
lap sible
page Language
tr uncated
Ġtas ks
edict ive
Ġsyn thesis
Ġsyn drom
Ġsyn chron
Ġcrystal s
Ġpoint s
Ġpower ful
Ġbi partition
Ġbot tom
ĠRes ource
ĠRes ponse
ĠRes onators
ĠRandom ized
Ġrece ivers
Ġrece ived
Ġrece iver
Ġretain ing
Ġextra ction
ĠOther s
wgR estrict
Ġacc eler
Ġdetermin ant
Ġdetermin istic
Ġevalu ation
Ġevalu ated
central Notice
Ġsepar able
Ġsignificant ly
Ġphoton ics
312 3
650 3
BC O
NO S
Wik ibase
_{\ {
fre quency
gan ization
urab le
}); });
Î´ c
Ġthere fore
itud es
ĠMic rowave
ĠMet hods
Ġcrit erion
ĠSu per
ision Id
Ġfact ors
Ġdimensional ity
Ġinver tible
ĠAc ro
ĠAc cess
Ġmess age
Ġmult imode
Ġmult ilevel
Ġmak es
Ġbit str
Ġlog arithm
Ġret ail
ĠPr int
ĠPr edictive
ĠPar allel
Ġpropag ates
Ġorac les
ĠBound s
Ġatt empt
Ġrest ric
Ġuniversal ity
wgPage Cont
Ġpart ition
Article Id
Article Target
ĠProcess or
Ġposs ible
Ġposs ibility
Ġtheorem s
Ġextens ive
Ġdescrib e
Ġdescrib ed
Ġconsid ered
Ġthermod ynamics
ĠDetermin istic
ĠEncoding s
Ġpotential s
235 50
235 56
530 6
DC U
DO F
Or der
Or ganization
Pro ject
Pro bably
Pad re
elect ron
hidden row
pol ar
vis ualEditor
watch es
inter language
Ġslow est
ĠMolec ules
Ġpric e
Ġdom inant
Ġdiagonal izing
ĠGo ogle
ĠGeomet ry
ĠAtom s
ĠAtom ic
Ġmon otonic
Ġmass ive
eler ated
ĠCre ate
ĠCre ative
Ġloc ated
Ġreve aling
ĠQR AM
Ġ33 30
Ġexpect ed
Ġcondens ed
Ġweak ly
Ġcoupling s
Ġalgebra ic
agg ed
Ġintrin sically
theor etically
Ġresolv e
Ġresolv ing
Ġinterferomet ers
Ġrot ations
Ġparallel ism
Ġparticular ly
Ġimport ance
Ġdistinguish ing
Ġdistinguish ability
Ġdetun ed
Ġdetun ing
Ġdetector s
prov ed
Ġinvolv es
Ġinvolv ing
Ġyield ing
Ġcommon ly
Ġcollis ion
Ġcollis ions
Ġampl itude
Ġampl itudes
ĠMeasurement s
Ġmechanism s
Ġmagn ons
Ġmagn itude
ĠLindbladian s
Ġcorrespond s
.. .
680 6
AQ UOS
Ch ina
Cs sJs
Kit aev
Pl ay
Qu bit
Qu ery
Sp ecker
des ktop
moment um
trans parent
Ġut ilizing
Ġir redu
Ġide al
arc ia
Ġsat isfies
Ġsat urated
roc ity
icy cle
ĠSX RD
ĠSam ple
ĠSam sun
ĠSur bhi
Ġfl avor
Ġocc up
Ġpass age
Ġdel iver
Ġincom ing
Ġbran ch
Ġbran ches
Ġbuil t
Ġbuil dup
ĠRel ational
ĠRob yn
emb le
ĠFe ynman
Ġ($ \
Ġgover ning
Ġnam ing
Ġnam ely
Ġlist s
Ġlay ered
Ġlarg ely
Ġread out
Ġorgan ic
ĠNe ural
Ġvol tage
Ġexce ed
Ġphenom en
Ġphenom ena
Ġcoefficient s
ĠUS A
Ġallow s
Ġallow ed
ĠAnd rew
wgULS is
Ġrig id
Ġrig orous
ĠComput ing
ĠSpect ral
Ġemerg ed
Ġassum ptions
ĠUncon ventional
Ġfermion ic
Ġcompet itors
ĠCorre ction
Ġlabel s
Ġsequential ly
Ġexhibit ing
Ġasympt otic
Ġasympt otically
MI NOS
Names pace
QR AM
dem olition
eq iad
har monic
ker n
pat ibility
ycl ic
Ġens emble
Ġran k
Ġ}} &
Ġiron ed
iness es
Ġtw irl
Ġtreat ments
esh kov
Ġsole ly
ĠMob yMax
Ġcal c
Ġcre ating
Ġcall ed
ĠSingle t
Ġfer romagnetic
Ġfil ms
Ġfail s
Ġpurific ation
ĠGadget s
ĠAb out
Ġmitig ate
Ġbus inesses
Ġquar tic
ĠCol or
ĠClo ud
ĠTechn ology
Ġlad der
Ġreprodu ce
ĠLo ire
ĠLin ear
ĠLear ning
abs orption
ĠDo Co
ĠDu ffing
ĠDes pite
ĠDiagonal ization
ĠEl ite
ĠElect ron
Ġ34 30
ĠIm proved
ĠNot e
Ġhel p
Ġhold s
Ġver tices
Ġcompon ents
Ġanch ors
Ġexpl ore
ĠOffic ial
ĠObserv ables
Ġcoexist ence
Ġchang es
ĠUr ushi
Ġalign ment
Ġaltern ative
Ġalphab et
":"+\ \","
Ġinterpre tation
Ġmeasurab le
Ġnonlocal ity
ibr ational
Ġtransdu cers
ĠComplex ity
Ġparad ig
Ġadm its
Ġdissip ative
Ġneighb ouring
ĠProf essional
Ġentire ly
Ġcapt ure
Ġcaptur ed
prof it
Ġobstruction s
Ġobserv ables
Ġemploy ing
Ġemitter s
ĠUnder standing
Ġconfir med
Ġfrequ encies
Ġrecip rocity
ĠContext uality
ĠDef ault
Ġcycl es
centralaut h
":[""," "],"
Ġheav ily
ĠAmeric an
QCB Ms
ĠCounter diabatic
Transform Table
Ġsandwich ed
Ġacoust ic
Ġmarginal s
ĠLorentz ian
Ġattract ive
189 11
411 3
694 3
Back end
Blanc Bright
Def ault
Hint s
LU MINOS
Mad an
Su zuk
\"" "
apar ticles
aug ing
brack ets
capt ion
dec oration
dop ed
eCol lapsible
global CssJs
iomet ric
mak eCollapsible
no ise
oich iometric
scre en
tril uminos
tables orter
wap ping
||[ ]).
ÎĶ E
Ġru le
Ġell ipse
Ġeng ine
infor cement
Ġtack le
architect ure
enari os
enhan ced
Ġthous ands
Ġthresh old
Ġthereb y
Ġsmart watches
ĠMim mi
ĠMod ular
ĠSqu eezing
ĠSem iconductor
ĠSever al
ĠSym FT
isol ated
Ġfavor able
Ġopp osite
Ġpip eline
Ġdatab ase
Ġwire less
Ġincor por
Ġoffic ial
Ġmark et
Ġmoment um
Ġbud get
Ġbuild s
ĠRich ard
ĠRash ba
ĠHerm itian
embedd ability
ĠFeliC a
stabilizer ness
ĠWay back
ĠWork ing
riple t
ĠTele phones
ĠTRI LUMINOS
unstri p
Ġnont rivial
Ġnec ess
Ġnone quilibrium
Ġlos s
Ġlangu ages
Ġreform ulating
Ġrepe ated
Ġrearrang ements
ĠPublish ing
ĠPHON E
ĠLip kin
ĠLoun ge
ĠDick e
Ġstatist ical
Ġstrict ly
ĠEvalu ation
ĠNarrow band
ĠNVIDI A
Ġcompos ed
Ġansat z
Ġexpress ivity
ĠMarton ik
Ġconsequ ence
Ġconcept ual
Ġsupre m
ĠBey ond
ĠBench marking
ĠBrav ia
compon ent
ĠUplo ad
Ġalway s
estKit chen
ĠInAs P
ĠInitial ization
agnost ic
Ġreserv oir
Ġshoot ing
wgVis ualEditor
ĠKoch en
Ġsubcircu its
Ġperfect ly
3242 4
anufact urer
ĠEnhanc er
Ġobstruct ing
Ġobstac les
ĠExtern al
Ġempir ical
Ġrelativ istic
Ġsuperrad iance
ĠChaw la
ĠChromod ynamics
ĠConsequ ently
Ġfluores cent
ĠAdaIn it
wikimediaBad ges
Ġindivid ual
Ġindecompos able
LanguageSelect or
Ġsyndrom e
wgRestrict ion
wgPageCont ent
23556 331
Probably Editable
desktop ArticleTarget
Ġirredu cible
ĠSamsun g
ĠDoCo Mo
Suzuk i
