#version: 0.2
i n
o n
e r
a n
Ġ t
t i
e n
r e
a l
o r
Ġt h
Ġ s
Ġ a
Ġ c
i t
e s
ti on
a t
Ġth e
Ġ o
i s
in g
a r
e d
Ġ p
r o
i c
Ġ f
l e
Ġ d
q u
Ġ in
Ġo f
t u
Ġ an
a tion
Ġ w
a s
Ġ m
en t
u t
Ġ b
tu m
an tum
Ġ qu
o m
s t
Ġ re
Ġan d
i m
Ġ e
a c
e c
e t
a m
Ġqu antum
u n
u l
e l
Ġ l
e m
ti c
Ġ n
Ġt o
o l
i l
Ġp ro
a b
Ġ g
o d
Ġ T
, "
l y
v e
c e
Ġf or
i d
Ġs t
v er
s i
p ut
it h
Ġ W
at e
c h
t er
Ġc on
" :
i r
Ġ C
p ar
ic al
o w
Ġ on
a g
Ġ S
it y
is t
i g
s er
Ġ is
a d
u r
Ġ $
p er
p l
Ġ h
i z
u c
Ġ Q
Ġe x
Ġ .
Ġc om
Ġw ith
u s
Ġ A
Ġ (
o ut
r i
m w
Ġ M
re s
ĠW e
" ,"
ĠT h
m ent
Ġ H
ec t
ĠQ u
f or
r a
o t
Ġ P
Ġw e
par ser
out put
Ġth at
un d
r an
u m
ation s
ĠQu antum
o s
Ġw h
o g
u re
Ġa s
Ġc o
as s
for m
o c
f f
Ġ I
en ce
Ġ v
en er
Ġ R
ro m
b it
Ġ F
Ġb y
Ġs p
ti m
es s
at es
a in
e x
Ġ E
an t
c t
Ġs u
Ġ D
Ġ al
ti ve
Ġs y
Ġc h
Ġd e
h er
l ist
or k
si on
ĠTh e
l ass
p le
Ġth is
g e
Ġa t
ag e
ĠI n
in e
i es
an d
": "
ig h
a y
at ed
a p
c tion
en s
f er
i an
t h
Ġ L
en c
d er
i a
o re
ab le
Ġ B
Ġp h
Ġin t
st em
tic al
er m
Ġf rom
Ġin ter
Ġn on
i f
o p
p h
Ġg ener
e as
r ic
w g
it s
Ġo p
am e
ab il
y n
Ġ un
at or
d uc
ar y
r uc
ti al
Ġm od
Ġcon t
on t
Ġs h
ac t
Ġsy stem
c u
Ġ N
Ġre s
lass ical
p p
w o
} .
or t
iz ation
Ġcom put
Ġ us
Ġt ran
Ġa re
Ġd i
Ġb e
ex t
i ent
s e
yn am
h list
r y
w ork
Ġ O
Ġ or
an g
Ġa d
it e
ul t
a v
en d
re e
ic s
ab l
Ġp ar
ac e
ir cu
b o
er e
Ġs c
Ġc an
as e
b er
Ġt wo
or y
Ġs im
Ġa r
eas ure
i k
o ur
u p
Ġ G
Ġ le
c l
t y
on s
tion s
Ġf i
le ct
o us
v el
im e
a re
s p
en sion
al l
as ed
im it
el d
ff ic
t ing
y s
Ġ 1
Ġ ro
Ġs tu
is e
ic h
ig n
bo x
, .
Ġp re
a ve
c ess
v es
es t
Ġd ec
id e
Ġst ate
easure ment
0 0
c o
u e
v en
v al
Ġn e
form ation
d y
i e
o und
r or
Ġc lassical
Ġc ircu
at h
Ġf r
Ġd ynam
im ension
ac h
ect or
os e
b le
Ġ U
Ġ im
er s
ro l
Ġd is
qu i
as t
un ction
Ġn o
Ġst ates
ir st
igh t
Ġ er
in t
on g
an ce
Ġs e
ri b
Ġwh ich
og ical
abil ity
g or
{ "
Ġc or
Ġo per
ing le
Ġd ist
Ġm easurement
ith m
oc al
r al
Ġa c
ec h
am il
Ġmod el
d e
l ow
n e
Ġ r
on d
at ing
Ġo ver
Ġm a
Ġqu bit
il d
ra ph
Ġsh ow
Ġstu dy
2 0
p e
u tion
Ġ und
Ġa pp
Ġp res
Ġin formation
tu re
ation al
st ruc
gor ithm
: :
m ath
t r
Ġs ingle
ar g
Ġp er
ic ation
ul ar
Ġpro p
od e
Ġon e
Ġsystem s
Ġsim ul
o le
w e
Ġ enc
or der
ar i
Ġp o
ac k
": {"
Ġal gorithm
Ġund er
) $
- -
i p
i al
m m
n s
Ġ k
Ġ its
in ite
ar d
Ġp r
om et
ac tion
iz ed
Ġfi eld
Ġfr ame
a tive
l o
Ġt ime
ti f
es e
Ġthe ir
Ġo b
is h
Ġd et
Ġb ut
Ġb ound
Ġre qui
ĠTh is
Ġsu ch
Ġat om
Ġsc al
Ġcor re
mm et
2 5
b ar
d i
i on
l es
n ing
Ġ it
Ġ ent
in d
ed ia
le ment
ĠH ere
Ġop tim
Ġtran s
imension al
b r
d u
i le
m ain
p tion
u pl
en tial
at ter
at ure
ar k
Ġm et
ent s
st y
Ġre g
Ġre l
et work
Ġl imit
ĠS t
ffic ient
Ġdynam ics
a ti
l ine
p re
p end
s c
t on
u g
v ing
Ġ en
ti g
al ly
Ġthe ory
Ġw ork
Ġe m
Ġl ocal
Ġpro t
ch ild
Ġcom ple
Ġcircu it
Ġer ror
Ġframe work
du ce
' s
o f
p ol
p ort
v ed
Ġ \
Ġs ec
tion al
ro w
Ġd es
Ġl ow
em p
il l
od es
Ġh igh
Ġco her
Ġsp in
ple ment
fer ence
Ġph ys
Ġcont rol
c ent
e ver
e ad
p ro
u st
} ,"
Ġ K
Ġs ol
Ġs ign
Ġf unction
Ġan al
Ġb ot
Ġe lect
ul ti
Ġex act
tim e
Ġint ro
ator s
Ġus ing
ang lement
our ce
Ġim plement
Ġno ise
amil ton
Ġapp ro
amilton ian
1 0
c es
e ar
v ant
on ic
en g
Ġa b
Ġp l
et we
am box
tic e
ver y
si tion
Ġex t
ĠH amiltonian
Ġv ia
Ġint o
Ġgener al
Ġprot oc
etwe en
b ased
c on
c ol
e g
e y
n el
p pl
t o
t ain
w id
w are
x im
Ġth ese
Ġm an
Ġre al
Ġl i
Ġn um
Ġpro v
Ġpro cess
Ġst r
ow ever
Ġ$ \
Ġh as
Ġex p
Ġcom m
ĠE x
ens ity
Ġph ot
Ġop tical
ves tig
ug h
Ġprotoc ol
wid th
\ /
e f
e omet
n ess
p x
s ing
x ed
} $
Ġ V
ar ge
qu bit
Ġin vestig
Ġb etween
om p
Ġre main
ener g
ĠE n
Ġsu b
a f
c re
d it
d imensional
i ve
j or
n av
o v
r ad
Ġ y
Ġ est
re ad
Ġs et
is tic
ro up
Ġf inite
Ġd er
Ġm ag
Ġb ased
st r
Ġe qu
am et
Ġpro b
od ing
Ġst ruc
ical ly
iz e
ra in
Ġv ector
Ġch all
enc es
Ġor der
abl ish
Ġpar amet
ĠU n
struc tion
Ġper form
ole c
Ġcomple x
Ġest ablish
$ -
a u
a ul
a tic
b in
c it
c ont
d is
h od
i ons
j ect
o st
v ic
v ol
w ik
on e
an c
ti es
at a
at tice
is ing
Ġp a
ro und
Ġf ul
Ġf irst
Ġm at
Ġe ff
Ġl ogical
Ġn ot
Ġfor m
ow n
pl o
Ġcom p
os ed
Ġas s
Ġsp ect
Ġsp ace
Ġsu per
Ġch an
fer ences
Ġun it
duc t
Ġle ar
ech an
Ġrequi re
Ġent anglement
Ġoptim al
sty le
Ġdes c
Ġcoher ent
Ġintro duce
read y
aul i
a k
a ult
b l
d ing
f t
i ver
l imit
t en
z e
Ġ 2
Ġ id
Ġ ran
Ġ energ
Ġa ppl
Ġc odes
ro ugh
Ġf l
Ġd d
Ġd t
ec k
el y
tic le
Ġn etwork
Ġpro per
od y
Ġcon s
ĠS p
erm in
abil iz
ĠO p
abl ed
ty pe
Ġdist rib
Ġmeasurement s
Ġmodel s
Ġbot h
af ter
nav bar
a us
b order
b ody
d om
i ed
i tic
n own
r m
r ary
ti t
re ct
Ġc ol
Ġqu an
em ory
Ġpro ve
Ġg raph
ĠC om
ĠP auli
Ġwh ose
Ġv ari
bit rary
ĠF or
Ġsy mmet
ens or
enc y
Ġres ult
Ġcomput ing
ang u
Ġad vant
cl u
cl ient
vel op
ne tic
Ġqubit s
math rm
arg in
Ġcorre l
Ġmet hod
Ġman y
Ġnum ber
Ġstruc ture
au ge
abiliz er
) ,
b ef
l l
r on
s o
t ext
in im
on al
on str
er y
Ġt ech
Ġc ent
Ġo l
Ġo ut
is m
Ġp ol
Ġf und
Ġf erm
Ġd em
qu e
Ġm i
ent al
ec tion
un ication
ul ation
Ġl arge
Ġl attice
Ġpro ble
Ġg eomet
Ġg auge
ĠW h
ch em
Ġcon st
ĠC o
per im
Ġh ave
Ġex cit
ĠH owever
Ġde velop
Ġph ase
Ġdi ff
Ġar bitrary
our ces
sp ort
sp ace
Ġma jor
Ġpres ent
Ġprop ose
Ġsimul ation
Ġalgorithm s
Ġatom s
bef ore
Ġtech n
Ġfund am
Ġproble m
$ ,
2 4
E dit
a tial
e ature
f irst
i b
i eld
k s
k in
r am
s s
u res
in u
en ch
al s
Ġth erm
Ġa m
Ġc ap
Ġc ode
Ġf re
le ft
as ing
Ġm ic
st ate
Ġe very
el l
em pl
ol er
Ġcon f
": [
ĠC ar
Ġon ly
ĠA n
ĠP re
ĠP ro
Ġde g
ĠIn ter
Ġinter ference
Ġcomput ation
ber g
val u
ie w
Ġcircu its
de pend
math b
pre f
Ġphys ical
Ġinvestig ate
Ġremain s
cont ent
Ġlear ning
Ġid en
Ġenerg y
itic ian
angu age
Ġadvant age
Ġdem onstr
b and
b ack
b ust
c ur
d ic
e ous
f al
f ont
f unction
l ed
l if
l ast
m ore
m ark
m argin
o k
o int
t t
t ed
v an
y d
y mmet
{ \
Ġt r
Ġt ensor
or d
Ġth rough
Ġc lass
ar ac
Ġin i
Ġof fer
tu al
Ġan y
Ġw ave
as is
Ġm ap
Ġm ulti
Ġm olec
om e
Ġre duc
Ġre co
et s
Ġl ine
tic les
Ġpro m
Ġg ate
si ve
ĠW ik
ĠC ont
par ation
ur al
Ġh y
iz ing
Ġex perim
ĠA s
res s
for d
Ġwh ere
Ġwh ile
Ġco st
Ġsp atial
Ġde vic
and ard
Ġcomput ational
Ġdi rect
ik e
val ue
Ġoper ations
low er
tr ue
upl ed
ati s
Ġanal y
Ġappro ach
Ġprob ability
Ġperform ance
Ġcomplex ity
Ġful l
Ġeff ect
Ġran dom
Ġdistrib ution
Ġsymmet ry
Ġmethod s
empl ate
oler ant
depend ent
fal se
lif ford
arac ter
+ .
1 1
A P
J o
P age
] ,"
a il
e v
f eature
g le
g ence
h n
j oint
l van
n one
o ver
p s
p res
t om
t her
u x
y lvan
} }
Ġ "
Ġ 20
in c
en ns
re f
al e
or m
or s
Ġth ree
Ġs em
Ġs chem
Ġa ch
Ġa ct
Ġc l
Ġthe y
ed om
ro ad
Ġf ree
Ġd o
Ġin cre
Ġof ten
Ġm echan
Ġm emory
Ġm inim
Ġe fficient
ac es
ac tical
et her
em per
Ġg i
od el
id es
Ġst andard
si tive
ĠC on
ag es
ur ity
ĠA d
ĠA r
ri ption
ĠM o
og y
ass more
oc k
Ġal l
Ġch aracter
Ġde f
ĠB y
Ġinter action
if ic
ĠN on
Ġres ource
Ġtran sport
Ġro bust
Ġne ar
Ġdis c
Ġk ey
Ġcorre ction
upl ing
Ġsec urity
Ġext end
Ġcomm unication
Ġder ive
vol ution
Ġchan nel
Ġiden tif
yd berg
Jo hn
ylvan ia
enns ylvania
Ġach ie
N ame
b ed
c lassical
d en
h ead
m all
o sition
r im
t s
t olerant
v i
v ity
Ã ©
Ġ Z
Ġ es
Ġ ra
re ferences
or ies
Ġs ize
it ec
at form
Ġthe ore
ro sc
Ġf amil
le ar
Ġd ri
Ġb ench
Ġqu es
Ġre f
Ġre cent
Ġre pres
ac y
ac tions
Ġl ight
tic s
Ġg ates
ly ing
si ze
ch itec
Ġcon ver
Ġcon di
ser v
pl ic
Ġwh ether
ĠR ydberg
tim es
Ġde pend
tical ly
if ied
op ic
Ġgener ator
Ġcont inu
Ġus e
av ity
Ġdec o
co un
Ġne ed
Ġma k
Ġsimul ations
Ġpo sitive
ip edia
Ġk nown
ard ware
Ġpr actical
Ġrequi res
br id
emp ty
Ġfunction s
Ġappro xim
eng th
Ġstr ong
Ġprotocol s
Ġchall eng
Ġpa per
Ġunit ary
Ġdesc ription
iver s
Ġnetwork s
Ġproper ties
ĠOp tim
client pref
Ġcent ral
Ġferm ions
que e
Ġdiff er
Ġfundam ental
mathb b
Ġdemonstr ate
$ .
) ;
) {
1 2
A r
I n
W AP
b el
b ra
d es
e ed
e qu
i er
i ble
l is
l ike
m it
n er
n ed
o ise
s kin
u ser
v ector
y ond
Ġ ul
Ġ ver
in s
in ary
er ed
ti z
en u
Ġs ide
Ġc ry
Ġthe ories
ar row
ic on
le vel
Ġd imension
Ġd ensity
Ġin f
Ġin clu
Ġw ay
as es
as box
ut e
Ġb os
Ġb road
Ġe ach
Ġe volution
ac u
ec tive
am p
am pl
Ġto pol
ol d
Ġpro of
Ġg roup
ĠT o
ĠT emplate
Ġst abilizer
Ġcon n
Ġcon struction
ĠC h
ĠS im
pl ay
Ġh ow
uc lear
Ġcom bin
ri v
ĠM ulti
og raph
Ġv al
Ġsu pp
Ġal so
ge bra
and ing
ap tive
ens e
ĠB o
Ġint eg
Ġinter actions
ric es
Ġtran sition
Ġdi ffic
Ġbe en
Ġbe yond
ynam ics
ry ption
abl es
up per
Ġle ad
Ġro t
ven tional
ĠU sing
Ġse ver
Ġr ad
Ġenc oding
Ġbound s
Ġlimit ed
line ar
pol itician
emp or
Ġsol id
Ġsign al
Ġab s
Ġprov ide
Ġprov ides
Ġprocess ing
Ġy et
Ġequ ations
Ġparamet er
Ġgeomet ric
Ġini tial
Ġdevic es
ref list
orm al
rim in
Ġes tim
rosc opic
Ġrepres ent
Ġcontinu ous
quee z
bel ian
Ġdiffic ult
4 0
K D
^ {
c lass
f ree
i re
i ated
l i
o per
r ated
w w
y stem
Ġ #
in line
er tif
an eous
Ġt ra
Ġt emper
en ge
al ph
Ġs um
Ġs ame
Ġc avity
is sion
Ġp os
ro ss
Ġf ault
Ġd l
tu r
as ure
Ġm e
Ġm o
Ġm ay
Ġb i
Ġb asis
om en
om ic
st anding
im port
ul es
el t
el ity
Ġl ong
em ent
Ġg round
od ed
id elity
si ble
ir on
ow er
ag onal
Ġex plo
Ġwith out
ri e
ri um
ect ed
ĠP h
ĠP ennsylvania
ran s
Ġwh en
Ġv acu
ĠR e
ĠR es
ĠR ec
rom an
ĠE r
ĠD et
her ence
Ġinter f
wg C
duc ting
Ġus es
Ġad di
Ġsc atter
ĠG ener
ys is
Ġdynam ical
Ġoper ators
Ġma xim
20 2
Ġprop osed
Ġpo st
Ġpr inc
Ġfield s
Ġob tain
Ġtrans form
ark ov
sty les
Ġreg ime
sc ale
Ġlow er
Ġelect ron
con ducting
col um
Ġphot ons
Ġset ting
Ġmag netic
Ġchall enge
dis play
Ġmat rices
Ġsuper conducting
Ġcons ist
Ġmi xed
ĠWh ile
Ġexcit ation
ymmet ric
Ġmolec ular
Ġprom ising
Ġeffect s
Ġschem e
Ġdisc rimin
Ġidentif y
Ġfamil y
Ġbench mark
Ġques tion
plic it
Ġdeco herence
ivers al
Ġtopol ogical
ograph y
empor al
alph a
( \
1 8
: "
D A
L anguage
O M
R L
S Q
b il
c al
c om
c ill
e fficient
f ul
g ree
l u
l og
l ocal
m box
m edia
n ame
o ch
p ing
p th
p ically
r um
s on
t op
u al
u ild
w ay
y m
Ġ 6
Ġ J
Ġ [
Ġ up
on ical
er ing
Ġt y
Ġt as
Ġt erm
en der
re es
re ak
al le
or g
Ġs ampl
Ġs queez
Ġc y
Ġc ar
Ġc ertif
at ch
Ġp ower
ic ations
Ġf oc
le ction
tu res
tu ations
Ġan cill
Ġm ess
Ġm ore
Ġm ost
ent ly
ent ally
Ġb ec
Ġb atter
Ġre st
Ġre tain
im es
Ġe ven
Ġe valu
am s
un c
Ġl ab
Ġn at
ol ogical
il ib
Ġpro g
ab atic
ĠT ime
Ġst e
Ġst or
si an
ch an
Ġcon struc
ag netic
ĠS U
ĠS WAP
ist ing
ig ur
ur r
Ġh ardware
uc tuations
Ġwith in
ĠA l
ĠM ont
ĠM odel
ĠM arkov
ĠTh ese
ĠQu bit
ot s
ĠP ar
ĠP assmore
ran gle
Ġco ver
oc iated
ĠR and
ex tual
ĠD e
ĠD i
Ġsy n
Ġch ain
and id
ĠL ind
Ġnon linear
wg R
Ġop en
Ġmod es
act ing
ĠN etwork
ĠN oise
Ġus ed
Ġar chitec
Ġle vel
Ġfi xed
Ġpre dic
Ġdec ay
Ġdec omp
ach ine
Ġdis order
int s
Ġse qu
Ġse par
Ġdist in
Ġac cur
Ġpres ence
arg et
ole an
Ġenc ryption
Ġdet ermin
Ġscal ing
Ġoptim ization
Ġsign ific
Ġimplement ations
Ġpl atform
Ġgeneral ized
col or
Ġphot on
ĠEn c
Ġsub s
rad ient
rain ed
Ġass ociated
Ġspect ral
bl ad
Ġfl uctuations
ĠSp in
Ġresult s
Ġcorrel ations
Ġmajor ization
Ġtechn i
Ġfre edom
":[ "
ĠCar lo
Ġdeg rees
ĠWik ipedia
atis tics
Ġincre asing
Ġminim um
Ġgi ven
bed d
Ġcry st
ĠBo olean
Ġsever al
rans form
Ġvacu um
Ġscatter ing
Ġprinc i
bil ity
alle l
Ġfoc us
Ġancill a
ilib rium
ĠMont e
ĠRand om
ĠLind blad
Ġsignific ant
" },"
" ],"
) .
1 00
2 7
5 00
7 1
C lifford
D P
I d
M s
Q P
U ser
_ {\
a w
c le
c tive
f re
f ield
g roup
h i
h tt
i v
i um
i form
i ence
m o
m s
m er
m an
m ed
n y
p id
p age
p ond
r it
r ight
t l
t ex
u le
u tions
u ish
v ail
} (
} ,
} );
Î ´
Ġ 0
Ġ 3
Ġ 4
Ġ u
Ġ end
Ġ joint
in ed
on ential
er ror
an sion
ti tion
ti vity
al ing
Ġth an
Ġth en
Ġth ere
Ġs o
Ġs ur
Ġs mall
Ġc ase
Ġc andid
it u
it ed
at ures
is ed
is ion
Ġp ot
ic k
Ġf act
le ctive
Ġd imensional
qu ency
Ġin st
Ġin ver
Ġin dependent
Ġw as
as ter
Ġb it
Ġqu ery
Ġe v
Ġe ig
ac ity
ec ial
ul s
ul ating
Ġl in
Ġl og
Ġn uclear
il i
Ġpro duct
Ġg ap
Ġg radient
id ata
id den
si tions
Ġcon ventional
ir ac
ĠC ircu
ĠC lifford
par tit
ag n
ĠS u
ĠS ear
ser ving
ad g
Ġh owever
Ġex plicit
Ġcom par
ĠA pp
ri x
ĠM ac
ĠM et
res pond
ĠH igh
ot on
Ġco upled
ĠR et
ĠR Ã©
ĠF irst
ĠF ault
ĠD ec
ens ing
fer omet
ĠL anc
ĠB ound
Ġgener ation
Ġgener ate
wg Page
Ġun iversal
Ġmod e
Ġcont ain
Ġsh if
Ġres p
Ġres on
Ġres ol
Ġres ources
Ġor ac
ang led
our ier
lect ed
vel y
Ġ1 8
Ġpre paration
rol ogy
Ġdis cre
qui val
Ġer asure
Ġcor respond
Ġprop ag
we ight
Ġenc oded
Ġunder lying
Ġpr im
lo b
Ġscal ar
Ġtrans m
ĠSt ate
Ġsec ure
row ave
Ġcoher ence
rad e
Ġequ ation
Ġparamet ers
Ġestablish ed
Ġpa ir
Ġspect rum
Ġdesc rib
Ġappl ication
Ġcons id
aus sian
Ġcol lective
Ġconst ra
Ġconst ant
Ġtherm al
Ġtherm od
Ġam ong
Ġreco very
Ġline ar
Ġhy per
Ġhy brid
Ġ20 25
Ġdo es
Ġrobust ness
vi ous
Ġra pid
Ar ticle
Ġsupp ort
Ġlead ing
Ġrepresent ation
ĠDet ermin
Ġaddi tional
Ġsetting s
Ġty pically
Ġterm s
reak ing
Ġsampl ing
Ġbatter ies
Ġrest ric
Ġnat ural
ĠMarkov ian
extual ity
ĠEnc oding
ny i
Ġpot ential
partit e
ĠSear ch
ĠRÃ© nyi
ĠLanc aster
$ (
$ )
) ","
- \
1 6
5 2
7 0
8 40
9 6
: -
: \/
A M
G F
I s
L S
O r
P ro
Q C
S S
S h
W ill
Y K
] {
a ware
c d
c el
c ircu
c ise
d ate
d ens
d ensity
d ata
e le
e ore
e lect
f r
g an
g ain
g raph
h ot
h anc
i ti
i ation
i able
i ties
i ams
i abatic
k nown
l ap
l anguage
l ock
n ot
o x
p t
p ad
p are
q r
r ins
s ymmetric
s hot
s qr
u b
u es
v iron
x ing
z er
} \
} )$
Â ·
Ï Ģ
Ġ =
Ġ ed
Ġ Â·
in ter
on struction
on ium
er g
er ies
er ner
Ġt rain
Ġt imes
Ġt arget
ti l
ti ty
en eck
en sive
al ign
Ġs en
Ġs qu
Ġs ource
Ġs ources
Ġs ensing
Ġa vail
Ġa gain
Ġc urr
it ing
es p
es is
Ġthe m
Ġo ther
is es
is ter
ing uish
ar ch
ar ting
Ġp ur
Ġp ure
Ġf e
Ġf ind
Ġf idelity
Ġd om
Ġd ue
Ġd ata
Ġd ots
Ġin d
Ġin vol
tu b
Ġw ell
as i
as tic
Ġm on
Ġm eas
Ġm achine
Ġb inary
Ġre ve
im edia
Ġe quival
ac ed
un e
un ter
ul ations
Ġl if
Ġl aw
tic ular
il ber
Ġpro j
Ġpro duc
Ġpro ject
Ġg o
Ġg over
id ence
Ġst och
ver s
ver ed
si p
si bility
Ġcon dens
ag g
ist ed
ad e
ur ing
ur ther
Ġh ist
ĠQ R
ĠQ KD
Ġex isting
Ġex hi
ĠA c
ĠA ll
ĠA tom
ĠA belian
ri tical
ĠM ay
ĠM easurement
ĠM olec
res h
ment s
ĠH y
ĠH ilber
ra ys
Ġwe ight
Ġwe ak
og en
Ġco upling
rom agnetic
ĠF ourier
Ġal gebra
Ġch em
Ġde tu
Ġde pth
her ent
list style
Ġat t
ay er
ap t
th eore
Ġint rins
Ġinter feromet
if ication
wg M
Ġun c
duc ed
Ġsh ort
Ġdi v
Ġdi agonal
ĠO ne
av es
abl ing
Ġpar allel
Ġpar ticular
Ġcan onical
Ġsim ult
Ġar ticle
ĠG eomet
Ġle ast
Ġro ute
Ġstu b
co upled
Ġne w
Ġim port
Ġoper ator
Ġdist inguish
Ġr ate
Ġover head
Ġstudy ing
ari ant
ari ational
Ġpo int
Ġdet ector
Ġdet ection
Ġbound ary
Ġscal e
Ġscal able
Ġent angled
Ġmet rology
Ġreg ion
Ġreg ister
Ġerror s
of t
Ġsec ond
Ġspin s
Ġphys ics
Ġphys ically
cent ral
Ġanal og
Ġanal ysis
Ġbot tl
Ġelect ric
Ġimplement ation
Ġab out
Ġnum er
Ġexp onential
Ġcomm on
Ġphot onic
ĠV ariational
ĠEn t
Ġy ield
Ġmag n
Ġprob abil
dis abled
Ġful ly
Ġeff ective
plo y
Ġchan ge
duct or
echan ical
Ġcol lis
Ġquan tif
Ġgraph s
Ġresult ing
so id
Ġout put
Ġpol ar
Ġproblem s
24 840
ib ase
Ġam pl
Ġcap acity
Ġconf igur
":[ ],"
ĠAn al
ĠPro cess
ok ie
Ġtr unc
ord in
Ġline width
Ġdirect ly
ux ili
ux onium
Ġmechan ics
Ġmechan ism
Ġrecent ly
Ġconver gence
Ġdepend s
coun t
Ġneed ed
Ġchalleng es
ĠOptim ization
equ ilibrium
tiz ation
icon ductor
Ġinf lu
Ġbos onic
Ġproof s
riv acy
Ġestim ation
Ġtemper ature
rie val
ĠPh ase
202 2
Ġdiscrimin ation
Ġtas k
ender s
Ġcar ri
Ġstor age
chan ge
ĠNetwork s
Ġdecomp osition
Ġdistin ct
bedd ed
Ġcryst al
ĠLindblad ian
Ġeig en
ĠMac Will
lob al
:\/ \/
cel er
pad ding
sqr t
viron ment
Ġsqu are
Ġavail able
Ġagain st
Ġstoch astic
Ġexhi bit
ĠHilber t
Ġbottl eneck
uxili ary
ĠMacWill iams
" }
$ _
% ;
( ){
) "
0 7
5 0
7 3
8 8
9 9
A belian
C O
C l
E n
G ord
I P
K it
N O
N S
P U
P assmore
Q u
S p
S tub
U LS
V iew
W ik
X iv
_ (
_ \
a ut
a jor
b f
b y
b asis
b serv
c ite
c rib
c ip
c omp
c ome
f ace
f inite
g o
g s
g u
h e
h ol
i C
i tion
i br
i ved
i xed
i ency
l as
l ess
m l
m ode
o is
p in
p os
p ies
p tions
p to
r Ã
r ate
r ons
s sing
t e
t ely
t ml
u d
u ment
u sive
v ar
v ariant
z o
} }$
Î ĺ
Ï ģ
Ġ )
Ġ -
Ġ i
Ġ ir
Ġ ess
Ġ John
in ce
in dependent
on f
on se
on omic
er tain
an y
Ġt ri
en omen
re ver
re ction
al f
or n
Ġs low
Ġs ome
Ġa ction
Ġa uxiliary
Ġc ruc
it al
it ter
it ness
at omic
Ġo ur
is her
is ual
ing s
ar p
ar ies
Ġp ass
Ġp ric
ro p
ro ssing
Ġf ast
le in
Ġd ense
qu es
qu et
Ġin put
Ġw id
Ġw ind
as ures
Ġm u
Ġm ain
Ġm atter
ut ing
Ġb ran
Ġb uild
Ġb lock
Ġqu asi
om ography
Ġre t
Ġre ly
Ġre ce
Ġre ad
Ġre pe
Ġre duce
Ġre ference
Ġre con
Ġre ferences
Ġre mo
im its
am an
am ple
un t
ul d
ul ate
Ġl oc
Ġl ay
Ġl arg
Ġl ength
em ents
Ġn ature
Ġn arrow
ol s
ol og
ol low
ol ved
ol ogy
il ing
il icon
il son
ab ly
Ġg enu
Ġg adg
ĠT ro
ĠT ran
ĠT wo
ĠT emporal
ver gence
si g
si tivity
ĠW ith
ch a
ch es
ch eck
ir c
ir Ã©
ĠC or
ĠC as
ĠC lassical
ĠC omp
ĠC SS
par se
ĠS h
ĠS tr
ĠS ystem
ig gs
ad ra
pl es
Ġh ide
iz es
Ġex tr
Ġex change
ĠA ppl
Ġ( $
ri es
ri ven
ĠM at
ĠM ic
ĠM any
ĠH iggs
ĠP ol
ran ge
og onal
Ġas ym
Ġco efficient
Ġco ordin
Ġco pies
Ġco unt
Ġv ol
Ġv iew
ĠR el
ĠR aman
ĠF r
ĠF lo
ex p
ĠE fficient
ĠD ynamics
ĠD irac
Ġal ong
Ġal low
ĠIn formation
th ogonal
ĠL ear
Ġph enomen
erm ine
ph ase
ph oton
Ġgener ates
wg ULS
Ġun cl
Ġun ified
Ġun iform
Ġun known
Ġcont ext
Ġcont extuality
ĠN e
Ġtran sitions
se qu
se lected
ynam ic
ĠO per
Ġad mit
Ġad aptive
Ġad iabatic
av or
Ġpar tial
Ġsim pl
Ġsim ple
Ġar ticles
Ġfi ber
lect ing
ffic iency
Ġ1 0
Ġpre ser
Ġpre pare
cess ing
Ġne ural
Ġno vel
Ġoper ational
Ġdist ance
Ġac tive
Ġac cess
Ġac ross
Ġr ig
Ġapp ly
Ġpres crib
ture d
-- -
Ġk ine
Ġob struc
Ġob ject
Ġdet ermine
Ġtrans fer
atter ns
Ġrel ation
Ġrel ies
Ġlimit ing
ĠSt abilizer
ati vely
pre serving
Ġen abled
Ġen abling
Ġen vironment
Ġem erg
Ġdes ign
ust er
ĠK ey
ĠK lein
Ġsol ving
Ġsign als
Ġintro duc
ces sible
Ġext ension
Ġreal istic
Ġprocess or
Ġstr ength
Ġexp ansion
ĠEx act
Ġmag ic
ĠUn like
wik i
Ġform al
Ġass um
Ġspect ra
Ġspace time
Ġrequire d
Ġ2 00
Ġappl ies
Ġfl uxonium
Ġproper ty
ĠSp ect
ĠOp tical
tit em
ĠCom m
ĠCom put
Ġvari ational
Ġcorrel ation
Ġcorrel ated
Ġpol itician
Ġferm ion
Ġgeomet ry
ĠWh en
ĠCo herent
Ġfundam entally
Edit or
ram m
Ġmic roscopic
Ġmic rowave
ĠPre paration
Ġdeg ree
ĠInter ference
Ġmap s
Ġmulti ple
Ġmolec ules
Ġreduc ed
Ġreco vered
Ġexperim ents
Ġanaly tic
Ġanaly ze
Ġapproach es
tom echanical
Ġsem iconductor
Ġact s
Ġact ing
Ġgi ves
ĠAd d
ĠMo irÃ©
Ġcharacter ized
Ġnear ly
Ġchannel s
Ġachie ve
Ġtheore m
Ġdri ving
Ġcondi tional
coun ter
Ġneed ing
Ġmak e
Ġmak ing
Ġapproxim ation
Ġapproxim ate
Ġchalleng ing
ĠOptim al
Ġdiffer ent
Ġdiffer ential
eed back
lis titem
skin s
Ġver tex
Ġside bar
Ġinclu ding
Ġconn ection
ĠSim ulations
Ġcombin es
riv ial
Ġval ues
Ġinteg er
Ġrot ation
Ġrad iation
Ġabs or
Ġabs ence
^{ -
class Name
ire d
oper ator
ww w
Ġme an
Ġmo ve
Ġmay or
omen tum
import ant
import ance
ĠEr ror
colum n
colum ns
RL Q
gree k
ĠJ une
Ġsqueez ed
Ġcy cle
Ġmess ages
Ġlab el
Ġconstruc t
ĠQubit s
Ġarchitec ture
Ġsequ ential
Ġsubs ets
Ġtechni ques
Ġprinci ples
DP C
fre edom
htt ps
Ġu til
itu de
Ġlin ks
Ġproduct s
ĠApp ro
Ġshif t
Ġresp ect
Ġorac le
Ġtransm ission
Ġthermod ynamic
Ġhyper graph
ĠDetermin ing
cd ot
zer o
Ġcurr ent
Ġequival ent
ĠHy brid
ogen eous
Ġchem ical
apt cha
Ġsimult aneous
Ġnumer ical
ĠEnt anglement
Ġprobabil istic
Ġconfigur ation
Ġinflu ence
Gord on
cip ro
hol onomic
pin ned
rÃ ¶
Ġess ential
Ġcruc ial
isual Editor
Ġwid ely
adra tic
Ġasym pto
ĠFlo quet
+ \
. ,
1 25
2 3
2 6
2 24840
4 6
4 7
7 5
8 73
9 71
A s
B O
C ont
C aptcha
D M
D O
E GF
G aussian
I D
I SQ
J s
L P
M C
M o
M and
N o
N am
O D
O I
O V
O u
P ar
P res
P ennsylvania
P ois
Q I
Q R
Q KD
S YK
S iC
S OI
T C
T O
T ok
T ransform
U BO
V er
W e
Y B
b a
b ow
b ile
c en
c ed
c ons
c ond
c ell
d oc
d ress
d riven
e q
e par
e yn
f rom
f low
g es
g ing
g ine
g ated
g round
h or
h tml
i od
i ate
i tional
k ill
l ight
l ayer
m a
m in
m easure
m Edit
m odel
n ormal
o u
o tic
o ff
o ugh
p osition
r id
r onic
s or
s et
s ch
s mall
s ub
t al
t ly
t ter
t wo
t eg
t emper
u k
u bl
v ent
v id
v are
v iew
w all
w ich
w ave
y cl
| [
} ^
} _
~ \
Î µ
Ġ &
Ġ 9
Ġ ]
Ġ |
Ġ â
Ġ ens
Ġ ult
Ġ ide
Ġ --
Ġ {\
Ġ iron
in al
in it
in es
in her
in sp
in ement
in duced
on ti
on ent
on able
er eas
er ion
er ogeneous
an a
an ar
an nel
Ġt w
Ġt re
Ġt able
Ġt ree
Ġt est
Ġt emporal
Ġt rade
Ġt omography
ti re
en al
en ed
en abled
en ormal
en hanc
en tity
re l
re en
re ating
re port
al ized
or ent
or iz
or ator
Ġs er
Ġs ing
Ġs uc
Ġs and
Ġs ite
Ġs oft
Ġs parse
Ġa round
Ġc al
Ġc ut
Ġc ell
Ġc ross
Ġc ritical
Ġc irc
it es
es h
es ian
at om
at ab
at ers
at ely
Ġo c
is y
is on
ar m
ar Xiv
Ġp age
Ġp ath
Ġp ers
Ġp uls
Ġp atterns
Ġp enal
ic an
Ġf er
Ġf eas
Ġf low
Ġf ail
Ġf urther
Ġf ollow
Ġf eedback
le man
le gated
Ġin com
tu ral
Ġan s
Ġw aves
Ġw itness
as h
Ġm ac
Ġm ul
Ġm ass
Ġm easure
Ġm argin
ut ral
Ġb el
Ġb ond
Ġqu dit
om ial
st e
st ri
st ant
st rained
Ġre action
Ġre port
Ġre pro
Ġre cur
Ġre tur
Ġre cipro
im ir
Ġe t
Ġe lement
Ġe fficiency
ec tions
et y
et ter
et erogeneous
am b
ul se
el p
el ine
Ġl ad
Ġl imits
em e
em ber
tic es
Ġn an
Ġn ormal
Ġto tal
il on
Ġg row
Ġg ive
Ġg lobal
od er
ĠT op
ĠT ransform
ce ed
id ed
Ġst abil
Ġst atistics
ver age
ĠW ign
ĠW ave
ĠW erner
ĠW ilson
ate gor
ch ive
ch rÃ¶
Ġcon es
ir mEdit
ĠC re
ĠC ode
ĠC odes
ĠC ost
ĠC NO
par soid
ag o
ag ram
ĠS ingle
ĠS ym
ĠS chrÃ¶
ist ent
ist ence
ig ation
ad r
ur l
pl ore
pl aced
Ġh e
Ġh old
Ġh alf
ri or
ĠM ain
ĠM emory
ĠM inim
ĠM ajor
res nel
res olved
ĠTh rough
ĠH e
ĠH ay
ĠH ong
ĠH ardware
ect s
ect ing
ect ation
for c
ĠP r
ĠP er
ĠP rivacy
ran g
um ber
Ġwh ereas
Ġco ex
Ġco uld
ĠI m
ĠI t
ĠI QP
ĠR ead
ĠF an
ĠF ound
ĠF ind
ĠF isher
Ġsp aces
Ġsp ecial
tim ode
ĠE u
ĠD u
ĠD is
ĠD ensity
Ġal ph
Ġal ign
Ġch ang
Ġch arg
Ġch arge
Ġch eck
Ġde ph
her e
sion s
ĠThe ore
ple x
Ġat tr
and s
":" +\
ay esian
th esis
th ough
th eme
ĠL og
ĠL ine
ĠL if
ĠL ogical
ĠL orent
enc ies
ia tive
ĠB uild
ĠB orn
ĠB ayesian
Ġint ensity
Ġinter pre
Ġinter med
Ġinter atomic
Ġnon local
Ġnon holonomic
op ping
op tomechanical
Ġgener ating
Ġgener ative
Ġgener ally
wg T
wg V
wg Is
yn omial
ator ial
Ġcont rib
Ġsh ap
Ġsystem atic
ĠN uclear
pp ed
Ġcomput e
Ġcomput er
Ġcomput ers
Ġdi vergence
Ġbe ing
ext end
ĠO n
ĠO ur
ĠO bserv
Ġor gan
Ġad m
Ġad ding
Ġad dress
av ing
Ġpar ity
Ġpar ad
Ġpar ticle
Ġsc ram
Ġsc ience
Ġar ise
Ġar ising
Ġar rays
ĠG raph
ĠG aussian
ĠG reen
are d
sp eed
all ed
Ġro uting
Ġpre vious
Ġpre cise
est ric
ide finite
00 0
co okie
Ġne g
Ġne igh
ie zo
Ġfr onti
Ġdynam ic
Ġim pl
Ġim pro
rol led
Ġdis co
Ġdis sip
ast atistics
Ġno isy
int eg
Ġoper ation
Ġac cessible
Ġover come
20 971
Ġapp ear
Ġpres ents
tr it
Ġper iod
ular ization
Ġsimul ator
Ġenc ode
ack s
ack ets
":{" @
Ġunder standing
ip her
ip se
ip ulation
lo ad
lo ud
Ġob serv
Ġscal es
25 6
bar chive
Ġent rop
edia View
Ġtrans duc
Ġrel ations
Ġrel iable
Ġlimit ation
ĠSt re
Ġen tire
Ġem ission
Ġem ploy
Ġem itter
Ġlocal ly
Ġlocal ization
Ġcomple tely
row n
Ġhigh ly
Ġcontrol led
cent er
ead y
pro cessing
ĠK y
Ġsol ution
Ġelect romagnetic
Ġexact ly
Ġimplement ing
Ġimplement ed
Ġab br
Ġpl aces
Ġext ra
Ġgeneral izes
col lap
Ġman ipulation
Ġreal ize
Ġstr ings
Ġexp res
Ġexp ectation
ĠEx cit
}$ .
ĠV las
energ y
Ġsub st
Ġsub space
ĠUn der
ĠUn con
ject ory
vic es
wik ipedia
wik ibase
one able
Ġmat rix
Ġcomp act
Ġunit aries
Ġrequire ment
bl er
ding er
limit report
Ġenerg ies
Ġappl ications
Ġdistrib utions
aus e
aus al
Ġquan tization
Ġvari ous
Ġvari ables
clu sion
Ġnumber s
ll ipse
Ġcent ers
Ġmi tig
ĠCo unter
Ġexcit on
Ġdiff usive
Ġpresent ed
Ġtechn olog
Ġfre qu
Ġfre quency
Ġconf ir
ĠCar leman
ĠPre dic
ĠInter action
ĠInter acting
valu es
mathb f
back ground
Ġini ti
Ġwave gu
Ġreduc tion
ĠWik idata
ĠCont rol
Ġexperim ental
Ġexperim entally
Ġspatial ly
Ġdevic e
ps ilon
Ġ" }.
Ġschem es
Ġcl osed
Ġcl uster
Ġefficient ly
ĠAd aptive
ĠAr ago
Ġcharacter istic
Ġdef ined
ific ations
Ġextend ed
head er
Ġtheore tical
Ġdri ven
Ġref lection
Ġcondi tion
Ġcondi tions
Ġstrong ly
12 96
mit ter
tiz ed
Ġdimension s
Ġinf inite
Ġinclu de
Ġway s
ĠSim ulation
Ġval ue
Ġinteg rated
Ġlead s
Ġrad iative
Ġencoding s
Ġestim ates
Ġtra jectory
Ġtemper atures
tur b
Ġme V
Ġbi partite
Ġexplo ited
Ġexplo iting
ĠRec ent
Ġinterf ace
Ġinterf aces
wgC onf
Ġmaxim ally
Ġtransform s
media wiki
Ġsqueez ing
Ġcy cl
Ġcertif ication
Ġmess age
Ġbec ome
Ġbec ause
Ġretain s
Ġlab orator
Ġprog ress
Ġprog ramm
Ġste p
Ġste ering
ĠDi agonal
wgR ele
Ġarchitec tures
Ġsequ ence
Ġsepar ated
Ġaccur ate
Ġaccur acy
Ġtechni que
":[" ","
Ġincreasing ly
Ġprinci ple
Ġfocus ing
mer ican
rit erion
Ġjoint ly
Ġsur face
Ġcandid ate
Ġcandid ates
Ġfact or
Ġinst ead
Ġinver sion
Ġev ents
Ġlog ic
Ġgradient s
ĠCircu it
ĠCircu its
agn et
Ġcompar ison
Ġcontain ing
Ġreson ators
Ġcorrespond ence
Ġprim iti
Ġconsid er
Ġconstra int
Ġconstra ints
Ġrapid ly
Ġrestric ted
16 873
QC B
Sh ort
circu it
ox el
Ġtrain ability
Ġsen sitivity
Ġfe atures
Ġdom ain
Ġmeas ur
Ġreve al
Ġlaw s
Ġproduc ing
Ġcondens ation
agg ered
Ġhist or
ĠQR OM
ĠMolec ular
Ġdetu ning
Ġatt acks
theore tic
Ġintrins ic
Ġinterferomet ry
wgM ediaView
Ġunc ertain
ĠGeomet ric
Ġimport ant
central aut
Ġexponential ly
Ġpolar ization
ĠAnal ysis
Ġtrunc ated
Ġcarri ed
Ġeigen values
En abled
rever sibility
Ġpric ing
Ġret rieval
Ġrecon struction
Ġloc ations
Ġgenu ine
ĠTro tter
ĠTran sport
ĠWith in
ĠCas imir
ĠStr ong
ĠAppl ications
ĠMat rix
Ġcoordin ates
Ġuncl oneable
ĠOper ators
Ġsimpl ified
Ġpreser ves
Ġprescrib ed
Ġkine tic
Ġobject s
ĠKey l
Ġformal ism
operator name
ĠAppro ach
Ġsimultaneous ly
Mand el
No tice
Pres kill
Pois son
Tok en
Ver sion
cons istent
doc ument
eyn man
teg rated
temper ature
vare psilon
inher it
insp ired
Ġtre at
enormal ization
oriz on
Ġsing ular
Ġsand wich
Ġpers ist
Ġpuls es
Ġpenal ty
Ġfeas ible
Ġmac roscopic
Ġretur ns
Ġlad der
ĠTop ological
Ġstabil ization
ĠWign er
ategor ies
ĠCNO T
ĠSchrÃ¶ dinger
ĠMajor ana
ĠHay den
ĠFound ation
Ġalph ab
Ġdeph asing
":"+\ \
ĠLorent z
ĠBuild ing
Ġinterpre t
Ġintermed iate
extend ed
Ġscram bler
Ġfronti er
20971 52
Ġentrop y
collap se
ĠVlas ov
Ġtechnolog ies
1296 224840
wgConf irmEdit
Ġlaborator y
wgRele vant
Ġprimiti ves
16873 256
wgMediaView er
Ġuncertain ty
" ;
" ]
' $
' +
( $
( '
( /
( {"
( --
) !
) )
) /
) :
) =
- $
. },
/ /
1 4
1 9
2 1
2 9
3 0
3 1
3 9
3 24
5 6
7 6
8 9
9 2
: #
: //
= \
= {"
? .
A G
A N
A R
A T
A p
A ware
A ll
A ss
B i
B in
B ased
B ack
B QC
B AR
C C
C D
C U
C h
C ss
D F
D is
D imensional
D ef
D irac
D CU
E N
E P
E S
E m
E x
E fficient
F I
F T
F W
F l
F or
F ock
F resnel
G o
H ead
H OM
H ints
I sing
I QP
I LP
K AN
L M
L ow
L DPC
M od
M ad
M ay
P F
P S
P auli
P ubl
Q D
Q E
Q S
Q NS
R G
R e
R es
R ev
S H
S t
S u
S WAP
S elect
S TO
T able
T olerant
T arget
U se
W A
W M
W erner
Z Ms
[ "
\ }}$
] +
] ).
^ |
_ {
a par
a res
a os
a ug
a als
a ev
a tically
a In
b an
b ol
b ly
b out
b ase
b reaking
b ably
c c
c x
c at
c as
c ity
c ri
c ia
c ase
c ast
c ision
c ÏĢ
c rossing
d ec
d em
d rom
d ates
d ies
d op
e ak
e iling
f c
f ies
f ore
f idelity
g a
g l
g in
g ent
g adg
g lobal
g rown
h ing
h om
h ap
h idden
h arm
i o
i or
i ad
i tial
i ability
i omet
i ving
i xing
i PS
j a
j s
j ec
k en
k ed
k ov
k top
l ing
l ack
l ick
m om
m ion
m atter
m enu
m arting
m omentum
n ul
n ate
n ative
n etwork
n oise
n umber
o ic
o ir
o res
o ich
p ed
p ir
p ag
p us
p act
p ite
p ath
p ost
p anc
p tual
p onse
r en
r ation
r as
r ag
r ite
r ast
r action
r ised
r reversibility
s im
s ure
s ite
s ide
s ue
s ource
s chem
s ystem
t ag
t oc
t age
t rivial
u ple
u ary
u ores
v o
v ated
v able
v istic
v isualEditor
w it
w ap
w ind
w ord
w atch
y ing
y cle
z ing
z uk
{ |
| |[
} @
} ]
} {
Î ©
Î ±
Î Ķ
Î Ľ
Ï Ħ
Ï Ĩ
Ġ 5
Ġ :
Ġ X
Ġ Y
Ġ if
Ġ 25
Ġ rain
Ġ 70
Ġ zero
Ġ ÏĦ
Ģ ĵ
in em
in ant
in ning
in ally
in variant
in forc
on ate
on ant
on ics
on ents
on ators
er ial
an e
an s
an tial
an onical
Ġt un
Ġt ack
Ġt rad
Ġt emplate
Ġt ele
Ġt rivial
ti fer
ti ble
ti vely
ti vated
en e
re c
re pl
re duc
al ity
al ous
al ks
al gebra
or ing
or ation
or ous
or thogonal
Ġth us
Ġth ous
Ġth ose
Ġth esis
Ġth resh
Ġs at
Ġs pl
Ġs kin
Ġs atis
Ġs ince
Ġs ilicon
Ġs ites
Ġa x
Ġa ut
Ġa ff
Ġa bo
Ġc at
Ġc ases
Ġc rossing
Ġc reating
Ġc alled
Ġc ausal
Ġc riterion
at o
at z
at ency
is ation
is ol
is ible
ar s
ar t
ar tic
ar se
ar ithm
ar chitec
ar rang
ar cia
ar ren
ed i
Ġp op
Ġp ip
Ġp osed
Ġp rivacy
Ġp rior
Ġp iezo
Ġp eak
ro g
ro ken
ic y
ic ates
ic lassical
Ġf ar
Ġf ine
Ġf avor
le ven
le vant
Ġd ic
Ġd el
Ġd ig
Ġd ates
Ġd atab
qu al
qu ery
qu trit
Ġin di
Ġin dic
Ġof f
tu p
tu ry
tu dy
Ġan ne
Ġw ire
Ġw rit
Ġw alks
as er
as sive
Ġm is
Ġm id
Ġm dy
Ġm enu
Ġm ade
Ġm omentum
Ġm assive
ut ed
ut ting
ut sch
Ġb al
Ġb as
Ġb est
Ġb ack
Ġb ases
Ġb reaking
Ġb arren
Ġqu adratic
Ġqu ality
Ġqu artic
om inally
om alous
st ac
st abilizer
st art
Ġre form
Ġre ach
Ġre serv
Ġre arrang
Ġre levant
im el
im age
Ġe l
Ġe ver
Ġe ith
Ġe llipse
ac ing
ac tive
ec ess
ec omp
am ely
un iform
un stri
el f
el ess
Ġl o
Ġl os
Ġl ast
Ġl ack
Ġl angu
Ġl aser
em ph
em ble
em bedd
em bedded
tic ycle
Ġn ative
Ġn ecess
Ġn amely
ol ver
ol ute
ol ition
il ation
il ayer
ab el
ab sor
Ġg as
od ular
od ynamics
ĠT w
ĠT og
ĠT rain
ĠT ensor
ĠT DA
ĠT uring
ve x
ce ptual
id s
id en
id ate
Ġst ric
Ġst ability
Ġst atic
Ġst atis
Ġst eady
Ġst aggered
ver ing
ver ag
si vity
ĠW ork
ĠW aals
ate aus
ch en
ch ron
ter m
ter ative
ter native
Ġcon e
Ġcon sequ
Ġcon jec
Ġcon ceptual
ir l
ir al
ĠC l
ĠC ry
ĠC PU
ĠC ipher
ĠC loud
par tition
par astatistics
Ġon ce
Ġon to
ĠS ec
ĠS low
ĠS ources
ĠS queez
ĠS ymmetric
ĠS cal
ĠS YK
ĠS eries
ĠS oft
ĠS ince
ĠS ample
ĠS ilicon
ĠS epar
ĠS QD
ĠS tudy
ist ance
ist rib
ig her
Ġis sue
ur ve
ur ated
Ġ$ |
pl atform
pl anar
Ġh om
Ġh ere
Ġh ost
Ġh eterogeneous
Ġh elp
Ġh opping
Ġh orizon
Ġh igher
ĠQ UBO
Ġex otic
Ġex ceed
Ġex plore
Ġcom pe
us s
us age
ĠA I
ĠA t
ĠA ction
ĠA MC
ĠA merican
ĠA bout
Ġ( \
ri ple
ĠM ul
ĠM ore
ĠM ode
ĠM agnetic
ĠM achine
ĠM ixed
ĠM odular
res onant
ĠTh en
ĠH erm
ĠH idden
ĠQu ant
ra p
ot onic
ĠP A
ĠP age
ĠP OV
und s
um e
um p
um er
os en
os es
os tic
os able
Ġwh at
Ġas ks
Ġas ymmet
Ġas sig
Ġco inc
Ġco uple
Ġco arse
Ġco planar
form ance
ff ing
ff ective
ĠI ts
ĠI rreversibility
ĠI terative
Ġv an
Ġv oxel
ĠR C
ĠR eg
ĠR ev
ĠR SOI
ĠR ash
ĠR enormalization
rom agnet
rom odynamics
ĠF rom
ĠF ree
ĠF ast
ĠF unction
ĠF inite
ĠF urther
ĠF eynman
Ġsp ec
Ġsp ont
ess ment
ĠE P
ĠE lect
ĠE ven
ĠE dit
ĠE valu
ĠE mer
Ġsu pre
ĠD ri
ĠD ick
ĠD esp
ĠD QI
ĠD onate
Ġal way
Ġal ternative
Ġch oic
Ġch iral
Ġde legated
ĠThe ory
Ġat ten
ĠIn c
ĠIn As
ĠIn tegrated
ĠIn itial
ap pe
ian ce
ĠL P
ĠL U
ĠL ie
ĠL ocal
ĠL ip
ĠL arge
ĠL attice
ĠL DPC
ĠL etter
ĠL amb
ore d
ĠB ose
ĠB etween
ĠB ey
ĠB ench
ĠB road
ĠB inary
ĠB enders
Ġint ense
Ġnon classical
Ġnon equilibrium
Ġnon zero
Ġnon trivial
if ying
op tical
op up
op tions
Ġgener ic
Ġgener ated
wg P
wg User
wg WM
Ġop pos
Ġun its
Ġmod al
Ġmod ule
Ġcont ents
Ġsh arp
Ġsh ared
act ability
ĠN ative
ĠN ear
ĠN arrow
ĠN EGF
ĠN ISQ
ĠN iPS
Ġres hap
Ġdi rection
Ġbe h
se lection
se arch
ĠO r
ĠO ver
ĠO ja
av is
Ġpar ticles
Ġpar tition
bo uring
Ġsc en
Ġcan not
Ġsim plic
Ġar row
up ly
ĠG roup
Ġle verage
Ġfi le
lect or
ous tic
sp acing
all back
ffic e
Ġ1 5
Ġ1 7
Ġ1 9
Ġro w
Ġro le
Ġro ot
Ġro unds
Ġstu di
Ġstu dies
Ġpre clu
Ġpre vent
est ro
est Kit
Ġdec re
Ġdec oding
Ġdec onstruction
Ġdec oder
00 00
co upling
Ġne utral
Ġfr action
Ġfr ust
ĠU se
ĠU plo
Ġim pact
ers onal
Ġdis joint
Ġer asures
Ġse ed
Ġse lection
Ġse tup
Ġac count
Ġac celer
Ġac oustic
de vic
de gree
de pth
Ġr ates
Ġr ule
Ġr enders
Ġover all
Ġover lap
Ġshow s
Ġshow ing
20 25
Ġund ermin
Ġapp lying
Ġpres sure
tr unc
Ġsingle t
Ġper turb
Ġenc odes
ari os
Ġpo sition
Ġpo ints
)$ -
ard s
Ġpr int
tif ic
Ġob ser
Ġob ey
Ġob stac
Ġdet ected
Ġbound ed
Ġatom ic
di abatic
Ġit er
Ġtrans vers
br ackets
Ġreg ions
Ġreg imes
Ġrel a
Ġrel ated
Ġrel ative
Ġrel ati
Ġlimit ations
ĠSt ates
ĠSt ruc
ati o
ati bility
sc ill
sc ience
Ġen ables
Ġen gine
Ġem ulation
Ġem pir
Ġlocal ized
pol ar
Ġdes pite
emp t
Ġcontrol s
pro f
pro ved
pro duct
pro pag
ĠK och
Ġsol ve
Ġfunction al
Ġelect ro
Ġelect rons
Ġelect ronic
ear ance
Ġpl ateaus
Ġext ensive
ĠHamiltonian s
con n
col ation
Ġprocess es
Ġprocess ors
Ġexp ected
Ġcomm ut
ĠEx p
ĠEx plicit
ĠEx clusion
Ġoptical ly
ĠV iew
Ġinvestig ation
Ġremain ed
Ġsub circu
nav igation
rad iance
Ġy ou
Ġder ived
Ġder iving
Ġstruc tural
Ġvector s
Ġorder s
Ġparamet rised
Ġestablish ing
cont rolled
dis sip
hod s
wik im
wik idata
wik imedia
Ġmat ches
Ġmat erial
Ġform ing
Ġform ulation
Ġform ulate
Ġcomp ens
Ġcomp osed
Ġcomp onents
Ġass em
Ġass essment
Ġsuper radiance
Ġlear n
bl ock
limit ed
Ġ2 4
Ġran k
Ġran ge
Ġappl ied
Ġfl avor
Ġfl uores
eck er
Ġnetwork ing
ĠSp ace
Ġcol or
Ġquan ti
Ġquan tit
ĠCom bin
ĠCom plex
Ġvari ant
Ġsymmet ries
Ġadvant ages
text bf
Ġpol y
Ġpol ynomial
Ġmi xing
perim ents
Ġexcit ations
Ġdevelop ment
Ġtechn ical
Ġtechn ological
Edit able
ram es
inu um
Ġcap able
Ġcap ture
Ġcap tured
Ġmic ro
Ġconf idence
Ġconf inement
ĠCar r
ĠPre cise
ĠPro duct
ĠPro pos
Ġdeg rade
Ġdemonstr ated
mark ing
Ġtr ace
Ġtr actability
Ġclass es
Ġoffer ed
Ġwave function
Ġmap ping
Ġmulti qubit
Ġmulti level
Ġreduc es
Ġreduc ing
Ġprom ises
ĠWik imedia
ĠCont act
ĠCont ents
ĠCont extuality
Ġexperim ent
ress es
ress ed
Ġcost s
Ġcost ly
Ġanaly tical
Ġrandom ness
11 4
Page Name
Page Is
ev ent
over flow
}} @
Ġsem i
Ġsem idefinite
Ġsem iclassical
Ġcl ose
Ġcl ock
Ġincre ase
Ġincre ases
Ġminim al
ĠCon sequ
ĠAd aIn
ĠAr ticles
ĠAr rays
ĠMo ore
Ġcharacter ization
Ġcharacter ize
Ġdef ine
Ġdisc uss
Ġextend s
Ġidentif ies
Ġachie ves
Ġachie ving
Ġachie ved
ĠZ X
Ġtheore ms
Ġfamil ies
Ġques tions
Ġref lecting
Ġdeco upling
Ġmak es
Ġapproxim ately
Ġstrong er
Ar ticles
In P
des ktop
Ġver tices
Ġcry pt
Ġway back
Ġbos on
Ġbos ons
Ġbroad band
ampl es
Ġgroup s
ĠTo ols
Ġconn ected
ĠCh annel
ĠCh romodynamics
ĠSim ulating
Ġcombin ed
Ġcombin atorial
ĠMulti ple
ĠBo b
Ġinteg ral
Ġrot ations
Ġsever e
Ġrepresent ations
oper ation
Ġtra ffic
Ġsum m
Ġsum s
Ġpos sible
Ġpos sibility
Ġmo tion
Ġmay ors
Ġbi partition
rie ved
ĠPh oton
ĠRe al
ĠRe ferences
ĠRes ource
ĠRes ponse
ĠRes onators
ĠRec onstruction
ĠEr asure
ĠEr asures
wgC anonical
ĠGener ating
ĠGener alized
Ġmaxim al
Ġmaxim um
202 6
Ġobtain ed
Ġtransform ations
Ġconsist s
Ġconsist ency
Ġdiscrimin ated
Ġidentify ing
Language Select
SQ D
SQ L
ful l
Ġtas ks
atch ing
Ġpower ful
Ġretain ing
Ġevalu ation
Ġevalu ated
Ġstor ing
chan nel
igur able
ĠAl gorithm
ĠAl gebra
ĠAl though
ĠPar allel
ĠDe vices
ĠDe utsch
Ġsyn thesis
Ġsyn drom
Ġsyn chron
wgR estric
Ġpredic t
Ġpredic ting
Ġsepar able
Ġdistin ction
Ġdetermin ant
Ġdetermin istic
Ġplatform s
Ġphoton ics
Ġsubs et
Ġcryst als
ĠRandom ized
Ġsignificant ly
_{\ {
fre quency
htt p
iv ative
page Language
tex tit
}); });
Î´ c
Ġthere by
Ġthere fore
itu des
ision Id
Ġfact ors
Ġdimensional ity
Ġinver tible
Ġbit str
Ġev idence
Ġlog arithm
agn ostic
ĠSu per
ĠApp earance
ĠMet ric
ĠMet hods
ĠRet rieval
ĠRet rieved
ĠBound s
wgPage Cont
Ġuniversal ity
Ġcontain s
Ġresol ve
Ġresol ving
Ġorac les
Ġ18 20
Ġ18 18
Ġcorrespond s
Ġpropag ates
Ġdescrib e
Ġdescrib ed
Ġconsid ered
Ġthermod ynamics
Article Id
Article Target
Ġsupport s
ĠDetermin istic
ĠEncoding s
Ġpotential s
Or der
Or gan
Pro ject
Pro bably
elect ron
fr ac
fr ame
iti an
Ġed it
inter language
align ed
esp ace
Ġpur ification
Ġdom inant
Ġind ex
Ġind ecomp
Ġinvol ves
Ġinvol ving
Ġmon otonic
Ġmeas ures
Ġreve aling
Ġlif e
Ġproj ector
Ġproject s
Ġproject ed
Ġgo al
Ġgo od
Ġgover n
Ġgover ning
Ġcondens ed
agg ed
Ġhist ory
ĠQR AM
ĠAc cess
ĠAc celer
ĠAtom s
ĠAtom ic
ĠMay ors
ĠMeasurement s
ĠMolec ules
Ġweak ly
Ġcoupling s
Ġalgebra ic
Ġdetu ned
theore tically
Ġintrins ically
Ġinterferomet ers
Ġdiagonal izing
Ġparallel ism
Ġparticular ly
ĠGeomet ry
Ġstub s
Ġimport ance
Ġdistinguish ing
Ġdistinguish ability
Ġdetector s
central Notice
Ġcommon ly
Ġyield ing
Ġmagn ons
Ġmagn itude
Ġcollis ion
Ġcollis ions
Ġquantif ier
24840 89
Ġampl itude
Ġampl itudes
Ġtrunc ation
Ġmechanism s
ĠLindbladian s
Ġexhibit ing
"} },"
)" \
IP S
Kit aev
Qu bit
Qu ery
Sp ecker
Wik ibase
comp onent
comp atibility
he ight
ibr ation
Ġi SWAP
Ġir reduc
Ġslow est
Ġpass age
Ġwind ing
Ġwind ow
Ġmu ch
Ġmu tual
Ġbran ch
Ġbran ches
Ġbuild s
Ġbuild up
Ġrece iver
Ġrece ivers
Ġread out
Ġrepe ated
Ġrepe aters
Ġremo ved
Ġlay ered
Ġlarg ely
Ġgadg et
Ġgadg ets
ĠCor rection
ĠComp act
ĠSystem s
Ġextr action
Ġ($ \
ĠMic rowave
Ġcoefficient s
Ġvol tage
ĠRel ational
ĠFr ame
Ġallow s
Ġallow ed
ĠLear n
ĠLear ning
Ġphenomen a
wgULS is
Ġcontext s
ĠNe ural
Ġrig id
Ġrig orous
Ġobstruc tions
Ġobstruc ting
Ġemerg ed
Ġintroduc es
Ġassum ptions
ĠSpect ral
ĠComm unication
ĠComput ing
Ġfermion ic
Ġlabel s
Ġsequential ly
Ġutil izing
Ġasympto tic
Ġasympto tically
DM RG
DO F
Nam espace
QR AM
Transform Table
We barchive
YB CO
cen tury
eq iad
min i
vid ual
ycl ic
Ġâ Ģĵ
Ġens emble
Ġult ra
Ġide al
Ġiron ed
Ġtw irl
enhanc ed
Ġsuc cess
Ġsoft ware
Ġcal c
esh kov
Ġoc cu
Ġfer romagnetic
Ġfail s
Ġfollow ing
Ġincom ing
Ġans atz
Ġmul timode
Ġmargin als
Ġbel ow
Ġrepro duce
Ġrecur r
Ġrecipro city
ĠCre ate
ĠSingle t
ĠSym FT
adr uply
Ġhold s
ĠPr int
ĠPer formance
Ġcoex istence
ĠIm proved
ĠFind ing
ĠEu Cl
ĠDu ffing
Ġalign ment
Ġchang es
Ġcharg ing
Ġattr active
ĠLine ar
ĠLif ted
Ġnonlocal ity
wgV isualEditor
Ġshap ing
ĠObserv ables
Ġorgan ic
Ġadm its
Ġparad ig
Ġneigh bouring
Ġimpl ies
Ġimpro ve
Ġdissip ative
Ġobserv ables
Ġtransduc ers
ĠStre am
Ġentire ly
Ġemploy ing
Ġemitter s
Ġexpres sivity
Ġsubst antial
ĠUnder standing
ĠUncon ventional
Ġmitig ate
ĠCounter diabatic
Ġfrequ encies
Ġconfir med
ĠPredic tive
Ġiniti o
Ġwavegu ide
Ġcycl es
ĠDiagonal ization
":[""," "],"
QCB Ms
Ġmeasur able
Ġhistor ical
centralaut h
Ġtreat ments
Ġsandwich ed
Ġalphab et
":"+\\ ","
ĠLorentz ian
Ġinterpret ation
324 24
Bi ography
Back end
Css Js
Def ault
Mad an
Publ ish
Su zuk
apar ticles
aug ing
bol ic
cas ting
dec oration
dem olition
dop ed
gadg et
global CssJs
harm onic
iomet ric
mom ent
nul l
oich iometric
pus h
wit ch
wap ping
wind ow
||[ ]).
ÎĶ E
Ġrain bow
inforc ement
Ġtack le
repl ace
Ġthous ands
Ġthresh old
Ġsat urated
Ġsatis fies
Ġaff ect
isol ated
architec ture
Ġpip eline
Ġfavor able
Ġdel iver
Ġdig ital
Ġdatab ase
Ġindi vidual
Ġindic ators
Ġanne aling
Ġwire less
stabilizer ness
Ġreform ulating
Ġreserv oir
Ġrearrang ements
imel ike
Ġeith er
unstri p
Ġlos s
Ġlangu ages
embedd ability
absor ption
ĠTog gle
Ġstric tly
Ġstatis tical
verag ed
ĠWork ing
Ġconsequ ence
ĠSqueez ing
ĠAction s
riple t
ĠHerm itian
ĠRash ba
Ġspont aneous
ĠEvalu ation
Ġsupre m
ĠDick e
ĠDesp ite
Ġalway s
ĠInAs P
ĠInitial ization
ĠLip kin
ĠBey ond
ĠBench marking
opup s
Ġoppos ite
ĠNarrow band
Ġstudi ed
estKit chen
ĠUplo ad
devic e
trunc ated
Ġobstac les
Ġrelati vistic
Ġempir ical
ĠKoch en
Ġsubcircu its
Ġfluores cent
ĠComplex ity
Ġtechnological ly
ĠPropos al
ĠConsequ ently
ĠAdaIn it
desktop ArticleTarget
LanguageSelect or
Ġsyndrom e
wgRestric tion
wgPageCont ent
Organ ization
Probably Editable
Ġindecomp osable
2484089 7
Ġirreduc ible
Suzuk i
