{
  "version": "1.0",
  "truncation": null,
  "padding": null,
  "added_tokens": [
    {
      "id": 0,
      "content": "<|pad|>",
      "single_word": false,
      "lstrip": false,
      "rstrip": false,
      "normalized": false,
      "special": true
    },
    {
      "id": 1,
      "content": "<|bos|>",
      "single_word": false,
      "lstrip": false,
      "rstrip": false,
      "normalized": false,
      "special": true
    },
    {
      "id": 2,
      "content": "<|eos|>",
      "single_word": false,
      "lstrip": false,
      "rstrip": false,
      "normalized": false,
      "special": true
    },
    {
      "id": 3,
      "content": "<|en|>",
      "single_word": false,
      "lstrip": false,
      "rstrip": false,
      "normalized": false,
      "special": true
    }
  ],
  "normalizer": null,
  "pre_tokenizer": {
    "type": "ByteLevel",
    "add_prefix_space": true,
    "trim_offsets": true,
    "use_regex": true
  },
  "post_processor": {
    "type": "ByteLevel",
    "add_prefix_space": true,
    "trim_offsets": false,
    "use_regex": true
  },
  "decoder": {
    "type": "ByteLevel",
    "add_prefix_space": true,
    "trim_offsets": true,
    "use_regex": true
  },
  "model": {
    "type": "BPE",
    "dropout": null,
    "unk_token": null,
    "continuing_subword_prefix": null,
    "end_of_word_suffix": null,
    "fuse_unk": false,
    "byte_fallback": false,
    "ignore_merges": false,
    "vocab": {
      "<|pad|>": 0,
      "<|bos|>": 1,
      "<|eos|>": 2,
      "<|en|>": 3,
      "!": 4,
      "\"": 5,
      "#": 6,
      "$": 7,
      "%": 8,
      "&": 9,
      "'": 10,
      "(": 11,
      ")": 12,
      "*": 13,
      "+": 14,
      ",": 15,
      "-": 16,
      ".": 17,
      "/": 18,
      "0": 19,
      "1": 20,
      "2": 21,
      "3": 22,
      "4": 23,
      "5": 24,
      "6": 25,
      "7": 26,
      "8": 27,
      "9": 28,
      ":": 29,
      ";": 30,
      "<": 31,
      "=": 32,
      ">": 33,
      "?": 34,
      "@": 35,
      "A": 36,
      "B": 37,
      "C": 38,
      "D": 39,
      "E": 40,
      "F": 41,
      "G": 42,
      "H": 43,
      "I": 44,
      "J": 45,
      "K": 46,
      "L": 47,
      "M": 48,
      "N": 49,
      "O": 50,
      "P": 51,
      "Q": 52,
      "R": 53,
      "S": 54,
      "T": 55,
      "U": 56,
      "V": 57,
      "W": 58,
      "X": 59,
      "Y": 60,
      "Z": 61,
      "[": 62,
      "\\": 63,
      "]": 64,
      "^": 65,
      "_": 66,
      "`": 67,
      "a": 68,
      "b": 69,
      "c": 70,
      "d": 71,
      "e": 72,
      "f": 73,
      "g": 74,
      "h": 75,
      "i": 76,
      "j": 77,
      "k": 78,
      "l": 79,
      "m": 80,
      "n": 81,
      "o": 82,
      "p": 83,
      "q": 84,
      "r": 85,
      "s": 86,
      "t": 87,
      "u": 88,
      "v": 89,
      "w": 90,
      "x": 91,
      "y": 92,
      "z": 93,
      "{": 94,
      "|": 95,
      "}": 96,
      "~": 97,
      "¡": 98,
      "¢": 99,
      "£": 100,
      "¤": 101,
      "¥": 102,
      "¦": 103,
      "§": 104,
      "¨": 105,
      "©": 106,
      "ª": 107,
      "«": 108,
      "¬": 109,
      "®": 110,
      "¯": 111,
      "°": 112,
      "±": 113,
      "²": 114,
      "³": 115,
      "´": 116,
      "µ": 117,
      "¶": 118,
      "·": 119,
      "¸": 120,
      "¹": 121,
      "º": 122,
      "»": 123,
      "¼": 124,
      "½": 125,
      "¾": 126,
      "¿": 127,
      "À": 128,
      "Á": 129,
      "Â": 130,
      "Ã": 131,
      "Ä": 132,
      "Å": 133,
      "Æ": 134,
      "Ç": 135,
      "È": 136,
      "É": 137,
      "Ê": 138,
      "Ë": 139,
      "Ì": 140,
      "Í": 141,
      "Î": 142,
      "Ï": 143,
      "Ð": 144,
      "Ñ": 145,
      "Ò": 146,
      "Ó": 147,
      "Ô": 148,
      "Õ": 149,
      "Ö": 150,
      "×": 151,
      "Ø": 152,
      "Ù": 153,
      "Ú": 154,
      "Û": 155,
      "Ü": 156,
      "Ý": 157,
      "Þ": 158,
      "ß": 159,
      "à": 160,
      "á": 161,
      "â": 162,
      "ã": 163,
      "ä": 164,
      "å": 165,
      "æ": 166,
      "ç": 167,
      "è": 168,
      "é": 169,
      "ê": 170,
      "ë": 171,
      "ì": 172,
      "í": 173,
      "î": 174,
      "ï": 175,
      "ð": 176,
      "ñ": 177,
      "ò": 178,
      "ó": 179,
      "ô": 180,
      "õ": 181,
      "ö": 182,
      "÷": 183,
      "ø": 184,
      "ù": 185,
      "ú": 186,
      "û": 187,
      "ü": 188,
      "ý": 189,
      "þ": 190,
      "ÿ": 191,
      "Ā": 192,
      "ā": 193,
      "Ă": 194,
      "ă": 195,
      "Ą": 196,
      "ą": 197,
      "Ć": 198,
      "ć": 199,
      "Ĉ": 200,
      "ĉ": 201,
      "Ċ": 202,
      "ċ": 203,
      "Č": 204,
      "č": 205,
      "Ď": 206,
      "ď": 207,
      "Đ": 208,
      "đ": 209,
      "Ē": 210,
      "ē": 211,
      "Ĕ": 212,
      "ĕ": 213,
      "Ė": 214,
      "ė": 215,
      "Ę": 216,
      "ę": 217,
      "Ě": 218,
      "ě": 219,
      "Ĝ": 220,
      "ĝ": 221,
      "Ğ": 222,
      "ğ": 223,
      "Ġ": 224,
      "ġ": 225,
      "Ģ": 226,
      "ģ": 227,
      "Ĥ": 228,
      "ĥ": 229,
      "Ħ": 230,
      "ħ": 231,
      "Ĩ": 232,
      "ĩ": 233,
      "Ī": 234,
      "ī": 235,
      "Ĭ": 236,
      "ĭ": 237,
      "Į": 238,
      "į": 239,
      "İ": 240,
      "ı": 241,
      "Ĳ": 242,
      "ĳ": 243,
      "Ĵ": 244,
      "ĵ": 245,
      "Ķ": 246,
      "ķ": 247,
      "ĸ": 248,
      "Ĺ": 249,
      "ĺ": 250,
      "Ļ": 251,
      "ļ": 252,
      "Ľ": 253,
      "ľ": 254,
      "Ŀ": 255,
      "ŀ": 256,
      "Ł": 257,
      "ł": 258,
      "Ń": 259,
      "in": 260,
      "on": 261,
      "er": 262,
      "an": 263,
      "Ġt": 264,
      "ti": 265,
      "en": 266,
      "re": 267,
      "al": 268,
      "or": 269,
      "Ġth": 270,
      "Ġs": 271,
      "Ġa": 272,
      "Ġc": 273,
      "it": 274,
      "es": 275,
      "tion": 276,
      "at": 277,
      "Ġthe": 278,
      "Ġo": 279,
      "is": 280,
      "ing": 281,
      "ar": 282,
      "ed": 283,
      "Ġp": 284,
      "ro": 285,
      "ic": 286,
      "Ġf": 287,
      "le": 288,
      "Ġd": 289,
      "qu": 290,
      "Ġin": 291,
      "Ġof": 292,
      "tu": 293,
      "Ġan": 294,
      "ation": 295,
      "Ġw": 296,
      "as": 297,
      "Ġm": 298,
      "ent": 299,
      "ut": 300,
      "Ġb": 301,
      "tum": 302,
      "antum": 303,
      "Ġqu": 304,
      "om": 305,
      "st": 306,
      "Ġre": 307,
      "Ġand": 308,
      "im": 309,
      "Ġe": 310,
      "ac": 311,
      "ec": 312,
      "et": 313,
      "am": 314,
      "Ġquantum": 315,
      "un": 316,
      "ul": 317,
      "el": 318,
      "Ġl": 319,
      "em": 320,
      "tic": 321,
      "Ġn": 322,
      "Ġto": 323,
      "ol": 324,
      "il": 325,
      "Ġpro": 326,
      "ab": 327,
      "Ġg": 328,
      "od": 329,
      "ĠT": 330,
      ",\"": 331,
      "ly": 332,
      "ve": 333,
      "ce": 334,
      "Ġfor": 335,
      "id": 336,
      "Ġst": 337,
      "ver": 338,
      "si": 339,
      "put": 340,
      "ith": 341,
      "ĠW": 342,
      "ate": 343,
      "ch": 344,
      "ter": 345,
      "Ġcon": 346,
      "\":": 347,
      "ir": 348,
      "ĠC": 349,
      "par": 350,
      "ical": 351,
      "ow": 352,
      "Ġon": 353,
      "ag": 354,
      "ĠS": 355,
      "ity": 356,
      "ist": 357,
      "ig": 358,
      "ser": 359,
      "Ġis": 360,
      "ad": 361,
      "ur": 362,
      "Ġ$": 363,
      "per": 364,
      "pl": 365,
      "Ġh": 366,
      "iz": 367,
      "uc": 368,
      "ĠQ": 369,
      "Ġex": 370,
      "Ġ.": 371,
      "Ġcom": 372,
      "Ġwith": 373,
      "us": 374,
      "ĠA": 375,
      "Ġ(": 376,
      "out": 377,
      "ri": 378,
      "mw": 379,
      "ĠM": 380,
      "res": 381,
      "ĠWe": 382,
      "\",\"": 383,
      "ĠTh": 384,
      "ment": 385,
      "ĠH": 386,
      "ect": 387,
      "ĠQu": 388,
      "for": 389,
      "ra": 390,
      "ot": 391,
      "ĠP": 392,
      "Ġwe": 393,
      "parser": 394,
      "output": 395,
      "Ġthat": 396,
      "und": 397,
      "ran": 398,
      "um": 399,
      "ations": 400,
      "ĠQuantum": 401,
      "os": 402,
      "Ġwh": 403,
      "og": 404,
      "ure": 405,
      "Ġas": 406,
      "Ġco": 407,
      "ass": 408,
      "form": 409,
      "oc": 410,
      "ff": 411,
      "ĠI": 412,
      "ence": 413,
      "Ġv": 414,
      "ener": 415,
      "ĠR": 416,
      "rom": 417,
      "bit": 418,
      "ĠF": 419,
      "Ġby": 420,
      "Ġsp": 421,
      "tim": 422,
      "ess": 423,
      "ates": 424,
      "ain": 425,
      "ex": 426,
      "ĠE": 427,
      "ant": 428,
      "ct": 429,
      "Ġsu": 430,
      "ĠD": 431,
      "Ġal": 432,
      "tive": 433,
      "Ġsy": 434,
      "Ġch": 435,
      "Ġde": 436,
      "her": 437,
      "list": 438,
      "ork": 439,
      "sion": 440,
      "ĠThe": 441,
      "lass": 442,
      "ple": 443,
      "Ġthis": 444,
      "ge": 445,
      "Ġat": 446,
      "age": 447,
      "ĠIn": 448,
      "ine": 449,
      "ies": 450,
      "and": 451,
      "\":\"": 452,
      "igh": 453,
      "ay": 454,
      "ated": 455,
      "ap": 456,
      "ction": 457,
      "ens": 458,
      "fer": 459,
      "ian": 460,
      "th": 461,
      "ĠL": 462,
      "enc": 463,
      "der": 464,
      "ia": 465,
      "ore": 466,
      "able": 467,
      "ĠB": 468,
      "Ġph": 469,
      "Ġint": 470,
      "stem": 471,
      "tical": 472,
      "erm": 473,
      "Ġfrom": 474,
      "Ġinter": 475,
      "Ġnon": 476,
      "if": 477,
      "op": 478,
      "ph": 479,
      "Ġgener": 480,
      "eas": 481,
      "ric": 482,
      "wg": 483,
      "its": 484,
      "Ġop": 485,
      "ame": 486,
      "abil": 487,
      "yn": 488,
      "Ġun": 489,
      "ator": 490,
      "duc": 491,
      "ary": 492,
      "ruc": 493,
      "tial": 494,
      "Ġmod": 495,
      "Ġcont": 496,
      "ont": 497,
      "Ġsh": 498,
      "act": 499,
      "Ġsystem": 500,
      "cu": 501,
      "ĠN": 502,
      "Ġres": 503,
      "lassical": 504,
      "pp": 505,
      "wo": 506,
      "}.": 507,
      "ort": 508,
      "ization": 509,
      "Ġcomput": 510,
      "Ġus": 511,
      "Ġtran": 512,
      "Ġare": 513,
      "Ġdi": 514,
      "Ġbe": 515,
      "ext": 516,
      "ient": 517,
      "se": 518,
      "ynam": 519,
      "hlist": 520,
      "ry": 521,
      "work": 522,
      "ĠO": 523,
      "Ġor": 524,
      "ang": 525,
      "Ġad": 526,
      "ite": 527,
      "ult": 528,
      "av": 529,
      "end": 530,
      "ree": 531,
      "ics": 532,
      "abl": 533,
      "Ġpar": 534,
      "ace": 535,
      "ircu": 536,
      "bo": 537,
      "ere": 538,
      "Ġsc": 539,
      "Ġcan": 540,
      "ase": 541,
      "ber": 542,
      "Ġtwo": 543,
      "ory": 544,
      "Ġsim": 545,
      "Ġar": 546,
      "easure": 547,
      "ik": 548,
      "our": 549,
      "up": 550,
      "ĠG": 551,
      "Ġle": 552,
      "cl": 553,
      "ty": 554,
      "ons": 555,
      "tions": 556,
      "Ġfi": 557,
      "lect": 558,
      "ous": 559,
      "vel": 560,
      "ime": 561,
      "are": 562,
      "sp": 563,
      "ension": 564,
      "all": 565,
      "ased": 566,
      "imit": 567,
      "eld": 568,
      "ffic": 569,
      "ting": 570,
      "ys": 571,
      "Ġ1": 572,
      "Ġro": 573,
      "Ġstu": 574,
      "ise": 575,
      "ich": 576,
      "ign": 577,
      "box": 578,
      ",.": 579,
      "Ġpre": 580,
      "ave": 581,
      "cess": 582,
      "ves": 583,
      "est": 584,
      "Ġdec": 585,
      "ide": 586,
      "Ġstate": 587,
      "easurement": 588,
      "00": 589,
      "co": 590,
      "ue": 591,
      "ven": 592,
      "val": 593,
      "Ġne": 594,
      "formation": 595,
      "dy": 596,
      "ie": 597,
      "ound": 598,
      "ror": 599,
      "Ġclassical": 600,
      "Ġcircu": 601,
      "ath": 602,
      "Ġfr": 603,
      "Ġdynam": 604,
      "imension": 605,
      "ach": 606,
      "ector": 607,
      "ose": 608,
      "ble": 609,
      "ĠU": 610,
      "Ġim": 611,
      "ers": 612,
      "rol": 613,
      "Ġdis": 614,
      "qui": 615,
      "ast": 616,
      "unction": 617,
      "Ġno": 618,
      "Ġstates": 619,
      "irst": 620,
      "ight": 621,
      "Ġer": 622,
      "int": 623,
      "ong": 624,
      "ance": 625,
      "Ġse": 626,
      "rib": 627,
      "Ġwhich": 628,
      "ogical": 629,
      "ability": 630,
      "gor": 631,
      "{\"": 632,
      "Ġcor": 633,
      "Ġoper": 634,
      "ingle": 635,
      "Ġdist": 636,
      "Ġmeasurement": 637,
      "ithm": 638,
      "ocal": 639,
      "ral": 640,
      "Ġac": 641,
      "ech": 642,
      "amil": 643,
      "Ġmodel": 644,
      "de": 645,
      "low": 646,
      "ne": 647,
      "Ġr": 648,
      "ond": 649,
      "ating": 650,
      "Ġover": 651,
      "Ġma": 652,
      "Ġqubit": 653,
      "ild": 654,
      "raph": 655,
      "Ġshow": 656,
      "Ġstudy": 657,
      "20": 658,
      "pe": 659,
      "ution": 660,
      "Ġund": 661,
      "Ġapp": 662,
      "Ġpres": 663,
      "Ġinformation": 664,
      "ture": 665,
      "ational": 666,
      "struc": 667,
      "gorithm": 668,
      "::": 669,
      "math": 670,
      "tr": 671,
      "Ġsingle": 672,
      "arg": 673,
      "Ġper": 674,
      "ication": 675,
      "ular": 676,
      "Ġprop": 677,
      "ode": 678,
      "Ġone": 679,
      "Ġsystems": 680,
      "Ġsimul": 681,
      "ole": 682,
      "we": 683,
      "Ġenc": 684,
      "order": 685,
      "ari": 686,
      "Ġpo": 687,
      "ack": 688,
      "\":{\"": 689,
      "Ġalgorithm": 690,
      "Ġunder": 691,
      ")$": 692,
      "--": 693,
      "ip": 694,
      "ial": 695,
      "mm": 696,
      "ns": 697,
      "Ġk": 698,
      "Ġits": 699,
      "inite": 700,
      "ard": 701,
      "Ġpr": 702,
      "omet": 703,
      "action": 704,
      "ized": 705,
      "Ġfield": 706,
      "Ġframe": 707,
      "ative": 708,
      "lo": 709,
      "Ġtime": 710,
      "tif": 711,
      "ese": 712,
      "Ġtheir": 713,
      "Ġob": 714,
      "ish": 715,
      "Ġdet": 716,
      "Ġbut": 717,
      "Ġbound": 718,
      "Ġrequi": 719,
      "ĠThis": 720,
      "Ġsuch": 721,
      "Ġatom": 722,
      "Ġscal": 723,
      "Ġcorre": 724,
      "mmet": 725,
      "25": 726,
      "bar": 727,
      "di": 728,
      "ion": 729,
      "les": 730,
      "ning": 731,
      "Ġit": 732,
      "Ġent": 733,
      "ind": 734,
      "edia": 735,
      "lement": 736,
      "ĠHere": 737,
      "Ġoptim": 738,
      "Ġtrans": 739,
      "imensional": 740,
      "br": 741,
      "du": 742,
      "ile": 743,
      "main": 744,
      "ption": 745,
      "upl": 746,
      "ential": 747,
      "atter": 748,
      "ature": 749,
      "ark": 750,
      "Ġmet": 751,
      "ents": 752,
      "sty": 753,
      "Ġreg": 754,
      "Ġrel": 755,
      "etwork": 756,
      "Ġlimit": 757,
      "ĠSt": 758,
      "fficient": 759,
      "Ġdynamics": 760,
      "ati": 761,
      "line": 762,
      "pre": 763,
      "pend": 764,
      "sc": 765,
      "ton": 766,
      "ug": 767,
      "ving": 768,
      "Ġen": 769,
      "tig": 770,
      "ally": 771,
      "Ġtheory": 772,
      "Ġwork": 773,
      "Ġem": 774,
      "Ġlocal": 775,
      "Ġprot": 776,
      "child": 777,
      "Ġcomple": 778,
      "Ġcircuit": 779,
      "Ġerror": 780,
      "Ġframework": 781,
      "duce": 782,
      "'s": 783,
      "of": 784,
      "pol": 785,
      "port": 786,
      "ved": 787,
      "Ġ\\": 788,
      "Ġsec": 789,
      "tional": 790,
      "row": 791,
      "Ġdes": 792,
      "Ġlow": 793,
      "emp": 794,
      "ill": 795,
      "odes": 796,
      "Ġhigh": 797,
      "Ġcoher": 798,
      "Ġspin": 799,
      "plement": 800,
      "ference": 801,
      "Ġphys": 802,
      "Ġcontrol": 803,
      "cent": 804,
      "ever": 805,
      "ead": 806,
      "pro": 807,
      "ust": 808,
      "},\"": 809,
      "ĠK": 810,
      "Ġsol": 811,
      "Ġsign": 812,
      "Ġfunction": 813,
      "Ġanal": 814,
      "Ġbot": 815,
      "Ġelect": 816,
      "ulti": 817,
      "Ġexact": 818,
      "time": 819,
      "Ġintro": 820,
      "ators": 821,
      "Ġusing": 822,
      "anglement": 823,
      "ource": 824,
      "Ġimplement": 825,
      "Ġnoise": 826,
      "amilton": 827,
      "Ġappro": 828,
      "amiltonian": 829,
      "10": 830,
      "ces": 831,
      "ear": 832,
      "vant": 833,
      "onic": 834,
      "eng": 835,
      "Ġab": 836,
      "Ġpl": 837,
      "etwe": 838,
      "ambox": 839,
      "tice": 840,
      "very": 841,
      "sition": 842,
      "Ġext": 843,
      "ĠHamiltonian": 844,
      "Ġvia": 845,
      "Ġinto": 846,
      "Ġgeneral": 847,
      "Ġprotoc": 848,
      "etween": 849,
      "based": 850,
      "con": 851,
      "col": 852,
      "eg": 853,
      "ey": 854,
      "nel": 855,
      "ppl": 856,
      "to": 857,
      "tain": 858,
      "wid": 859,
      "ware": 860,
      "xim": 861,
      "Ġthese": 862,
      "Ġman": 863,
      "Ġreal": 864,
      "Ġli": 865,
      "Ġnum": 866,
      "Ġprov": 867,
      "Ġprocess": 868,
      "Ġstr": 869,
      "owever": 870,
      "Ġ$\\": 871,
      "Ġhas": 872,
      "Ġexp": 873,
      "Ġcomm": 874,
      "ĠEx": 875,
      "ensity": 876,
      "Ġphot": 877,
      "Ġoptical": 878,
      "vestig": 879,
      "ugh": 880,
      "Ġprotocol": 881,
      "width": 882,
      "\\/": 883,
      "ef": 884,
      "eomet": 885,
      "ness": 886,
      "px": 887,
      "sing": 888,
      "xed": 889,
      "}$": 890,
      "ĠV": 891,
      "arge": 892,
      "qubit": 893,
      "Ġinvestig": 894,
      "Ġbetween": 895,
      "omp": 896,
      "Ġremain": 897,
      "energ": 898,
      "ĠEn": 899,
      "Ġsub": 900,
      "af": 901,
      "cre": 902,
      "dit": 903,
      "dimensional": 904,
      "ive": 905,
      "jor": 906,
      "nav": 907,
      "ov": 908,
      "rad": 909,
      "Ġy": 910,
      "Ġest": 911,
      "read": 912,
      "Ġset": 913,
      "istic": 914,
      "roup": 915,
      "Ġfinite": 916,
      "Ġder": 917,
      "Ġmag": 918,
      "Ġbased": 919,
      "str": 920,
      "Ġequ": 921,
      "amet": 922,
      "Ġprob": 923,
      "oding": 924,
      "Ġstruc": 925,
      "ically": 926,
      "ize": 927,
      "rain": 928,
      "Ġvector": 929,
      "Ġchall": 930,
      "ences": 931,
      "Ġorder": 932,
      "ablish": 933,
      "Ġparamet": 934,
      "ĠUn": 935,
      "struction": 936,
      "Ġperform": 937,
      "olec": 938,
      "Ġcomplex": 939,
      "Ġestablish": 940,
      "$-": 941,
      "au": 942,
      "aul": 943,
      "atic": 944,
      "bin": 945,
      "cit": 946,
      "cont": 947,
      "dis": 948,
      "hod": 949,
      "ions": 950,
      "ject": 951,
      "ost": 952,
      "vic": 953,
      "vol": 954,
      "wik": 955,
      "one": 956,
      "anc": 957,
      "ties": 958,
      "ata": 959,
      "attice": 960,
      "ising": 961,
      "Ġpa": 962,
      "round": 963,
      "Ġful": 964,
      "Ġfirst": 965,
      "Ġmat": 966,
      "Ġeff": 967,
      "Ġlogical": 968,
      "Ġnot": 969,
      "Ġform": 970,
      "own": 971,
      "plo": 972,
      "Ġcomp": 973,
      "osed": 974,
      "Ġass": 975,
      "Ġspect": 976,
      "Ġspace": 977,
      "Ġsuper": 978,
      "Ġchan": 979,
      "ferences": 980,
      "Ġunit": 981,
      "duct": 982,
      "Ġlear": 983,
      "echan": 984,
      "Ġrequire": 985,
      "Ġentanglement": 986,
      "Ġoptimal": 987,
      "style": 988,
      "Ġdesc": 989,
      "Ġcoherent": 990,
      "Ġintroduce": 991,
      "ready": 992,
      "auli": 993,
      "ak": 994,
      "ault": 995,
      "bl": 996,
      "ding": 997,
      "ft": 998,
      "iver": 999,
      "limit": 1000,
      "ten": 1001,
      "ze": 1002,
      "Ġ2": 1003,
      "Ġid": 1004,
      "Ġran": 1005,
      "Ġenerg": 1006,
      "Ġappl": 1007,
      "Ġcodes": 1008,
      "rough": 1009,
      "Ġfl": 1010,
      "Ġdd": 1011,
      "Ġdt": 1012,
      "eck": 1013,
      "ely": 1014,
      "ticle": 1015,
      "Ġnetwork": 1016,
      "Ġproper": 1017,
      "ody": 1018,
      "Ġcons": 1019,
      "ĠSp": 1020,
      "ermin": 1021,
      "abiliz": 1022,
      "ĠOp": 1023,
      "abled": 1024,
      "type": 1025,
      "Ġdistrib": 1026,
      "Ġmeasurements": 1027,
      "Ġmodels": 1028,
      "Ġboth": 1029,
      "after": 1030,
      "navbar": 1031,
      "aus": 1032,
      "border": 1033,
      "body": 1034,
      "dom": 1035,
      "ied": 1036,
      "itic": 1037,
      "nown": 1038,
      "rm": 1039,
      "rary": 1040,
      "tit": 1041,
      "rect": 1042,
      "Ġcol": 1043,
      "Ġquan": 1044,
      "emory": 1045,
      "Ġprove": 1046,
      "Ġgraph": 1047,
      "ĠCom": 1048,
      "ĠPauli": 1049,
      "Ġwhose": 1050,
      "Ġvari": 1051,
      "bitrary": 1052,
      "ĠFor": 1053,
      "Ġsymmet": 1054,
      "ensor": 1055,
      "ency": 1056,
      "Ġresult": 1057,
      "Ġcomputing": 1058,
      "angu": 1059,
      "Ġadvant": 1060,
      "clu": 1061,
      "client": 1062,
      "velop": 1063,
      "netic": 1064,
      "Ġqubits": 1065,
      "mathrm": 1066,
      "argin": 1067,
      "Ġcorrel": 1068,
      "Ġmethod": 1069,
      "Ġmany": 1070,
      "Ġnumber": 1071,
      "Ġstructure": 1072,
      "auge": 1073,
      "abilizer": 1074,
      "),": 1075,
      "bef": 1076,
      "ll": 1077,
      "ron": 1078,
      "so": 1079,
      "text": 1080,
      "inim": 1081,
      "onal": 1082,
      "onstr": 1083,
      "ery": 1084,
      "Ġtech": 1085,
      "Ġcent": 1086,
      "Ġol": 1087,
      "Ġout": 1088,
      "ism": 1089,
      "Ġpol": 1090,
      "Ġfund": 1091,
      "Ġferm": 1092,
      "Ġdem": 1093,
      "que": 1094,
      "Ġmi": 1095,
      "ental": 1096,
      "ection": 1097,
      "unication": 1098,
      "ulation": 1099,
      "Ġlarge": 1100,
      "Ġlattice": 1101,
      "Ġproble": 1102,
      "Ġgeomet": 1103,
      "Ġgauge": 1104,
      "ĠWh": 1105,
      "chem": 1106,
      "Ġconst": 1107,
      "ĠCo": 1108,
      "perim": 1109,
      "Ġhave": 1110,
      "Ġexcit": 1111,
      "ĠHowever": 1112,
      "Ġdevelop": 1113,
      "Ġphase": 1114,
      "Ġdiff": 1115,
      "Ġarbitrary": 1116,
      "ources": 1117,
      "sport": 1118,
      "space": 1119,
      "Ġmajor": 1120,
      "Ġpresent": 1121,
      "Ġpropose": 1122,
      "Ġsimulation": 1123,
      "Ġalgorithms": 1124,
      "Ġatoms": 1125,
      "before": 1126,
      "Ġtechn": 1127,
      "Ġfundam": 1128,
      "Ġproblem": 1129,
      "$,": 1130,
      "24": 1131,
      "Edit": 1132,
      "atial": 1133,
      "eature": 1134,
      "first": 1135,
      "ib": 1136,
      "ield": 1137,
      "ks": 1138,
      "kin": 1139,
      "ram": 1140,
      "ss": 1141,
      "ures": 1142,
      "inu": 1143,
      "ench": 1144,
      "als": 1145,
      "Ġtherm": 1146,
      "Ġam": 1147,
      "Ġcap": 1148,
      "Ġcode": 1149,
      "Ġfre": 1150,
      "left": 1151,
      "asing": 1152,
      "Ġmic": 1153,
      "state": 1154,
      "Ġevery": 1155,
      "ell": 1156,
      "empl": 1157,
      "oler": 1158,
      "Ġconf": 1159,
      "\":[": 1160,
      "ĠCar": 1161,
      "Ġonly": 1162,
      "ĠAn": 1163,
      "ĠPre": 1164,
      "ĠPro": 1165,
      "Ġdeg": 1166,
      "ĠInter": 1167,
      "Ġinterference": 1168,
      "Ġcomputation": 1169,
      "berg": 1170,
      "valu": 1171,
      "iew": 1172,
      "Ġcircuits": 1173,
      "depend": 1174,
      "mathb": 1175,
      "pref": 1176,
      "Ġphysical": 1177,
      "Ġinvestigate": 1178,
      "Ġremains": 1179,
      "content": 1180,
      "Ġlearning": 1181,
      "Ġiden": 1182,
      "Ġenergy": 1183,
      "itician": 1184,
      "anguage": 1185,
      "Ġadvantage": 1186,
      "Ġdemonstr": 1187,
      "band": 1188,
      "back": 1189,
      "bust": 1190,
      "cur": 1191,
      "dic": 1192,
      "eous": 1193,
      "fal": 1194,
      "font": 1195,
      "function": 1196,
      "led": 1197,
      "lif": 1198,
      "last": 1199,
      "more": 1200,
      "mark": 1201,
      "margin": 1202,
      "ok": 1203,
      "oint": 1204,
      "tt": 1205,
      "ted": 1206,
      "van": 1207,
      "yd": 1208,
      "ymmet": 1209,
      "{\\": 1210,
      "Ġtr": 1211,
      "Ġtensor": 1212,
      "ord": 1213,
      "Ġthrough": 1214,
      "Ġclass": 1215,
      "arac": 1216,
      "Ġini": 1217,
      "Ġoffer": 1218,
      "tual": 1219,
      "Ġany": 1220,
      "Ġwave": 1221,
      "asis": 1222,
      "Ġmap": 1223,
      "Ġmulti": 1224,
      "Ġmolec": 1225,
      "ome": 1226,
      "Ġreduc": 1227,
      "Ġreco": 1228,
      "ets": 1229,
      "Ġline": 1230,
      "ticles": 1231,
      "Ġprom": 1232,
      "Ġgate": 1233,
      "sive": 1234,
      "ĠWik": 1235,
      "ĠCont": 1236,
      "paration": 1237,
      "ural": 1238,
      "Ġhy": 1239,
      "izing": 1240,
      "Ġexperim": 1241,
      "ĠAs": 1242,
      "ress": 1243,
      "ford": 1244,
      "Ġwhere": 1245,
      "Ġwhile": 1246,
      "Ġcost": 1247,
      "Ġspatial": 1248,
      "Ġdevic": 1249,
      "andard": 1250,
      "Ġcomputational": 1251,
      "Ġdirect": 1252,
      "ike": 1253,
      "value": 1254,
      "Ġoperations": 1255,
      "lower": 1256,
      "true": 1257,
      "upled": 1258,
      "atis": 1259,
      "Ġanaly": 1260,
      "Ġapproach": 1261,
      "Ġprobability": 1262,
      "Ġperformance": 1263,
      "Ġcomplexity": 1264,
      "Ġfull": 1265,
      "Ġeffect": 1266,
      "Ġrandom": 1267,
      "Ġdistribution": 1268,
      "Ġsymmetry": 1269,
      "Ġmethods": 1270,
      "emplate": 1271,
      "olerant": 1272,
      "dependent": 1273,
      "false": 1274,
      "lifford": 1275,
      "aracter": 1276,
      "+.": 1277,
      "11": 1278,
      "AP": 1279,
      "Jo": 1280,
      "Page": 1281,
      "],\"": 1282,
      "ail": 1283,
      "ev": 1284,
      "feature": 1285,
      "gle": 1286,
      "gence": 1287,
      "hn": 1288,
      "joint": 1289,
      "lvan": 1290,
      "none": 1291,
      "over": 1292,
      "ps": 1293,
      "pres": 1294,
      "tom": 1295,
      "ther": 1296,
      "ux": 1297,
      "ylvan": 1298,
      "}}": 1299,
      "Ġ\"": 1300,
      "Ġ20": 1301,
      "inc": 1302,
      "enns": 1303,
      "ref": 1304,
      "ale": 1305,
      "orm": 1306,
      "ors": 1307,
      "Ġthree": 1308,
      "Ġsem": 1309,
      "Ġschem": 1310,
      "Ġach": 1311,
      "Ġact": 1312,
      "Ġcl": 1313,
      "Ġthey": 1314,
      "edom": 1315,
      "road": 1316,
      "Ġfree": 1317,
      "Ġdo": 1318,
      "Ġincre": 1319,
      "Ġoften": 1320,
      "Ġmechan": 1321,
      "Ġmemory": 1322,
      "Ġminim": 1323,
      "Ġefficient": 1324,
      "aces": 1325,
      "actical": 1326,
      "ether": 1327,
      "emper": 1328,
      "Ġgi": 1329,
      "odel": 1330,
      "ides": 1331,
      "Ġstandard": 1332,
      "sitive": 1333,
      "ĠCon": 1334,
      "ages": 1335,
      "urity": 1336,
      "ĠAd": 1337,
      "ĠAr": 1338,
      "ription": 1339,
      "ĠMo": 1340,
      "ogy": 1341,
      "assmore": 1342,
      "ock": 1343,
      "Ġall": 1344,
      "Ġcharacter": 1345,
      "Ġdef": 1346,
      "ĠBy": 1347,
      "Ġinteraction": 1348,
      "ific": 1349,
      "ĠNon": 1350,
      "Ġresource": 1351,
      "Ġtransport": 1352,
      "Ġrobust": 1353,
      "Ġnear": 1354,
      "Ġdisc": 1355,
      "Ġkey": 1356,
      "Ġcorrection": 1357,
      "upling": 1358,
      "Ġsecurity": 1359,
      "Ġextend": 1360,
      "Ġcommunication": 1361,
      "Ġderive": 1362,
      "volution": 1363,
      "Ġchannel": 1364,
      "Ġidentif": 1365,
      "ydberg": 1366,
      "John": 1367,
      "ylvania": 1368,
      "ennsylvania": 1369,
      "Ġachie": 1370,
      "Name": 1371,
      "bed": 1372,
      "classical": 1373,
      "den": 1374,
      "head": 1375,
      "mall": 1376,
      "osition": 1377,
      "rim": 1378,
      "ts": 1379,
      "tolerant": 1380,
      "vi": 1381,
      "vity": 1382,
      "Ã©": 1383,
      "ĠZ": 1384,
      "Ġes": 1385,
      "Ġra": 1386,
      "references": 1387,
      "ories": 1388,
      "Ġsize": 1389,
      "itec": 1390,
      "atform": 1391,
      "Ġtheore": 1392,
      "rosc": 1393,
      "Ġfamil": 1394,
      "lear": 1395,
      "Ġdri": 1396,
      "Ġbench": 1397,
      "Ġques": 1398,
      "Ġref": 1399,
      "Ġrecent": 1400,
      "Ġrepres": 1401,
      "acy": 1402,
      "actions": 1403,
      "Ġlight": 1404,
      "tics": 1405,
      "Ġgates": 1406,
      "lying": 1407,
      "size": 1408,
      "chitec": 1409,
      "Ġconver": 1410,
      "Ġcondi": 1411,
      "serv": 1412,
      "plic": 1413,
      "Ġwhether": 1414,
      "ĠRydberg": 1415,
      "times": 1416,
      "Ġdepend": 1417,
      "tically": 1418,
      "ified": 1419,
      "opic": 1420,
      "Ġgenerator": 1421,
      "Ġcontinu": 1422,
      "Ġuse": 1423,
      "avity": 1424,
      "Ġdeco": 1425,
      "coun": 1426,
      "Ġneed": 1427,
      "Ġmak": 1428,
      "Ġsimulations": 1429,
      "Ġpositive": 1430,
      "ipedia": 1431,
      "Ġknown": 1432,
      "ardware": 1433,
      "Ġpractical": 1434,
      "Ġrequires": 1435,
      "brid": 1436,
      "empty": 1437,
      "Ġfunctions": 1438,
      "Ġapproxim": 1439,
      "ength": 1440,
      "Ġstrong": 1441,
      "Ġprotocols": 1442,
      "Ġchalleng": 1443,
      "Ġpaper": 1444,
      "Ġunitary": 1445,
      "Ġdescription": 1446,
      "ivers": 1447,
      "Ġnetworks": 1448,
      "Ġproperties": 1449,
      "ĠOptim": 1450,
      "clientpref": 1451,
      "Ġcentral": 1452,
      "Ġfermions": 1453,
      "quee": 1454,
      "Ġdiffer": 1455,
      "Ġfundamental": 1456,
      "mathbb": 1457,
      "Ġdemonstrate": 1458,
      "$.": 1459,
      ");": 1460,
      "){": 1461,
      "12": 1462,
      "Ar": 1463,
      "In": 1464,
      "WAP": 1465,
      "bel": 1466,
      "bra": 1467,
      "des": 1468,
      "eed": 1469,
      "equ": 1470,
      "ier": 1471,
      "ible": 1472,
      "lis": 1473,
      "like": 1474,
      "mit": 1475,
      "ner": 1476,
      "ned": 1477,
      "oise": 1478,
      "skin": 1479,
      "user": 1480,
      "vector": 1481,
      "yond": 1482,
      "Ġul": 1483,
      "Ġver": 1484,
      "ins": 1485,
      "inary": 1486,
      "ered": 1487,
      "tiz": 1488,
      "enu": 1489,
      "Ġside": 1490,
      "Ġcry": 1491,
      "Ġtheories": 1492,
      "arrow": 1493,
      "icon": 1494,
      "level": 1495,
      "Ġdimension": 1496,
      "Ġdensity": 1497,
      "Ġinf": 1498,
      "Ġinclu": 1499,
      "Ġway": 1500,
      "ases": 1501,
      "asbox": 1502,
      "ute": 1503,
      "Ġbos": 1504,
      "Ġbroad": 1505,
      "Ġeach": 1506,
      "Ġevolution": 1507,
      "acu": 1508,
      "ective": 1509,
      "amp": 1510,
      "ampl": 1511,
      "Ġtopol": 1512,
      "old": 1513,
      "Ġproof": 1514,
      "Ġgroup": 1515,
      "ĠTo": 1516,
      "ĠTemplate": 1517,
      "Ġstabilizer": 1518,
      "Ġconn": 1519,
      "Ġconstruction": 1520,
      "ĠCh": 1521,
      "ĠSim": 1522,
      "play": 1523,
      "Ġhow": 1524,
      "uclear": 1525,
      "Ġcombin": 1526,
      "riv": 1527,
      "ĠMulti": 1528,
      "ograph": 1529,
      "Ġval": 1530,
      "Ġsupp": 1531,
      "Ġalso": 1532,
      "gebra": 1533,
      "anding": 1534,
      "aptive": 1535,
      "ense": 1536,
      "ĠBo": 1537,
      "Ġinteg": 1538,
      "Ġinteractions": 1539,
      "rices": 1540,
      "Ġtransition": 1541,
      "Ġdiffic": 1542,
      "Ġbeen": 1543,
      "Ġbeyond": 1544,
      "ynamics": 1545,
      "ryption": 1546,
      "ables": 1547,
      "upper": 1548,
      "Ġlead": 1549,
      "Ġrot": 1550,
      "ventional": 1551,
      "ĠUsing": 1552,
      "Ġsever": 1553,
      "Ġrad": 1554,
      "Ġencoding": 1555,
      "Ġbounds": 1556,
      "Ġlimited": 1557,
      "linear": 1558,
      "politician": 1559,
      "empor": 1560,
      "Ġsolid": 1561,
      "Ġsignal": 1562,
      "Ġabs": 1563,
      "Ġprovide": 1564,
      "Ġprovides": 1565,
      "Ġprocessing": 1566,
      "Ġyet": 1567,
      "Ġequations": 1568,
      "Ġparameter": 1569,
      "Ġgeometric": 1570,
      "Ġinitial": 1571,
      "Ġdevices": 1572,
      "reflist": 1573,
      "ormal": 1574,
      "rimin": 1575,
      "Ġestim": 1576,
      "roscopic": 1577,
      "Ġrepresent": 1578,
      "Ġcontinuous": 1579,
      "queez": 1580,
      "belian": 1581,
      "Ġdifficult": 1582,
      "40": 1583,
      "KD": 1584,
      "^{": 1585,
      "class": 1586,
      "free": 1587,
      "ire": 1588,
      "iated": 1589,
      "li": 1590,
      "oper": 1591,
      "rated": 1592,
      "ww": 1593,
      "ystem": 1594,
      "Ġ#": 1595,
      "inline": 1596,
      "ertif": 1597,
      "aneous": 1598,
      "Ġtra": 1599,
      "Ġtemper": 1600,
      "enge": 1601,
      "alph": 1602,
      "Ġsum": 1603,
      "Ġsame": 1604,
      "Ġcavity": 1605,
      "ission": 1606,
      "Ġpos": 1607,
      "ross": 1608,
      "Ġfault": 1609,
      "Ġdl": 1610,
      "tur": 1611,
      "asure": 1612,
      "Ġme": 1613,
      "Ġmo": 1614,
      "Ġmay": 1615,
      "Ġbi": 1616,
      "Ġbasis": 1617,
      "omen": 1618,
      "omic": 1619,
      "standing": 1620,
      "import": 1621,
      "ules": 1622,
      "elt": 1623,
      "elity": 1624,
      "Ġlong": 1625,
      "ement": 1626,
      "Ġground": 1627,
      "oded": 1628,
      "idelity": 1629,
      "sible": 1630,
      "iron": 1631,
      "ower": 1632,
      "agonal": 1633,
      "Ġexplo": 1634,
      "Ġwithout": 1635,
      "rie": 1636,
      "rium": 1637,
      "ected": 1638,
      "ĠPh": 1639,
      "ĠPennsylvania": 1640,
      "rans": 1641,
      "Ġwhen": 1642,
      "Ġvacu": 1643,
      "ĠRe": 1644,
      "ĠRes": 1645,
      "ĠRec": 1646,
      "roman": 1647,
      "ĠEr": 1648,
      "ĠDet": 1649,
      "herence": 1650,
      "Ġinterf": 1651,
      "wgC": 1652,
      "ducting": 1653,
      "Ġuses": 1654,
      "Ġaddi": 1655,
      "Ġscatter": 1656,
      "ĠGener": 1657,
      "ysis": 1658,
      "Ġdynamical": 1659,
      "Ġoperators": 1660,
      "Ġmaxim": 1661,
      "202": 1662,
      "Ġproposed": 1663,
      "Ġpost": 1664,
      "Ġprinc": 1665,
      "Ġfields": 1666,
      "Ġobtain": 1667,
      "Ġtransform": 1668,
      "arkov": 1669,
      "styles": 1670,
      "Ġregime": 1671,
      "scale": 1672,
      "Ġlower": 1673,
      "Ġelectron": 1674,
      "conducting": 1675,
      "colum": 1676,
      "Ġphotons": 1677,
      "Ġsetting": 1678,
      "Ġmagnetic": 1679,
      "Ġchallenge": 1680,
      "display": 1681,
      "Ġmatrices": 1682,
      "Ġsuperconducting": 1683,
      "Ġconsist": 1684,
      "Ġmixed": 1685,
      "ĠWhile": 1686,
      "Ġexcitation": 1687,
      "ymmetric": 1688,
      "Ġmolecular": 1689,
      "Ġpromising": 1690,
      "Ġeffects": 1691,
      "Ġscheme": 1692,
      "Ġdiscrimin": 1693,
      "Ġidentify": 1694,
      "Ġfamily": 1695,
      "Ġbenchmark": 1696,
      "Ġquestion": 1697,
      "plicit": 1698,
      "Ġdecoherence": 1699,
      "iversal": 1700,
      "Ġtopological": 1701,
      "ography": 1702,
      "emporal": 1703,
      "alpha": 1704,
      "(\\": 1705,
      "18": 1706,
      ":\"": 1707,
      "DA": 1708,
      "Language": 1709,
      "OM": 1710,
      "RL": 1711,
      "SQ": 1712,
      "bil": 1713,
      "cal": 1714,
      "com": 1715,
      "cill": 1716,
      "efficient": 1717,
      "ful": 1718,
      "gree": 1719,
      "lu": 1720,
      "log": 1721,
      "local": 1722,
      "mbox": 1723,
      "media": 1724,
      "name": 1725,
      "och": 1726,
      "ping": 1727,
      "pth": 1728,
      "pically": 1729,
      "rum": 1730,
      "son": 1731,
      "top": 1732,
      "ual": 1733,
      "uild": 1734,
      "way": 1735,
      "ym": 1736,
      "Ġ6": 1737,
      "ĠJ": 1738,
      "Ġ[": 1739,
      "Ġup": 1740,
      "onical": 1741,
      "ering": 1742,
      "Ġty": 1743,
      "Ġtas": 1744,
      "Ġterm": 1745,
      "ender": 1746,
      "rees": 1747,
      "reak": 1748,
      "alle": 1749,
      "org": 1750,
      "Ġsampl": 1751,
      "Ġsqueez": 1752,
      "Ġcy": 1753,
      "Ġcar": 1754,
      "Ġcertif": 1755,
      "atch": 1756,
      "Ġpower": 1757,
      "ications": 1758,
      "Ġfoc": 1759,
      "lection": 1760,
      "tures": 1761,
      "tuations": 1762,
      "Ġancill": 1763,
      "Ġmess": 1764,
      "Ġmore": 1765,
      "Ġmost": 1766,
      "ently": 1767,
      "entally": 1768,
      "Ġbec": 1769,
      "Ġbatter": 1770,
      "Ġrest": 1771,
      "Ġretain": 1772,
      "imes": 1773,
      "Ġeven": 1774,
      "Ġevalu": 1775,
      "ams": 1776,
      "unc": 1777,
      "Ġlab": 1778,
      "Ġnat": 1779,
      "ological": 1780,
      "ilib": 1781,
      "Ġprog": 1782,
      "abatic": 1783,
      "ĠTime": 1784,
      "Ġste": 1785,
      "Ġstor": 1786,
      "sian": 1787,
      "chan": 1788,
      "Ġconstruc": 1789,
      "agnetic": 1790,
      "ĠSU": 1791,
      "ĠSWAP": 1792,
      "isting": 1793,
      "igur": 1794,
      "urr": 1795,
      "Ġhardware": 1796,
      "uctuations": 1797,
      "Ġwithin": 1798,
      "ĠAl": 1799,
      "ĠMont": 1800,
      "ĠModel": 1801,
      "ĠMarkov": 1802,
      "ĠThese": 1803,
      "ĠQubit": 1804,
      "ots": 1805,
      "ĠPar": 1806,
      "ĠPassmore": 1807,
      "rangle": 1808,
      "Ġcover": 1809,
      "ociated": 1810,
      "ĠRand": 1811,
      "extual": 1812,
      "ĠDe": 1813,
      "ĠDi": 1814,
      "Ġsyn": 1815,
      "Ġchain": 1816,
      "andid": 1817,
      "ĠLind": 1818,
      "Ġnonlinear": 1819,
      "wgR": 1820,
      "Ġopen": 1821,
      "Ġmodes": 1822,
      "acting": 1823,
      "ĠNetwork": 1824,
      "ĠNoise": 1825,
      "Ġused": 1826,
      "Ġarchitec": 1827,
      "Ġlevel": 1828,
      "Ġfixed": 1829,
      "Ġpredic": 1830,
      "Ġdecay": 1831,
      "Ġdecomp": 1832,
      "achine": 1833,
      "Ġdisorder": 1834,
      "ints": 1835,
      "Ġsequ": 1836,
      "Ġsepar": 1837,
      "Ġdistin": 1838,
      "Ġaccur": 1839,
      "Ġpresence": 1840,
      "arget": 1841,
      "olean": 1842,
      "Ġencryption": 1843,
      "Ġdetermin": 1844,
      "Ġscaling": 1845,
      "Ġoptimization": 1846,
      "Ġsignific": 1847,
      "Ġimplementations": 1848,
      "Ġplatform": 1849,
      "Ġgeneralized": 1850,
      "color": 1851,
      "Ġphoton": 1852,
      "ĠEnc": 1853,
      "Ġsubs": 1854,
      "radient": 1855,
      "rained": 1856,
      "Ġassociated": 1857,
      "Ġspectral": 1858,
      "blad": 1859,
      "Ġfluctuations": 1860,
      "ĠSpin": 1861,
      "Ġresults": 1862,
      "Ġcorrelations": 1863,
      "Ġmajorization": 1864,
      "Ġtechni": 1865,
      "Ġfreedom": 1866,
      "\":[\"": 1867,
      "ĠCarlo": 1868,
      "Ġdegrees": 1869,
      "ĠWikipedia": 1870,
      "atistics": 1871,
      "Ġincreasing": 1872,
      "Ġminimum": 1873,
      "Ġgiven": 1874,
      "bedd": 1875,
      "Ġcryst": 1876,
      "ĠBoolean": 1877,
      "Ġseveral": 1878,
      "ransform": 1879,
      "Ġvacuum": 1880,
      "Ġscattering": 1881,
      "Ġprinci": 1882,
      "bility": 1883,
      "allel": 1884,
      "Ġfocus": 1885,
      "Ġancilla": 1886,
      "ilibrium": 1887,
      "ĠMonte": 1888,
      "ĠRandom": 1889,
      "ĠLindblad": 1890,
      "Ġsignificant": 1891,
      "\"},\"": 1892,
      "\"],\"": 1893,
      ").": 1894,
      "100": 1895,
      "27": 1896,
      "500": 1897,
      "71": 1898,
      "Clifford": 1899,
      "DP": 1900,
      "Id": 1901,
      "Ms": 1902,
      "QP": 1903,
      "User": 1904,
      "_{\\": 1905,
      "aw": 1906,
      "cle": 1907,
      "ctive": 1908,
      "fre": 1909,
      "field": 1910,
      "group": 1911,
      "hi": 1912,
      "htt": 1913,
      "iv": 1914,
      "ium": 1915,
      "iform": 1916,
      "ience": 1917,
      "mo": 1918,
      "ms": 1919,
      "mer": 1920,
      "man": 1921,
      "med": 1922,
      "ny": 1923,
      "pid": 1924,
      "page": 1925,
      "pond": 1926,
      "rit": 1927,
      "right": 1928,
      "tl": 1929,
      "tex": 1930,
      "ule": 1931,
      "utions": 1932,
      "uish": 1933,
      "vail": 1934,
      "}(": 1935,
      "},": 1936,
      "});": 1937,
      "Î´": 1938,
      "Ġ0": 1939,
      "Ġ3": 1940,
      "Ġ4": 1941,
      "Ġu": 1942,
      "Ġend": 1943,
      "Ġjoint": 1944,
      "ined": 1945,
      "onential": 1946,
      "error": 1947,
      "ansion": 1948,
      "tition": 1949,
      "tivity": 1950,
      "aling": 1951,
      "Ġthan": 1952,
      "Ġthen": 1953,
      "Ġthere": 1954,
      "Ġso": 1955,
      "Ġsur": 1956,
      "Ġsmall": 1957,
      "Ġcase": 1958,
      "Ġcandid": 1959,
      "itu": 1960,
      "ited": 1961,
      "atures": 1962,
      "ised": 1963,
      "ision": 1964,
      "Ġpot": 1965,
      "ick": 1966,
      "Ġfact": 1967,
      "lective": 1968,
      "Ġdimensional": 1969,
      "quency": 1970,
      "Ġinst": 1971,
      "Ġinver": 1972,
      "Ġindependent": 1973,
      "Ġwas": 1974,
      "aster": 1975,
      "Ġbit": 1976,
      "Ġquery": 1977,
      "Ġev": 1978,
      "Ġeig": 1979,
      "acity": 1980,
      "ecial": 1981,
      "uls": 1982,
      "ulating": 1983,
      "Ġlin": 1984,
      "Ġlog": 1985,
      "Ġnuclear": 1986,
      "ili": 1987,
      "Ġproduct": 1988,
      "Ġgap": 1989,
      "Ġgradient": 1990,
      "idata": 1991,
      "idden": 1992,
      "sitions": 1993,
      "Ġconventional": 1994,
      "irac": 1995,
      "ĠCircu": 1996,
      "ĠClifford": 1997,
      "partit": 1998,
      "agn": 1999,
      "ĠSu": 2000,
      "ĠSear": 2001,
      "serving": 2002,
      "adg": 2003,
      "Ġhowever": 2004,
      "Ġexplicit": 2005,
      "Ġcompar": 2006,
      "ĠApp": 2007,
      "rix": 2008,
      "ĠMac": 2009,
      "ĠMet": 2010,
      "respond": 2011,
      "ĠHigh": 2012,
      "oton": 2013,
      "Ġcoupled": 2014,
      "ĠRet": 2015,
      "ĠRÃ©": 2016,
      "ĠFirst": 2017,
      "ĠFault": 2018,
      "ĠDec": 2019,
      "ensing": 2020,
      "feromet": 2021,
      "ĠLanc": 2022,
      "ĠBound": 2023,
      "Ġgeneration": 2024,
      "Ġgenerate": 2025,
      "wgPage": 2026,
      "Ġuniversal": 2027,
      "Ġmode": 2028,
      "Ġcontain": 2029,
      "Ġshif": 2030,
      "Ġresp": 2031,
      "Ġreson": 2032,
      "Ġresol": 2033,
      "Ġresources": 2034,
      "Ġorac": 2035,
      "angled": 2036,
      "ourier": 2037,
      "lected": 2038,
      "vely": 2039,
      "Ġ18": 2040,
      "Ġpreparation": 2041,
      "rology": 2042,
      "Ġdiscre": 2043,
      "quival": 2044,
      "Ġerasure": 2045,
      "Ġcorrespond": 2046,
      "Ġpropag": 2047,
      "weight": 2048,
      "Ġencoded": 2049,
      "Ġunderlying": 2050,
      "Ġprim": 2051,
      "lob": 2052,
      "Ġscalar": 2053,
      "Ġtransm": 2054,
      "ĠState": 2055,
      "Ġsecure": 2056,
      "rowave": 2057,
      "Ġcoherence": 2058,
      "rade": 2059,
      "Ġequation": 2060,
      "Ġparameters": 2061,
      "Ġestablished": 2062,
      "Ġpair": 2063,
      "Ġspectrum": 2064,
      "Ġdescrib": 2065,
      "Ġapplication": 2066,
      "Ġconsid": 2067,
      "aussian": 2068,
      "Ġcollective": 2069,
      "Ġconstra": 2070,
      "Ġconstant": 2071,
      "Ġthermal": 2072,
      "Ġthermod": 2073,
      "Ġamong": 2074,
      "Ġrecovery": 2075,
      "Ġlinear": 2076,
      "Ġhyper": 2077,
      "Ġhybrid": 2078,
      "Ġ2025": 2079,
      "Ġdoes": 2080,
      "Ġrobustness": 2081,
      "vious": 2082,
      "Ġrapid": 2083,
      "Article": 2084,
      "Ġsupport": 2085,
      "Ġleading": 2086,
      "Ġrepresentation": 2087,
      "ĠDetermin": 2088,
      "Ġadditional": 2089,
      "Ġsettings": 2090,
      "Ġtypically": 2091,
      "Ġterms": 2092,
      "reaking": 2093,
      "Ġsampling": 2094,
      "Ġbatteries": 2095,
      "Ġrestric": 2096,
      "Ġnatural": 2097,
      "ĠMarkovian": 2098,
      "extuality": 2099,
      "ĠEncoding": 2100,
      "nyi": 2101,
      "Ġpotential": 2102,
      "partite": 2103,
      "ĠSearch": 2104,
      "ĠRÃ©nyi": 2105,
      "ĠLancaster": 2106,
      "$(": 2107,
      "$)": 2108,
      ")\",\"": 2109,
      "-\\": 2110,
      "16": 2111,
      "52": 2112,
      "70": 2113,
      "840": 2114,
      "96": 2115,
      ":-": 2116,
      ":\\/": 2117,
      "AM": 2118,
      "GF": 2119,
      "Is": 2120,
      "LS": 2121,
      "Or": 2122,
      "Pro": 2123,
      "QC": 2124,
      "SS": 2125,
      "Sh": 2126,
      "Will": 2127,
      "YK": 2128,
      "]{": 2129,
      "aware": 2130,
      "cd": 2131,
      "cel": 2132,
      "circu": 2133,
      "cise": 2134,
      "date": 2135,
      "dens": 2136,
      "density": 2137,
      "data": 2138,
      "ele": 2139,
      "eore": 2140,
      "elect": 2141,
      "fr": 2142,
      "gan": 2143,
      "gain": 2144,
      "graph": 2145,
      "hot": 2146,
      "hanc": 2147,
      "iti": 2148,
      "iation": 2149,
      "iable": 2150,
      "ities": 2151,
      "iams": 2152,
      "iabatic": 2153,
      "known": 2154,
      "lap": 2155,
      "language": 2156,
      "lock": 2157,
      "not": 2158,
      "ox": 2159,
      "pt": 2160,
      "pad": 2161,
      "pare": 2162,
      "qr": 2163,
      "rins": 2164,
      "symmetric": 2165,
      "shot": 2166,
      "sqr": 2167,
      "ub": 2168,
      "ues": 2169,
      "viron": 2170,
      "xing": 2171,
      "zer": 2172,
      "}\\": 2173,
      "})$": 2174,
      "Â·": 2175,
      "ÏĢ": 2176,
      "Ġ=": 2177,
      "Ġed": 2178,
      "ĠÂ·": 2179,
      "inter": 2180,
      "onstruction": 2181,
      "onium": 2182,
      "erg": 2183,
      "eries": 2184,
      "erner": 2185,
      "Ġtrain": 2186,
      "Ġtimes": 2187,
      "Ġtarget": 2188,
      "til": 2189,
      "tity": 2190,
      "eneck": 2191,
      "ensive": 2192,
      "align": 2193,
      "Ġsen": 2194,
      "Ġsqu": 2195,
      "Ġsource": 2196,
      "Ġsources": 2197,
      "Ġsensing": 2198,
      "Ġavail": 2199,
      "Ġagain": 2200,
      "Ġcurr": 2201,
      "iting": 2202,
      "esp": 2203,
      "esis": 2204,
      "Ġthem": 2205,
      "Ġother": 2206,
      "ises": 2207,
      "ister": 2208,
      "inguish": 2209,
      "arch": 2210,
      "arting": 2211,
      "Ġpur": 2212,
      "Ġpure": 2213,
      "Ġfe": 2214,
      "Ġfind": 2215,
      "Ġfidelity": 2216,
      "Ġdom": 2217,
      "Ġdue": 2218,
      "Ġdata": 2219,
      "Ġdots": 2220,
      "Ġind": 2221,
      "Ġinvol": 2222,
      "tub": 2223,
      "Ġwell": 2224,
      "asi": 2225,
      "astic": 2226,
      "Ġmon": 2227,
      "Ġmeas": 2228,
      "Ġmachine": 2229,
      "Ġbinary": 2230,
      "Ġreve": 2231,
      "imedia": 2232,
      "Ġequival": 2233,
      "aced": 2234,
      "une": 2235,
      "unter": 2236,
      "ulations": 2237,
      "Ġlif": 2238,
      "Ġlaw": 2239,
      "ticular": 2240,
      "ilber": 2241,
      "Ġproj": 2242,
      "Ġproduc": 2243,
      "Ġproject": 2244,
      "Ġgo": 2245,
      "Ġgover": 2246,
      "idence": 2247,
      "Ġstoch": 2248,
      "vers": 2249,
      "vered": 2250,
      "sip": 2251,
      "sibility": 2252,
      "Ġcondens": 2253,
      "agg": 2254,
      "isted": 2255,
      "ade": 2256,
      "uring": 2257,
      "urther": 2258,
      "Ġhist": 2259,
      "ĠQR": 2260,
      "ĠQKD": 2261,
      "Ġexisting": 2262,
      "Ġexhi": 2263,
      "ĠAc": 2264,
      "ĠAll": 2265,
      "ĠAtom": 2266,
      "ĠAbelian": 2267,
      "ritical": 2268,
      "ĠMay": 2269,
      "ĠMeasurement": 2270,
      "ĠMolec": 2271,
      "resh": 2272,
      "ments": 2273,
      "ĠHy": 2274,
      "ĠHilber": 2275,
      "rays": 2276,
      "Ġweight": 2277,
      "Ġweak": 2278,
      "ogen": 2279,
      "Ġcoupling": 2280,
      "romagnetic": 2281,
      "ĠFourier": 2282,
      "Ġalgebra": 2283,
      "Ġchem": 2284,
      "Ġdetu": 2285,
      "Ġdepth": 2286,
      "herent": 2287,
      "liststyle": 2288,
      "Ġatt": 2289,
      "ayer": 2290,
      "apt": 2291,
      "theore": 2292,
      "Ġintrins": 2293,
      "Ġinterferomet": 2294,
      "ification": 2295,
      "wgM": 2296,
      "Ġunc": 2297,
      "duced": 2298,
      "Ġshort": 2299,
      "Ġdiv": 2300,
      "Ġdiagonal": 2301,
      "ĠOne": 2302,
      "aves": 2303,
      "abling": 2304,
      "Ġparallel": 2305,
      "Ġparticular": 2306,
      "Ġcanonical": 2307,
      "Ġsimult": 2308,
      "Ġarticle": 2309,
      "ĠGeomet": 2310,
      "Ġleast": 2311,
      "Ġroute": 2312,
      "Ġstub": 2313,
      "coupled": 2314,
      "Ġnew": 2315,
      "Ġimport": 2316,
      "Ġoperator": 2317,
      "Ġdistinguish": 2318,
      "Ġrate": 2319,
      "Ġoverhead": 2320,
      "Ġstudying": 2321,
      "ariant": 2322,
      "ariational": 2323,
      "Ġpoint": 2324,
      "Ġdetector": 2325,
      "Ġdetection": 2326,
      "Ġboundary": 2327,
      "Ġscale": 2328,
      "Ġscalable": 2329,
      "Ġentangled": 2330,
      "Ġmetrology": 2331,
      "Ġregion": 2332,
      "Ġregister": 2333,
      "Ġerrors": 2334,
      "oft": 2335,
      "Ġsecond": 2336,
      "Ġspins": 2337,
      "Ġphysics": 2338,
      "Ġphysically": 2339,
      "central": 2340,
      "Ġanalog": 2341,
      "Ġanalysis": 2342,
      "Ġbottl": 2343,
      "Ġelectric": 2344,
      "Ġimplementation": 2345,
      "Ġabout": 2346,
      "Ġnumer": 2347,
      "Ġexponential": 2348,
      "Ġcommon": 2349,
      "Ġphotonic": 2350,
      "ĠVariational": 2351,
      "ĠEnt": 2352,
      "Ġyield": 2353,
      "Ġmagn": 2354,
      "Ġprobabil": 2355,
      "disabled": 2356,
      "Ġfully": 2357,
      "Ġeffective": 2358,
      "ploy": 2359,
      "Ġchange": 2360,
      "ductor": 2361,
      "echanical": 2362,
      "Ġcollis": 2363,
      "Ġquantif": 2364,
      "Ġgraphs": 2365,
      "Ġresulting": 2366,
      "soid": 2367,
      "Ġoutput": 2368,
      "Ġpolar": 2369,
      "Ġproblems": 2370,
      "24840": 2371,
      "ibase": 2372,
      "Ġampl": 2373,
      "Ġcapacity": 2374,
      "Ġconfigur": 2375,
      "\":[],\"": 2376,
      "ĠAnal": 2377,
      "ĠProcess": 2378,
      "okie": 2379,
      "Ġtrunc": 2380,
      "ordin": 2381,
      "Ġlinewidth": 2382,
      "Ġdirectly": 2383,
      "uxili": 2384,
      "uxonium": 2385,
      "Ġmechanics": 2386,
      "Ġmechanism": 2387,
      "Ġrecently": 2388,
      "Ġconvergence": 2389,
      "Ġdepends": 2390,
      "count": 2391,
      "Ġneeded": 2392,
      "Ġchallenges": 2393,
      "ĠOptimization": 2394,
      "equilibrium": 2395,
      "tization": 2396,
      "iconductor": 2397,
      "Ġinflu": 2398,
      "Ġbosonic": 2399,
      "Ġproofs": 2400,
      "rivacy": 2401,
      "Ġestimation": 2402,
      "Ġtemperature": 2403,
      "rieval": 2404,
      "ĠPhase": 2405,
      "2022": 2406,
      "Ġdiscrimination": 2407,
      "Ġtask": 2408,
      "enders": 2409,
      "Ġcarri": 2410,
      "Ġstorage": 2411,
      "change": 2412,
      "ĠNetworks": 2413,
      "Ġdecomposition": 2414,
      "Ġdistinct": 2415,
      "bedded": 2416,
      "Ġcrystal": 2417,
      "ĠLindbladian": 2418,
      "Ġeigen": 2419,
      "ĠMacWill": 2420,
      "lobal": 2421,
      ":\\/\\/": 2422,
      "celer": 2423,
      "padding": 2424,
      "sqrt": 2425,
      "vironment": 2426,
      "Ġsquare": 2427,
      "Ġavailable": 2428,
      "Ġagainst": 2429,
      "Ġstochastic": 2430,
      "Ġexhibit": 2431,
      "ĠHilbert": 2432,
      "Ġbottleneck": 2433,
      "uxiliary": 2434,
      "ĠMacWilliams": 2435,
      "\"}": 2436,
      "$_": 2437,
      "%;": 2438,
      "(){": 2439,
      ")\"": 2440,
      "07": 2441,
      "50": 2442,
      "73": 2443,
      "88": 2444,
      "99": 2445,
      "Abelian": 2446,
      "CO": 2447,
      "Cl": 2448,
      "En": 2449,
      "Gord": 2450,
      "IP": 2451,
      "Kit": 2452,
      "NO": 2453,
      "NS": 2454,
      "PU": 2455,
      "Passmore": 2456,
      "Qu": 2457,
      "Sp": 2458,
      "Stub": 2459,
      "ULS": 2460,
      "View": 2461,
      "Wik": 2462,
      "Xiv": 2463,
      "_(": 2464,
      "_\\": 2465,
      "aut": 2466,
      "ajor": 2467,
      "bf": 2468,
      "by": 2469,
      "basis": 2470,
      "bserv": 2471,
      "cite": 2472,
      "crib": 2473,
      "cip": 2474,
      "comp": 2475,
      "come": 2476,
      "face": 2477,
      "finite": 2478,
      "go": 2479,
      "gs": 2480,
      "gu": 2481,
      "he": 2482,
      "hol": 2483,
      "iC": 2484,
      "ition": 2485,
      "ibr": 2486,
      "ived": 2487,
      "ixed": 2488,
      "iency": 2489,
      "las": 2490,
      "less": 2491,
      "ml": 2492,
      "mode": 2493,
      "ois": 2494,
      "pin": 2495,
      "pos": 2496,
      "pies": 2497,
      "ptions": 2498,
      "pto": 2499,
      "rÃ": 2500,
      "rate": 2501,
      "rons": 2502,
      "ssing": 2503,
      "te": 2504,
      "tely": 2505,
      "tml": 2506,
      "ud": 2507,
      "ument": 2508,
      "usive": 2509,
      "var": 2510,
      "variant": 2511,
      "zo": 2512,
      "}}$": 2513,
      "Îĺ": 2514,
      "Ïģ": 2515,
      "Ġ)": 2516,
      "Ġ-": 2517,
      "Ġi": 2518,
      "Ġir": 2519,
      "Ġess": 2520,
      "ĠJohn": 2521,
      "ince": 2522,
      "independent": 2523,
      "onf": 2524,
      "onse": 2525,
      "onomic": 2526,
      "ertain": 2527,
      "any": 2528,
      "Ġtri": 2529,
      "enomen": 2530,
      "rever": 2531,
      "rection": 2532,
      "alf": 2533,
      "orn": 2534,
      "Ġslow": 2535,
      "Ġsome": 2536,
      "Ġaction": 2537,
      "Ġauxiliary": 2538,
      "Ġcruc": 2539,
      "ital": 2540,
      "itter": 2541,
      "itness": 2542,
      "atomic": 2543,
      "Ġour": 2544,
      "isher": 2545,
      "isual": 2546,
      "ings": 2547,
      "arp": 2548,
      "aries": 2549,
      "Ġpass": 2550,
      "Ġpric": 2551,
      "rop": 2552,
      "rossing": 2553,
      "Ġfast": 2554,
      "lein": 2555,
      "Ġdense": 2556,
      "ques": 2557,
      "quet": 2558,
      "Ġinput": 2559,
      "Ġwid": 2560,
      "Ġwind": 2561,
      "asures": 2562,
      "Ġmu": 2563,
      "Ġmain": 2564,
      "Ġmatter": 2565,
      "uting": 2566,
      "Ġbran": 2567,
      "Ġbuild": 2568,
      "Ġblock": 2569,
      "Ġquasi": 2570,
      "omography": 2571,
      "Ġret": 2572,
      "Ġrely": 2573,
      "Ġrece": 2574,
      "Ġread": 2575,
      "Ġrepe": 2576,
      "Ġreduce": 2577,
      "Ġreference": 2578,
      "Ġrecon": 2579,
      "Ġreferences": 2580,
      "Ġremo": 2581,
      "imits": 2582,
      "aman": 2583,
      "ample": 2584,
      "unt": 2585,
      "uld": 2586,
      "ulate": 2587,
      "Ġloc": 2588,
      "Ġlay": 2589,
      "Ġlarg": 2590,
      "Ġlength": 2591,
      "ements": 2592,
      "Ġnature": 2593,
      "Ġnarrow": 2594,
      "ols": 2595,
      "olog": 2596,
      "ollow": 2597,
      "olved": 2598,
      "ology": 2599,
      "iling": 2600,
      "ilicon": 2601,
      "ilson": 2602,
      "ably": 2603,
      "Ġgenu": 2604,
      "Ġgadg": 2605,
      "ĠTro": 2606,
      "ĠTran": 2607,
      "ĠTwo": 2608,
      "ĠTemporal": 2609,
      "vergence": 2610,
      "sig": 2611,
      "sitivity": 2612,
      "ĠWith": 2613,
      "cha": 2614,
      "ches": 2615,
      "check": 2616,
      "irc": 2617,
      "irÃ©": 2618,
      "ĠCor": 2619,
      "ĠCas": 2620,
      "ĠClassical": 2621,
      "ĠComp": 2622,
      "ĠCSS": 2623,
      "parse": 2624,
      "ĠSh": 2625,
      "ĠStr": 2626,
      "ĠSystem": 2627,
      "iggs": 2628,
      "adra": 2629,
      "ples": 2630,
      "Ġhide": 2631,
      "izes": 2632,
      "Ġextr": 2633,
      "Ġexchange": 2634,
      "ĠAppl": 2635,
      "Ġ($": 2636,
      "ries": 2637,
      "riven": 2638,
      "ĠMat": 2639,
      "ĠMic": 2640,
      "ĠMany": 2641,
      "ĠHiggs": 2642,
      "ĠPol": 2643,
      "range": 2644,
      "ogonal": 2645,
      "Ġasym": 2646,
      "Ġcoefficient": 2647,
      "Ġcoordin": 2648,
      "Ġcopies": 2649,
      "Ġcount": 2650,
      "Ġvol": 2651,
      "Ġview": 2652,
      "ĠRel": 2653,
      "ĠRaman": 2654,
      "ĠFr": 2655,
      "ĠFlo": 2656,
      "exp": 2657,
      "ĠEfficient": 2658,
      "ĠDynamics": 2659,
      "ĠDirac": 2660,
      "Ġalong": 2661,
      "Ġallow": 2662,
      "ĠInformation": 2663,
      "thogonal": 2664,
      "ĠLear": 2665,
      "Ġphenomen": 2666,
      "ermine": 2667,
      "phase": 2668,
      "photon": 2669,
      "Ġgenerates": 2670,
      "wgULS": 2671,
      "Ġuncl": 2672,
      "Ġunified": 2673,
      "Ġuniform": 2674,
      "Ġunknown": 2675,
      "Ġcontext": 2676,
      "Ġcontextuality": 2677,
      "ĠNe": 2678,
      "Ġtransitions": 2679,
      "sequ": 2680,
      "selected": 2681,
      "ynamic": 2682,
      "ĠOper": 2683,
      "Ġadmit": 2684,
      "Ġadaptive": 2685,
      "Ġadiabatic": 2686,
      "avor": 2687,
      "Ġpartial": 2688,
      "Ġsimpl": 2689,
      "Ġsimple": 2690,
      "Ġarticles": 2691,
      "Ġfiber": 2692,
      "lecting": 2693,
      "fficiency": 2694,
      "Ġ10": 2695,
      "Ġpreser": 2696,
      "Ġprepare": 2697,
      "cessing": 2698,
      "Ġneural": 2699,
      "Ġnovel": 2700,
      "Ġoperational": 2701,
      "Ġdistance": 2702,
      "Ġactive": 2703,
      "Ġaccess": 2704,
      "Ġacross": 2705,
      "Ġrig": 2706,
      "Ġapply": 2707,
      "Ġprescrib": 2708,
      "tured": 2709,
      "---": 2710,
      "Ġkine": 2711,
      "Ġobstruc": 2712,
      "Ġobject": 2713,
      "Ġdetermine": 2714,
      "Ġtransfer": 2715,
      "atterns": 2716,
      "Ġrelation": 2717,
      "Ġrelies": 2718,
      "Ġlimiting": 2719,
      "ĠStabilizer": 2720,
      "atively": 2721,
      "preserving": 2722,
      "Ġenabled": 2723,
      "Ġenabling": 2724,
      "Ġenvironment": 2725,
      "Ġemerg": 2726,
      "Ġdesign": 2727,
      "uster": 2728,
      "ĠKey": 2729,
      "ĠKlein": 2730,
      "Ġsolving": 2731,
      "Ġsignals": 2732,
      "Ġintroduc": 2733,
      "cessible": 2734,
      "Ġextension": 2735,
      "Ġrealistic": 2736,
      "Ġprocessor": 2737,
      "Ġstrength": 2738,
      "Ġexpansion": 2739,
      "ĠExact": 2740,
      "Ġmagic": 2741,
      "ĠUnlike": 2742,
      "wiki": 2743,
      "Ġformal": 2744,
      "Ġassum": 2745,
      "Ġspectra": 2746,
      "Ġspacetime": 2747,
      "Ġrequired": 2748,
      "Ġ200": 2749,
      "Ġapplies": 2750,
      "Ġfluxonium": 2751,
      "Ġproperty": 2752,
      "ĠSpect": 2753,
      "ĠOptical": 2754,
      "titem": 2755,
      "ĠComm": 2756,
      "ĠComput": 2757,
      "Ġvariational": 2758,
      "Ġcorrelation": 2759,
      "Ġcorrelated": 2760,
      "Ġpolitician": 2761,
      "Ġfermion": 2762,
      "Ġgeometry": 2763,
      "ĠWhen": 2764,
      "ĠCoherent": 2765,
      "Ġfundamentally": 2766,
      "Editor": 2767,
      "ramm": 2768,
      "Ġmicroscopic": 2769,
      "Ġmicrowave": 2770,
      "ĠPreparation": 2771,
      "Ġdegree": 2772,
      "ĠInterference": 2773,
      "Ġmaps": 2774,
      "Ġmultiple": 2775,
      "Ġmolecules": 2776,
      "Ġreduced": 2777,
      "Ġrecovered": 2778,
      "Ġexperiments": 2779,
      "Ġanalytic": 2780,
      "Ġanalyze": 2781,
      "Ġapproaches": 2782,
      "tomechanical": 2783,
      "Ġsemiconductor": 2784,
      "Ġacts": 2785,
      "Ġacting": 2786,
      "Ġgives": 2787,
      "ĠAdd": 2788,
      "ĠMoirÃ©": 2789,
      "Ġcharacterized": 2790,
      "Ġnearly": 2791,
      "Ġchannels": 2792,
      "Ġachieve": 2793,
      "Ġtheorem": 2794,
      "Ġdriving": 2795,
      "Ġconditional": 2796,
      "counter": 2797,
      "Ġneeding": 2798,
      "Ġmake": 2799,
      "Ġmaking": 2800,
      "Ġapproximation": 2801,
      "Ġapproximate": 2802,
      "Ġchallenging": 2803,
      "ĠOptimal": 2804,
      "Ġdifferent": 2805,
      "Ġdifferential": 2806,
      "eedback": 2807,
      "listitem": 2808,
      "skins": 2809,
      "Ġvertex": 2810,
      "Ġsidebar": 2811,
      "Ġincluding": 2812,
      "Ġconnection": 2813,
      "ĠSimulations": 2814,
      "Ġcombines": 2815,
      "rivial": 2816,
      "Ġvalues": 2817,
      "Ġinteger": 2818,
      "Ġrotation": 2819,
      "Ġradiation": 2820,
      "Ġabsor": 2821,
      "Ġabsence": 2822,
      "^{-": 2823,
      "className": 2824,
      "ired": 2825,
      "operator": 2826,
      "www": 2827,
      "Ġmean": 2828,
      "Ġmove": 2829,
      "Ġmayor": 2830,
      "omentum": 2831,
      "important": 2832,
      "importance": 2833,
      "ĠError": 2834,
      "column": 2835,
      "columns": 2836,
      "RLQ": 2837,
      "greek": 2838,
      "ĠJune": 2839,
      "Ġsqueezed": 2840,
      "Ġcycle": 2841,
      "Ġmessages": 2842,
      "Ġlabel": 2843,
      "Ġconstruct": 2844,
      "ĠQubits": 2845,
      "Ġarchitecture": 2846,
      "Ġsequential": 2847,
      "Ġsubsets": 2848,
      "Ġtechniques": 2849,
      "Ġprinciples": 2850,
      "DPC": 2851,
      "freedom": 2852,
      "https": 2853,
      "Ġutil": 2854,
      "itude": 2855,
      "Ġlinks": 2856,
      "Ġproducts": 2857,
      "ĠAppro": 2858,
      "Ġshift": 2859,
      "Ġrespect": 2860,
      "Ġoracle": 2861,
      "Ġtransmission": 2862,
      "Ġthermodynamic": 2863,
      "Ġhypergraph": 2864,
      "ĠDetermining": 2865,
      "cdot": 2866,
      "zero": 2867,
      "Ġcurrent": 2868,
      "Ġequivalent": 2869,
      "ĠHybrid": 2870,
      "ogeneous": 2871,
      "Ġchemical": 2872,
      "aptcha": 2873,
      "Ġsimultaneous": 2874,
      "Ġnumerical": 2875,
      "ĠEntanglement": 2876,
      "Ġprobabilistic": 2877,
      "Ġconfiguration": 2878,
      "Ġinfluence": 2879,
      "Gordon": 2880,
      "cipro": 2881,
      "holonomic": 2882,
      "pinned": 2883,
      "rÃ¶": 2884,
      "Ġessential": 2885,
      "Ġcrucial": 2886,
      "isualEditor": 2887,
      "Ġwidely": 2888,
      "adratic": 2889,
      "Ġasympto": 2890,
      "ĠFloquet": 2891,
      "+\\": 2892,
      ".,": 2893,
      "125": 2894,
      "23": 2895,
      "26": 2896,
      "224840": 2897,
      "46": 2898,
      "47": 2899,
      "75": 2900,
      "873": 2901,
      "971": 2902,
      "As": 2903,
      "BO": 2904,
      "Cont": 2905,
      "Captcha": 2906,
      "DM": 2907,
      "DO": 2908,
      "EGF": 2909,
      "Gaussian": 2910,
      "ID": 2911,
      "ISQ": 2912,
      "Js": 2913,
      "LP": 2914,
      "MC": 2915,
      "Mo": 2916,
      "Mand": 2917,
      "No": 2918,
      "Nam": 2919,
      "OD": 2920,
      "OI": 2921,
      "OV": 2922,
      "Ou": 2923,
      "Par": 2924,
      "Pres": 2925,
      "Pennsylvania": 2926,
      "Pois": 2927,
      "QI": 2928,
      "QR": 2929,
      "QKD": 2930,
      "SYK": 2931,
      "SiC": 2932,
      "SOI": 2933,
      "TC": 2934,
      "TO": 2935,
      "Tok": 2936,
      "Transform": 2937,
      "UBO": 2938,
      "Ver": 2939,
      "We": 2940,
      "YB": 2941,
      "ba": 2942,
      "bow": 2943,
      "bile": 2944,
      "cen": 2945,
      "ced": 2946,
      "cons": 2947,
      "cond": 2948,
      "cell": 2949,
      "doc": 2950,
      "dress": 2951,
      "driven": 2952,
      "eq": 2953,
      "epar": 2954,
      "eyn": 2955,
      "from": 2956,
      "flow": 2957,
      "ges": 2958,
      "ging": 2959,
      "gine": 2960,
      "gated": 2961,
      "ground": 2962,
      "hor": 2963,
      "html": 2964,
      "iod": 2965,
      "iate": 2966,
      "itional": 2967,
      "kill": 2968,
      "light": 2969,
      "layer": 2970,
      "ma": 2971,
      "min": 2972,
      "measure": 2973,
      "mEdit": 2974,
      "model": 2975,
      "normal": 2976,
      "ou": 2977,
      "otic": 2978,
      "off": 2979,
      "ough": 2980,
      "position": 2981,
      "rid": 2982,
      "ronic": 2983,
      "sor": 2984,
      "set": 2985,
      "sch": 2986,
      "small": 2987,
      "sub": 2988,
      "tal": 2989,
      "tly": 2990,
      "tter": 2991,
      "two": 2992,
      "teg": 2993,
      "temper": 2994,
      "uk": 2995,
      "ubl": 2996,
      "vent": 2997,
      "vid": 2998,
      "vare": 2999,
      "view": 3000,
      "wall": 3001,
      "wich": 3002,
      "wave": 3003,
      "ycl": 3004,
      "|[": 3005,
      "}^": 3006,
      "}_": 3007,
      "~\\": 3008,
      "Îµ": 3009,
      "Ġ&": 3010,
      "Ġ9": 3011,
      "Ġ]": 3012,
      "Ġ|": 3013,
      "Ġâ": 3014,
      "Ġens": 3015,
      "Ġult": 3016,
      "Ġide": 3017,
      "Ġ--": 3018,
      "Ġ{\\": 3019,
      "Ġiron": 3020,
      "inal": 3021,
      "init": 3022,
      "ines": 3023,
      "inher": 3024,
      "insp": 3025,
      "inement": 3026,
      "induced": 3027,
      "onti": 3028,
      "onent": 3029,
      "onable": 3030,
      "ereas": 3031,
      "erion": 3032,
      "erogeneous": 3033,
      "ana": 3034,
      "anar": 3035,
      "annel": 3036,
      "Ġtw": 3037,
      "Ġtre": 3038,
      "Ġtable": 3039,
      "Ġtree": 3040,
      "Ġtest": 3041,
      "Ġtemporal": 3042,
      "Ġtrade": 3043,
      "Ġtomography": 3044,
      "tire": 3045,
      "enal": 3046,
      "ened": 3047,
      "enabled": 3048,
      "enormal": 3049,
      "enhanc": 3050,
      "entity": 3051,
      "rel": 3052,
      "reen": 3053,
      "reating": 3054,
      "report": 3055,
      "alized": 3056,
      "orent": 3057,
      "oriz": 3058,
      "orator": 3059,
      "Ġser": 3060,
      "Ġsing": 3061,
      "Ġsuc": 3062,
      "Ġsand": 3063,
      "Ġsite": 3064,
      "Ġsoft": 3065,
      "Ġsparse": 3066,
      "Ġaround": 3067,
      "Ġcal": 3068,
      "Ġcut": 3069,
      "Ġcell": 3070,
      "Ġcross": 3071,
      "Ġcritical": 3072,
      "Ġcirc": 3073,
      "ites": 3074,
      "esh": 3075,
      "esian": 3076,
      "atom": 3077,
      "atab": 3078,
      "aters": 3079,
      "ately": 3080,
      "Ġoc": 3081,
      "isy": 3082,
      "ison": 3083,
      "arm": 3084,
      "arXiv": 3085,
      "Ġpage": 3086,
      "Ġpath": 3087,
      "Ġpers": 3088,
      "Ġpuls": 3089,
      "Ġpatterns": 3090,
      "Ġpenal": 3091,
      "ican": 3092,
      "Ġfer": 3093,
      "Ġfeas": 3094,
      "Ġflow": 3095,
      "Ġfail": 3096,
      "Ġfurther": 3097,
      "Ġfollow": 3098,
      "Ġfeedback": 3099,
      "leman": 3100,
      "legated": 3101,
      "Ġincom": 3102,
      "tural": 3103,
      "Ġans": 3104,
      "Ġwaves": 3105,
      "Ġwitness": 3106,
      "ash": 3107,
      "Ġmac": 3108,
      "Ġmul": 3109,
      "Ġmass": 3110,
      "Ġmeasure": 3111,
      "Ġmargin": 3112,
      "utral": 3113,
      "Ġbel": 3114,
      "Ġbond": 3115,
      "Ġqudit": 3116,
      "omial": 3117,
      "ste": 3118,
      "stri": 3119,
      "stant": 3120,
      "strained": 3121,
      "Ġreaction": 3122,
      "Ġreport": 3123,
      "Ġrepro": 3124,
      "Ġrecur": 3125,
      "Ġretur": 3126,
      "Ġrecipro": 3127,
      "imir": 3128,
      "Ġet": 3129,
      "Ġelement": 3130,
      "Ġefficiency": 3131,
      "ections": 3132,
      "ety": 3133,
      "etter": 3134,
      "eterogeneous": 3135,
      "amb": 3136,
      "ulse": 3137,
      "elp": 3138,
      "eline": 3139,
      "Ġlad": 3140,
      "Ġlimits": 3141,
      "eme": 3142,
      "ember": 3143,
      "tices": 3144,
      "Ġnan": 3145,
      "Ġnormal": 3146,
      "Ġtotal": 3147,
      "ilon": 3148,
      "Ġgrow": 3149,
      "Ġgive": 3150,
      "Ġglobal": 3151,
      "oder": 3152,
      "ĠTop": 3153,
      "ĠTransform": 3154,
      "ceed": 3155,
      "ided": 3156,
      "Ġstabil": 3157,
      "Ġstatistics": 3158,
      "verage": 3159,
      "ĠWign": 3160,
      "ĠWave": 3161,
      "ĠWerner": 3162,
      "ĠWilson": 3163,
      "ategor": 3164,
      "chive": 3165,
      "chrÃ¶": 3166,
      "Ġcones": 3167,
      "irmEdit": 3168,
      "ĠCre": 3169,
      "ĠCode": 3170,
      "ĠCodes": 3171,
      "ĠCost": 3172,
      "ĠCNO": 3173,
      "parsoid": 3174,
      "ago": 3175,
      "agram": 3176,
      "ĠSingle": 3177,
      "ĠSym": 3178,
      "ĠSchrÃ¶": 3179,
      "istent": 3180,
      "istence": 3181,
      "igation": 3182,
      "adr": 3183,
      "url": 3184,
      "plore": 3185,
      "placed": 3186,
      "Ġhe": 3187,
      "Ġhold": 3188,
      "Ġhalf": 3189,
      "rior": 3190,
      "ĠMain": 3191,
      "ĠMemory": 3192,
      "ĠMinim": 3193,
      "ĠMajor": 3194,
      "resnel": 3195,
      "resolved": 3196,
      "ĠThrough": 3197,
      "ĠHe": 3198,
      "ĠHay": 3199,
      "ĠHong": 3200,
      "ĠHardware": 3201,
      "ects": 3202,
      "ecting": 3203,
      "ectation": 3204,
      "forc": 3205,
      "ĠPr": 3206,
      "ĠPer": 3207,
      "ĠPrivacy": 3208,
      "rang": 3209,
      "umber": 3210,
      "Ġwhereas": 3211,
      "Ġcoex": 3212,
      "Ġcould": 3213,
      "ĠIm": 3214,
      "ĠIt": 3215,
      "ĠIQP": 3216,
      "ĠRead": 3217,
      "ĠFan": 3218,
      "ĠFound": 3219,
      "ĠFind": 3220,
      "ĠFisher": 3221,
      "Ġspaces": 3222,
      "Ġspecial": 3223,
      "timode": 3224,
      "ĠEu": 3225,
      "ĠDu": 3226,
      "ĠDis": 3227,
      "ĠDensity": 3228,
      "Ġalph": 3229,
      "Ġalign": 3230,
      "Ġchang": 3231,
      "Ġcharg": 3232,
      "Ġcharge": 3233,
      "Ġcheck": 3234,
      "Ġdeph": 3235,
      "here": 3236,
      "sions": 3237,
      "ĠTheore": 3238,
      "plex": 3239,
      "Ġattr": 3240,
      "ands": 3241,
      "\":\"+\\": 3242,
      "ayesian": 3243,
      "thesis": 3244,
      "though": 3245,
      "theme": 3246,
      "ĠLog": 3247,
      "ĠLine": 3248,
      "ĠLif": 3249,
      "ĠLogical": 3250,
      "ĠLorent": 3251,
      "encies": 3252,
      "iative": 3253,
      "ĠBuild": 3254,
      "ĠBorn": 3255,
      "ĠBayesian": 3256,
      "Ġintensity": 3257,
      "Ġinterpre": 3258,
      "Ġintermed": 3259,
      "Ġinteratomic": 3260,
      "Ġnonlocal": 3261,
      "Ġnonholonomic": 3262,
      "opping": 3263,
      "optomechanical": 3264,
      "Ġgenerating": 3265,
      "Ġgenerative": 3266,
      "Ġgenerally": 3267,
      "wgT": 3268,
      "wgV": 3269,
      "wgIs": 3270,
      "ynomial": 3271,
      "atorial": 3272,
      "Ġcontrib": 3273,
      "Ġshap": 3274,
      "Ġsystematic": 3275,
      "ĠNuclear": 3276,
      "pped": 3277,
      "Ġcompute": 3278,
      "Ġcomputer": 3279,
      "Ġcomputers": 3280,
      "Ġdivergence": 3281,
      "Ġbeing": 3282,
      "extend": 3283,
      "ĠOn": 3284,
      "ĠOur": 3285,
      "ĠObserv": 3286,
      "Ġorgan": 3287,
      "Ġadm": 3288,
      "Ġadding": 3289,
      "Ġaddress": 3290,
      "aving": 3291,
      "Ġparity": 3292,
      "Ġparad": 3293,
      "Ġparticle": 3294,
      "Ġscram": 3295,
      "Ġscience": 3296,
      "Ġarise": 3297,
      "Ġarising": 3298,
      "Ġarrays": 3299,
      "ĠGraph": 3300,
      "ĠGaussian": 3301,
      "ĠGreen": 3302,
      "ared": 3303,
      "speed": 3304,
      "alled": 3305,
      "Ġrouting": 3306,
      "Ġprevious": 3307,
      "Ġprecise": 3308,
      "estric": 3309,
      "idefinite": 3310,
      "000": 3311,
      "cookie": 3312,
      "Ġneg": 3313,
      "Ġneigh": 3314,
      "iezo": 3315,
      "Ġfronti": 3316,
      "Ġdynamic": 3317,
      "Ġimpl": 3318,
      "Ġimpro": 3319,
      "rolled": 3320,
      "Ġdisco": 3321,
      "Ġdissip": 3322,
      "astatistics": 3323,
      "Ġnoisy": 3324,
      "integ": 3325,
      "Ġoperation": 3326,
      "Ġaccessible": 3327,
      "Ġovercome": 3328,
      "20971": 3329,
      "Ġappear": 3330,
      "Ġpresents": 3331,
      "trit": 3332,
      "Ġperiod": 3333,
      "ularization": 3334,
      "Ġsimulator": 3335,
      "Ġencode": 3336,
      "acks": 3337,
      "ackets": 3338,
      "\":{\"@": 3339,
      "Ġunderstanding": 3340,
      "ipher": 3341,
      "ipse": 3342,
      "ipulation": 3343,
      "load": 3344,
      "loud": 3345,
      "Ġobserv": 3346,
      "Ġscales": 3347,
      "256": 3348,
      "barchive": 3349,
      "Ġentrop": 3350,
      "ediaView": 3351,
      "Ġtransduc": 3352,
      "Ġrelations": 3353,
      "Ġreliable": 3354,
      "Ġlimitation": 3355,
      "ĠStre": 3356,
      "Ġentire": 3357,
      "Ġemission": 3358,
      "Ġemploy": 3359,
      "Ġemitter": 3360,
      "Ġlocally": 3361,
      "Ġlocalization": 3362,
      "Ġcompletely": 3363,
      "rown": 3364,
      "Ġhighly": 3365,
      "Ġcontrolled": 3366,
      "center": 3367,
      "eady": 3368,
      "processing": 3369,
      "ĠKy": 3370,
      "Ġsolution": 3371,
      "Ġelectromagnetic": 3372,
      "Ġexactly": 3373,
      "Ġimplementing": 3374,
      "Ġimplemented": 3375,
      "Ġabbr": 3376,
      "Ġplaces": 3377,
      "Ġextra": 3378,
      "Ġgeneralizes": 3379,
      "collap": 3380,
      "Ġmanipulation": 3381,
      "Ġrealize": 3382,
      "Ġstrings": 3383,
      "Ġexpres": 3384,
      "Ġexpectation": 3385,
      "ĠExcit": 3386,
      "}$.": 3387,
      "ĠVlas": 3388,
      "energy": 3389,
      "Ġsubst": 3390,
      "Ġsubspace": 3391,
      "ĠUnder": 3392,
      "ĠUncon": 3393,
      "jectory": 3394,
      "vices": 3395,
      "wikipedia": 3396,
      "wikibase": 3397,
      "oneable": 3398,
      "Ġmatrix": 3399,
      "Ġcompact": 3400,
      "Ġunitaries": 3401,
      "Ġrequirement": 3402,
      "bler": 3403,
      "dinger": 3404,
      "limitreport": 3405,
      "Ġenergies": 3406,
      "Ġapplications": 3407,
      "Ġdistributions": 3408,
      "ause": 3409,
      "ausal": 3410,
      "Ġquantization": 3411,
      "Ġvarious": 3412,
      "Ġvariables": 3413,
      "clusion": 3414,
      "Ġnumbers": 3415,
      "llipse": 3416,
      "Ġcenters": 3417,
      "Ġmitig": 3418,
      "ĠCounter": 3419,
      "Ġexciton": 3420,
      "Ġdiffusive": 3421,
      "Ġpresented": 3422,
      "Ġtechnolog": 3423,
      "Ġfrequ": 3424,
      "Ġfrequency": 3425,
      "Ġconfir": 3426,
      "ĠCarleman": 3427,
      "ĠPredic": 3428,
      "ĠInteraction": 3429,
      "ĠInteracting": 3430,
      "values": 3431,
      "mathbf": 3432,
      "background": 3433,
      "Ġiniti": 3434,
      "Ġwavegu": 3435,
      "Ġreduction": 3436,
      "ĠWikidata": 3437,
      "ĠControl": 3438,
      "Ġexperimental": 3439,
      "Ġexperimentally": 3440,
      "Ġspatially": 3441,
      "Ġdevice": 3442,
      "psilon": 3443,
      "Ġ\"}.": 3444,
      "Ġschemes": 3445,
      "Ġclosed": 3446,
      "Ġcluster": 3447,
      "Ġefficiently": 3448,
      "ĠAdaptive": 3449,
      "ĠArago": 3450,
      "Ġcharacteristic": 3451,
      "Ġdefined": 3452,
      "ifications": 3453,
      "Ġextended": 3454,
      "header": 3455,
      "Ġtheoretical": 3456,
      "Ġdriven": 3457,
      "Ġreflection": 3458,
      "Ġcondition": 3459,
      "Ġconditions": 3460,
      "Ġstrongly": 3461,
      "1296": 3462,
      "mitter": 3463,
      "tized": 3464,
      "Ġdimensions": 3465,
      "Ġinfinite": 3466,
      "Ġinclude": 3467,
      "Ġways": 3468,
      "ĠSimulation": 3469,
      "Ġvalue": 3470,
      "Ġintegrated": 3471,
      "Ġleads": 3472,
      "Ġradiative": 3473,
      "Ġencodings": 3474,
      "Ġestimates": 3475,
      "Ġtrajectory": 3476,
      "Ġtemperatures": 3477,
      "turb": 3478,
      "ĠmeV": 3479,
      "Ġbipartite": 3480,
      "Ġexploited": 3481,
      "Ġexploiting": 3482,
      "ĠRecent": 3483,
      "Ġinterface": 3484,
      "Ġinterfaces": 3485,
      "wgConf": 3486,
      "Ġmaximally": 3487,
      "Ġtransforms": 3488,
      "mediawiki": 3489,
      "Ġsqueezing": 3490,
      "Ġcycl": 3491,
      "Ġcertification": 3492,
      "Ġmessage": 3493,
      "Ġbecome": 3494,
      "Ġbecause": 3495,
      "Ġretains": 3496,
      "Ġlaborator": 3497,
      "Ġprogress": 3498,
      "Ġprogramm": 3499,
      "Ġstep": 3500,
      "Ġsteering": 3501,
      "ĠDiagonal": 3502,
      "wgRele": 3503,
      "Ġarchitectures": 3504,
      "Ġsequence": 3505,
      "Ġseparated": 3506,
      "Ġaccurate": 3507,
      "Ġaccuracy": 3508,
      "Ġtechnique": 3509,
      "\":[\"\",\"": 3510,
      "Ġincreasingly": 3511,
      "Ġprinciple": 3512,
      "Ġfocusing": 3513,
      "merican": 3514,
      "riterion": 3515,
      "Ġjointly": 3516,
      "Ġsurface": 3517,
      "Ġcandidate": 3518,
      "Ġcandidates": 3519,
      "Ġfactor": 3520,
      "Ġinstead": 3521,
      "Ġinversion": 3522,
      "Ġevents": 3523,
      "Ġlogic": 3524,
      "Ġgradients": 3525,
      "ĠCircuit": 3526,
      "ĠCircuits": 3527,
      "agnet": 3528,
      "Ġcomparison": 3529,
      "Ġcontaining": 3530,
      "Ġresonators": 3531,
      "Ġcorrespondence": 3532,
      "Ġprimiti": 3533,
      "Ġconsider": 3534,
      "Ġconstraint": 3535,
      "Ġconstraints": 3536,
      "Ġrapidly": 3537,
      "Ġrestricted": 3538,
      "16873": 3539,
      "QCB": 3540,
      "Short": 3541,
      "circuit": 3542,
      "oxel": 3543,
      "Ġtrainability": 3544,
      "Ġsensitivity": 3545,
      "Ġfeatures": 3546,
      "Ġdomain": 3547,
      "Ġmeasur": 3548,
      "Ġreveal": 3549,
      "Ġlaws": 3550,
      "Ġproducing": 3551,
      "Ġcondensation": 3552,
      "aggered": 3553,
      "Ġhistor": 3554,
      "ĠQROM": 3555,
      "ĠMolecular": 3556,
      "Ġdetuning": 3557,
      "Ġattacks": 3558,
      "theoretic": 3559,
      "Ġintrinsic": 3560,
      "Ġinterferometry": 3561,
      "wgMediaView": 3562,
      "Ġuncertain": 3563,
      "ĠGeometric": 3564,
      "Ġimportant": 3565,
      "centralaut": 3566,
      "Ġexponentially": 3567,
      "Ġpolarization": 3568,
      "ĠAnalysis": 3569,
      "Ġtruncated": 3570,
      "Ġcarried": 3571,
      "Ġeigenvalues": 3572,
      "Enabled": 3573,
      "reversibility": 3574,
      "Ġpricing": 3575,
      "Ġretrieval": 3576,
      "Ġreconstruction": 3577,
      "Ġlocations": 3578,
      "Ġgenuine": 3579,
      "ĠTrotter": 3580,
      "ĠTransport": 3581,
      "ĠWithin": 3582,
      "ĠCasimir": 3583,
      "ĠStrong": 3584,
      "ĠApplications": 3585,
      "ĠMatrix": 3586,
      "Ġcoordinates": 3587,
      "Ġuncloneable": 3588,
      "ĠOperators": 3589,
      "Ġsimplified": 3590,
      "Ġpreserves": 3591,
      "Ġprescribed": 3592,
      "Ġkinetic": 3593,
      "Ġobjects": 3594,
      "ĠKeyl": 3595,
      "Ġformalism": 3596,
      "operatorname": 3597,
      "ĠApproach": 3598,
      "Ġsimultaneously": 3599,
      "Mandel": 3600,
      "Notice": 3601,
      "Preskill": 3602,
      "Poisson": 3603,
      "Token": 3604,
      "Version": 3605,
      "consistent": 3606,
      "document": 3607,
      "eynman": 3608,
      "tegrated": 3609,
      "temperature": 3610,
      "varepsilon": 3611,
      "inherit": 3612,
      "inspired": 3613,
      "Ġtreat": 3614,
      "enormalization": 3615,
      "orizon": 3616,
      "Ġsingular": 3617,
      "Ġsandwich": 3618,
      "Ġpersist": 3619,
      "Ġpulses": 3620,
      "Ġpenalty": 3621,
      "Ġfeasible": 3622,
      "Ġmacroscopic": 3623,
      "Ġreturns": 3624,
      "Ġladder": 3625,
      "ĠTopological": 3626,
      "Ġstabilization": 3627,
      "ĠWigner": 3628,
      "ategories": 3629,
      "ĠCNOT": 3630,
      "ĠSchrÃ¶dinger": 3631,
      "ĠMajorana": 3632,
      "ĠHayden": 3633,
      "ĠFoundation": 3634,
      "Ġalphab": 3635,
      "Ġdephasing": 3636,
      "\":\"+\\\\": 3637,
      "ĠLorentz": 3638,
      "ĠBuilding": 3639,
      "Ġinterpret": 3640,
      "Ġintermediate": 3641,
      "extended": 3642,
      "Ġscrambler": 3643,
      "Ġfrontier": 3644,
      "2097152": 3645,
      "Ġentropy": 3646,
      "collapse": 3647,
      "ĠVlasov": 3648,
      "Ġtechnologies": 3649,
      "1296224840": 3650,
      "wgConfirmEdit": 3651,
      "Ġlaboratory": 3652,
      "wgRelevant": 3653,
      "Ġprimitives": 3654,
      "16873256": 3655,
      "wgMediaViewer": 3656,
      "Ġuncertainty": 3657,
      "\";": 3658,
      "\"]": 3659,
      "'$": 3660,
      "'+": 3661,
      "($": 3662,
      "('": 3663,
      "(/": 3664,
      "({\"": 3665,
      "(--": 3666,
      ")!": 3667,
      "))": 3668,
      ")/": 3669,
      "):": 3670,
      ")=": 3671,
      "-$": 3672,
      ".},": 3673,
      "//": 3674,
      "14": 3675,
      "19": 3676,
      "21": 3677,
      "29": 3678,
      "30": 3679,
      "31": 3680,
      "39": 3681,
      "324": 3682,
      "56": 3683,
      "76": 3684,
      "89": 3685,
      "92": 3686,
      ":#": 3687,
      "://": 3688,
      "=\\": 3689,
      "={\"": 3690,
      "?.": 3691,
      "AG": 3692,
      "AN": 3693,
      "AR": 3694,
      "AT": 3695,
      "Ap": 3696,
      "Aware": 3697,
      "All": 3698,
      "Ass": 3699,
      "Bi": 3700,
      "Bin": 3701,
      "Based": 3702,
      "Back": 3703,
      "BQC": 3704,
      "BAR": 3705,
      "CC": 3706,
      "CD": 3707,
      "CU": 3708,
      "Ch": 3709,
      "Css": 3710,
      "DF": 3711,
      "Dis": 3712,
      "Dimensional": 3713,
      "Def": 3714,
      "Dirac": 3715,
      "DCU": 3716,
      "EN": 3717,
      "EP": 3718,
      "ES": 3719,
      "Em": 3720,
      "Ex": 3721,
      "Efficient": 3722,
      "FI": 3723,
      "FT": 3724,
      "FW": 3725,
      "Fl": 3726,
      "For": 3727,
      "Fock": 3728,
      "Fresnel": 3729,
      "Go": 3730,
      "Head": 3731,
      "HOM": 3732,
      "Hints": 3733,
      "Ising": 3734,
      "IQP": 3735,
      "ILP": 3736,
      "KAN": 3737,
      "LM": 3738,
      "Low": 3739,
      "LDPC": 3740,
      "Mod": 3741,
      "Mad": 3742,
      "May": 3743,
      "PF": 3744,
      "PS": 3745,
      "Pauli": 3746,
      "Publ": 3747,
      "QD": 3748,
      "QE": 3749,
      "QS": 3750,
      "QNS": 3751,
      "RG": 3752,
      "Re": 3753,
      "Res": 3754,
      "Rev": 3755,
      "SH": 3756,
      "St": 3757,
      "Su": 3758,
      "SWAP": 3759,
      "Select": 3760,
      "STO": 3761,
      "Table": 3762,
      "Tolerant": 3763,
      "Target": 3764,
      "Use": 3765,
      "WA": 3766,
      "WM": 3767,
      "Werner": 3768,
      "ZMs": 3769,
      "[\"": 3770,
      "\\}}$": 3771,
      "]+": 3772,
      "]).": 3773,
      "^|": 3774,
      "_{": 3775,
      "apar": 3776,
      "ares": 3777,
      "aos": 3778,
      "aug": 3779,
      "aals": 3780,
      "aev": 3781,
      "atically": 3782,
      "aIn": 3783,
      "ban": 3784,
      "bol": 3785,
      "bly": 3786,
      "bout": 3787,
      "base": 3788,
      "breaking": 3789,
      "bably": 3790,
      "cc": 3791,
      "cx": 3792,
      "cat": 3793,
      "cas": 3794,
      "city": 3795,
      "cri": 3796,
      "cia": 3797,
      "case": 3798,
      "cast": 3799,
      "cision": 3800,
      "cÏĢ": 3801,
      "crossing": 3802,
      "dec": 3803,
      "dem": 3804,
      "drom": 3805,
      "dates": 3806,
      "dies": 3807,
      "dop": 3808,
      "eak": 3809,
      "eiling": 3810,
      "fc": 3811,
      "fies": 3812,
      "fore": 3813,
      "fidelity": 3814,
      "ga": 3815,
      "gl": 3816,
      "gin": 3817,
      "gent": 3818,
      "gadg": 3819,
      "global": 3820,
      "grown": 3821,
      "hing": 3822,
      "hom": 3823,
      "hap": 3824,
      "hidden": 3825,
      "harm": 3826,
      "io": 3827,
      "ior": 3828,
      "iad": 3829,
      "itial": 3830,
      "iability": 3831,
      "iomet": 3832,
      "iving": 3833,
      "ixing": 3834,
      "iPS": 3835,
      "ja": 3836,
      "js": 3837,
      "jec": 3838,
      "ken": 3839,
      "ked": 3840,
      "kov": 3841,
      "ktop": 3842,
      "ling": 3843,
      "lack": 3844,
      "lick": 3845,
      "mom": 3846,
      "mion": 3847,
      "matter": 3848,
      "menu": 3849,
      "marting": 3850,
      "momentum": 3851,
      "nul": 3852,
      "nate": 3853,
      "native": 3854,
      "network": 3855,
      "noise": 3856,
      "number": 3857,
      "oic": 3858,
      "oir": 3859,
      "ores": 3860,
      "oich": 3861,
      "ped": 3862,
      "pir": 3863,
      "pag": 3864,
      "pus": 3865,
      "pact": 3866,
      "pite": 3867,
      "path": 3868,
      "post": 3869,
      "panc": 3870,
      "ptual": 3871,
      "ponse": 3872,
      "ren": 3873,
      "ration": 3874,
      "ras": 3875,
      "rag": 3876,
      "rite": 3877,
      "rast": 3878,
      "raction": 3879,
      "rised": 3880,
      "rreversibility": 3881,
      "sim": 3882,
      "sure": 3883,
      "site": 3884,
      "side": 3885,
      "sue": 3886,
      "source": 3887,
      "schem": 3888,
      "system": 3889,
      "tag": 3890,
      "toc": 3891,
      "tage": 3892,
      "trivial": 3893,
      "uple": 3894,
      "uary": 3895,
      "uores": 3896,
      "vo": 3897,
      "vated": 3898,
      "vable": 3899,
      "vistic": 3900,
      "visualEditor": 3901,
      "wit": 3902,
      "wap": 3903,
      "wind": 3904,
      "word": 3905,
      "watch": 3906,
      "ying": 3907,
      "ycle": 3908,
      "zing": 3909,
      "zuk": 3910,
      "{|": 3911,
      "||[": 3912,
      "}@": 3913,
      "}]": 3914,
      "}{": 3915,
      "Î©": 3916,
      "Î±": 3917,
      "ÎĶ": 3918,
      "ÎĽ": 3919,
      "ÏĦ": 3920,
      "ÏĨ": 3921,
      "Ġ5": 3922,
      "Ġ:": 3923,
      "ĠX": 3924,
      "ĠY": 3925,
      "Ġif": 3926,
      "Ġ25": 3927,
      "Ġrain": 3928,
      "Ġ70": 3929,
      "Ġzero": 3930,
      "ĠÏĦ": 3931,
      "Ģĵ": 3932,
      "inem": 3933,
      "inant": 3934,
      "inning": 3935,
      "inally": 3936,
      "invariant": 3937,
      "inforc": 3938,
      "onate": 3939,
      "onant": 3940,
      "onics": 3941,
      "onents": 3942,
      "onators": 3943,
      "erial": 3944,
      "ane": 3945,
      "ans": 3946,
      "antial": 3947,
      "anonical": 3948,
      "Ġtun": 3949,
      "Ġtack": 3950,
      "Ġtrad": 3951,
      "Ġtemplate": 3952,
      "Ġtele": 3953,
      "Ġtrivial": 3954,
      "tifer": 3955,
      "tible": 3956,
      "tively": 3957,
      "tivated": 3958,
      "ene": 3959,
      "rec": 3960,
      "repl": 3961,
      "reduc": 3962,
      "ality": 3963,
      "alous": 3964,
      "alks": 3965,
      "algebra": 3966,
      "oring": 3967,
      "oration": 3968,
      "orous": 3969,
      "orthogonal": 3970,
      "Ġthus": 3971,
      "Ġthous": 3972,
      "Ġthose": 3973,
      "Ġthesis": 3974,
      "Ġthresh": 3975,
      "Ġsat": 3976,
      "Ġspl": 3977,
      "Ġskin": 3978,
      "Ġsatis": 3979,
      "Ġsince": 3980,
      "Ġsilicon": 3981,
      "Ġsites": 3982,
      "Ġax": 3983,
      "Ġaut": 3984,
      "Ġaff": 3985,
      "Ġabo": 3986,
      "Ġcat": 3987,
      "Ġcases": 3988,
      "Ġcrossing": 3989,
      "Ġcreating": 3990,
      "Ġcalled": 3991,
      "Ġcausal": 3992,
      "Ġcriterion": 3993,
      "ato": 3994,
      "atz": 3995,
      "atency": 3996,
      "isation": 3997,
      "isol": 3998,
      "isible": 3999,
      "ars": 4000,
      "art": 4001,
      "artic": 4002,
      "arse": 4003,
      "arithm": 4004,
      "architec": 4005,
      "arrang": 4006,
      "arcia": 4007,
      "arren": 4008,
      "edi": 4009,
      "Ġpop": 4010,
      "Ġpip": 4011,
      "Ġposed": 4012,
      "Ġprivacy": 4013,
      "Ġprior": 4014,
      "Ġpiezo": 4015,
      "Ġpeak": 4016,
      "rog": 4017,
      "roken": 4018,
      "icy": 4019,
      "icates": 4020,
      "iclassical": 4021,
      "Ġfar": 4022,
      "Ġfine": 4023,
      "Ġfavor": 4024,
      "leven": 4025,
      "levant": 4026,
      "Ġdic": 4027,
      "Ġdel": 4028,
      "Ġdig": 4029,
      "Ġdates": 4030,
      "Ġdatab": 4031,
      "qual": 4032,
      "query": 4033,
      "qutrit": 4034,
      "Ġindi": 4035,
      "Ġindic": 4036,
      "Ġoff": 4037,
      "tup": 4038,
      "tury": 4039,
      "tudy": 4040,
      "Ġanne": 4041,
      "Ġwire": 4042,
      "Ġwrit": 4043,
      "Ġwalks": 4044,
      "aser": 4045,
      "assive": 4046,
      "Ġmis": 4047,
      "Ġmid": 4048,
      "Ġmdy": 4049,
      "Ġmenu": 4050,
      "Ġmade": 4051,
      "Ġmomentum": 4052,
      "Ġmassive": 4053,
      "uted": 4054,
      "utting": 4055,
      "utsch": 4056,
      "Ġbal": 4057,
      "Ġbas": 4058,
      "Ġbest": 4059,
      "Ġback": 4060,
      "Ġbases": 4061,
      "Ġbreaking": 4062,
      "Ġbarren": 4063,
      "Ġquadratic": 4064,
      "Ġquality": 4065,
      "Ġquartic": 4066,
      "ominally": 4067,
      "omalous": 4068,
      "stac": 4069,
      "stabilizer": 4070,
      "start": 4071,
      "Ġreform": 4072,
      "Ġreach": 4073,
      "Ġreserv": 4074,
      "Ġrearrang": 4075,
      "Ġrelevant": 4076,
      "imel": 4077,
      "image": 4078,
      "Ġel": 4079,
      "Ġever": 4080,
      "Ġeith": 4081,
      "Ġellipse": 4082,
      "acing": 4083,
      "active": 4084,
      "ecess": 4085,
      "ecomp": 4086,
      "amely": 4087,
      "uniform": 4088,
      "unstri": 4089,
      "elf": 4090,
      "eless": 4091,
      "Ġlo": 4092,
      "Ġlos": 4093,
      "Ġlast": 4094,
      "Ġlack": 4095,
      "Ġlangu": 4096,
      "Ġlaser": 4097,
      "emph": 4098,
      "emble": 4099,
      "embedd": 4100,
      "embedded": 4101,
      "ticycle": 4102,
      "Ġnative": 4103,
      "Ġnecess": 4104,
      "Ġnamely": 4105,
      "olver": 4106,
      "olute": 4107,
      "olition": 4108,
      "ilation": 4109,
      "ilayer": 4110,
      "abel": 4111,
      "absor": 4112,
      "Ġgas": 4113,
      "odular": 4114,
      "odynamics": 4115,
      "ĠTw": 4116,
      "ĠTog": 4117,
      "ĠTrain": 4118,
      "ĠTensor": 4119,
      "ĠTDA": 4120,
      "ĠTuring": 4121,
      "vex": 4122,
      "ceptual": 4123,
      "ids": 4124,
      "iden": 4125,
      "idate": 4126,
      "Ġstric": 4127,
      "Ġstability": 4128,
      "Ġstatic": 4129,
      "Ġstatis": 4130,
      "Ġsteady": 4131,
      "Ġstaggered": 4132,
      "vering": 4133,
      "verag": 4134,
      "sivity": 4135,
      "ĠWork": 4136,
      "ĠWaals": 4137,
      "ateaus": 4138,
      "chen": 4139,
      "chron": 4140,
      "term": 4141,
      "terative": 4142,
      "ternative": 4143,
      "Ġcone": 4144,
      "Ġconsequ": 4145,
      "Ġconjec": 4146,
      "Ġconceptual": 4147,
      "irl": 4148,
      "iral": 4149,
      "ĠCl": 4150,
      "ĠCry": 4151,
      "ĠCPU": 4152,
      "ĠCipher": 4153,
      "ĠCloud": 4154,
      "partition": 4155,
      "parastatistics": 4156,
      "Ġonce": 4157,
      "Ġonto": 4158,
      "ĠSec": 4159,
      "ĠSlow": 4160,
      "ĠSources": 4161,
      "ĠSqueez": 4162,
      "ĠSymmetric": 4163,
      "ĠScal": 4164,
      "ĠSYK": 4165,
      "ĠSeries": 4166,
      "ĠSoft": 4167,
      "ĠSince": 4168,
      "ĠSample": 4169,
      "ĠSilicon": 4170,
      "ĠSepar": 4171,
      "ĠSQD": 4172,
      "ĠStudy": 4173,
      "istance": 4174,
      "istrib": 4175,
      "igher": 4176,
      "Ġissue": 4177,
      "urve": 4178,
      "urated": 4179,
      "Ġ$|": 4180,
      "platform": 4181,
      "planar": 4182,
      "Ġhom": 4183,
      "Ġhere": 4184,
      "Ġhost": 4185,
      "Ġheterogeneous": 4186,
      "Ġhelp": 4187,
      "Ġhopping": 4188,
      "Ġhorizon": 4189,
      "Ġhigher": 4190,
      "ĠQUBO": 4191,
      "Ġexotic": 4192,
      "Ġexceed": 4193,
      "Ġexplore": 4194,
      "Ġcompe": 4195,
      "uss": 4196,
      "usage": 4197,
      "ĠAI": 4198,
      "ĠAt": 4199,
      "ĠAction": 4200,
      "ĠAMC": 4201,
      "ĠAmerican": 4202,
      "ĠAbout": 4203,
      "Ġ(\\": 4204,
      "riple": 4205,
      "ĠMul": 4206,
      "ĠMore": 4207,
      "ĠMode": 4208,
      "ĠMagnetic": 4209,
      "ĠMachine": 4210,
      "ĠMixed": 4211,
      "ĠModular": 4212,
      "resonant": 4213,
      "ĠThen": 4214,
      "ĠHerm": 4215,
      "ĠHidden": 4216,
      "ĠQuant": 4217,
      "rap": 4218,
      "otonic": 4219,
      "ĠPA": 4220,
      "ĠPage": 4221,
      "ĠPOV": 4222,
      "unds": 4223,
      "ume": 4224,
      "ump": 4225,
      "umer": 4226,
      "osen": 4227,
      "oses": 4228,
      "ostic": 4229,
      "osable": 4230,
      "Ġwhat": 4231,
      "Ġasks": 4232,
      "Ġasymmet": 4233,
      "Ġassig": 4234,
      "Ġcoinc": 4235,
      "Ġcouple": 4236,
      "Ġcoarse": 4237,
      "Ġcoplanar": 4238,
      "formance": 4239,
      "ffing": 4240,
      "ffective": 4241,
      "ĠIts": 4242,
      "ĠIrreversibility": 4243,
      "ĠIterative": 4244,
      "Ġvan": 4245,
      "Ġvoxel": 4246,
      "ĠRC": 4247,
      "ĠReg": 4248,
      "ĠRev": 4249,
      "ĠRSOI": 4250,
      "ĠRash": 4251,
      "ĠRenormalization": 4252,
      "romagnet": 4253,
      "romodynamics": 4254,
      "ĠFrom": 4255,
      "ĠFree": 4256,
      "ĠFast": 4257,
      "ĠFunction": 4258,
      "ĠFinite": 4259,
      "ĠFurther": 4260,
      "ĠFeynman": 4261,
      "Ġspec": 4262,
      "Ġspont": 4263,
      "essment": 4264,
      "ĠEP": 4265,
      "ĠElect": 4266,
      "ĠEven": 4267,
      "ĠEdit": 4268,
      "ĠEvalu": 4269,
      "ĠEmer": 4270,
      "Ġsupre": 4271,
      "ĠDri": 4272,
      "ĠDick": 4273,
      "ĠDesp": 4274,
      "ĠDQI": 4275,
      "ĠDonate": 4276,
      "Ġalway": 4277,
      "Ġalternative": 4278,
      "Ġchoic": 4279,
      "Ġchiral": 4280,
      "Ġdelegated": 4281,
      "ĠTheory": 4282,
      "Ġatten": 4283,
      "ĠInc": 4284,
      "ĠInAs": 4285,
      "ĠIntegrated": 4286,
      "ĠInitial": 4287,
      "appe": 4288,
      "iance": 4289,
      "ĠLP": 4290,
      "ĠLU": 4291,
      "ĠLie": 4292,
      "ĠLocal": 4293,
      "ĠLip": 4294,
      "ĠLarge": 4295,
      "ĠLattice": 4296,
      "ĠLDPC": 4297,
      "ĠLetter": 4298,
      "ĠLamb": 4299,
      "ored": 4300,
      "ĠBose": 4301,
      "ĠBetween": 4302,
      "ĠBey": 4303,
      "ĠBench": 4304,
      "ĠBroad": 4305,
      "ĠBinary": 4306,
      "ĠBenders": 4307,
      "Ġintense": 4308,
      "Ġnonclassical": 4309,
      "Ġnonequilibrium": 4310,
      "Ġnonzero": 4311,
      "Ġnontrivial": 4312,
      "ifying": 4313,
      "optical": 4314,
      "opup": 4315,
      "options": 4316,
      "Ġgeneric": 4317,
      "Ġgenerated": 4318,
      "wgP": 4319,
      "wgUser": 4320,
      "wgWM": 4321,
      "Ġoppos": 4322,
      "Ġunits": 4323,
      "Ġmodal": 4324,
      "Ġmodule": 4325,
      "Ġcontents": 4326,
      "Ġsharp": 4327,
      "Ġshared": 4328,
      "actability": 4329,
      "ĠNative": 4330,
      "ĠNear": 4331,
      "ĠNarrow": 4332,
      "ĠNEGF": 4333,
      "ĠNISQ": 4334,
      "ĠNiPS": 4335,
      "Ġreshap": 4336,
      "Ġdirection": 4337,
      "Ġbeh": 4338,
      "selection": 4339,
      "search": 4340,
      "ĠOr": 4341,
      "ĠOver": 4342,
      "ĠOja": 4343,
      "avis": 4344,
      "Ġparticles": 4345,
      "Ġpartition": 4346,
      "bouring": 4347,
      "Ġscen": 4348,
      "Ġcannot": 4349,
      "Ġsimplic": 4350,
      "Ġarrow": 4351,
      "uply": 4352,
      "ĠGroup": 4353,
      "Ġleverage": 4354,
      "Ġfile": 4355,
      "lector": 4356,
      "oustic": 4357,
      "spacing": 4358,
      "allback": 4359,
      "ffice": 4360,
      "Ġ15": 4361,
      "Ġ17": 4362,
      "Ġ19": 4363,
      "Ġrow": 4364,
      "Ġrole": 4365,
      "Ġroot": 4366,
      "Ġrounds": 4367,
      "Ġstudi": 4368,
      "Ġstudies": 4369,
      "Ġpreclu": 4370,
      "Ġprevent": 4371,
      "estro": 4372,
      "estKit": 4373,
      "Ġdecre": 4374,
      "Ġdecoding": 4375,
      "Ġdeconstruction": 4376,
      "Ġdecoder": 4377,
      "0000": 4378,
      "coupling": 4379,
      "Ġneutral": 4380,
      "Ġfraction": 4381,
      "Ġfrust": 4382,
      "ĠUse": 4383,
      "ĠUplo": 4384,
      "Ġimpact": 4385,
      "ersonal": 4386,
      "Ġdisjoint": 4387,
      "Ġerasures": 4388,
      "Ġseed": 4389,
      "Ġselection": 4390,
      "Ġsetup": 4391,
      "Ġaccount": 4392,
      "Ġacceler": 4393,
      "Ġacoustic": 4394,
      "devic": 4395,
      "degree": 4396,
      "depth": 4397,
      "Ġrates": 4398,
      "Ġrule": 4399,
      "Ġrenders": 4400,
      "Ġoverall": 4401,
      "Ġoverlap": 4402,
      "Ġshows": 4403,
      "Ġshowing": 4404,
      "2025": 4405,
      "Ġundermin": 4406,
      "Ġapplying": 4407,
      "Ġpressure": 4408,
      "trunc": 4409,
      "Ġsinglet": 4410,
      "Ġperturb": 4411,
      "Ġencodes": 4412,
      "arios": 4413,
      "Ġposition": 4414,
      "Ġpoints": 4415,
      ")$-": 4416,
      "ards": 4417,
      "Ġprint": 4418,
      "tific": 4419,
      "Ġobser": 4420,
      "Ġobey": 4421,
      "Ġobstac": 4422,
      "Ġdetected": 4423,
      "Ġbounded": 4424,
      "Ġatomic": 4425,
      "diabatic": 4426,
      "Ġiter": 4427,
      "Ġtransvers": 4428,
      "brackets": 4429,
      "Ġregions": 4430,
      "Ġregimes": 4431,
      "Ġrela": 4432,
      "Ġrelated": 4433,
      "Ġrelative": 4434,
      "Ġrelati": 4435,
      "Ġlimitations": 4436,
      "ĠStates": 4437,
      "ĠStruc": 4438,
      "atio": 4439,
      "atibility": 4440,
      "scill": 4441,
      "science": 4442,
      "Ġenables": 4443,
      "Ġengine": 4444,
      "Ġemulation": 4445,
      "Ġempir": 4446,
      "Ġlocalized": 4447,
      "polar": 4448,
      "Ġdespite": 4449,
      "empt": 4450,
      "Ġcontrols": 4451,
      "prof": 4452,
      "proved": 4453,
      "product": 4454,
      "propag": 4455,
      "ĠKoch": 4456,
      "Ġsolve": 4457,
      "Ġfunctional": 4458,
      "Ġelectro": 4459,
      "Ġelectrons": 4460,
      "Ġelectronic": 4461,
      "earance": 4462,
      "Ġplateaus": 4463,
      "Ġextensive": 4464,
      "ĠHamiltonians": 4465,
      "conn": 4466,
      "colation": 4467,
      "Ġprocesses": 4468,
      "Ġprocessors": 4469,
      "Ġexpected": 4470,
      "Ġcommut": 4471,
      "ĠExp": 4472,
      "ĠExplicit": 4473,
      "ĠExclusion": 4474,
      "Ġoptically": 4475,
      "ĠView": 4476,
      "Ġinvestigation": 4477,
      "Ġremained": 4478,
      "Ġsubcircu": 4479,
      "navigation": 4480,
      "radiance": 4481,
      "Ġyou": 4482,
      "Ġderived": 4483,
      "Ġderiving": 4484,
      "Ġstructural": 4485,
      "Ġvectors": 4486,
      "Ġorders": 4487,
      "Ġparametrised": 4488,
      "Ġestablishing": 4489,
      "controlled": 4490,
      "dissip": 4491,
      "hods": 4492,
      "wikim": 4493,
      "wikidata": 4494,
      "wikimedia": 4495,
      "Ġmatches": 4496,
      "Ġmaterial": 4497,
      "Ġforming": 4498,
      "Ġformulation": 4499,
      "Ġformulate": 4500,
      "Ġcompens": 4501,
      "Ġcomposed": 4502,
      "Ġcomponents": 4503,
      "Ġassem": 4504,
      "Ġassessment": 4505,
      "Ġsuperradiance": 4506,
      "Ġlearn": 4507,
      "block": 4508,
      "limited": 4509,
      "Ġ24": 4510,
      "Ġrank": 4511,
      "Ġrange": 4512,
      "Ġapplied": 4513,
      "Ġflavor": 4514,
      "Ġfluores": 4515,
      "ecker": 4516,
      "Ġnetworking": 4517,
      "ĠSpace": 4518,
      "Ġcolor": 4519,
      "Ġquanti": 4520,
      "Ġquantit": 4521,
      "ĠCombin": 4522,
      "ĠComplex": 4523,
      "Ġvariant": 4524,
      "Ġsymmetries": 4525,
      "Ġadvantages": 4526,
      "textbf": 4527,
      "Ġpoly": 4528,
      "Ġpolynomial": 4529,
      "Ġmixing": 4530,
      "periments": 4531,
      "Ġexcitations": 4532,
      "Ġdevelopment": 4533,
      "Ġtechnical": 4534,
      "Ġtechnological": 4535,
      "Editable": 4536,
      "rames": 4537,
      "inuum": 4538,
      "Ġcapable": 4539,
      "Ġcapture": 4540,
      "Ġcaptured": 4541,
      "Ġmicro": 4542,
      "Ġconfidence": 4543,
      "Ġconfinement": 4544,
      "ĠCarr": 4545,
      "ĠPrecise": 4546,
      "ĠProduct": 4547,
      "ĠPropos": 4548,
      "Ġdegrade": 4549,
      "Ġdemonstrated": 4550,
      "marking": 4551,
      "Ġtrace": 4552,
      "Ġtractability": 4553,
      "Ġclasses": 4554,
      "Ġoffered": 4555,
      "Ġwavefunction": 4556,
      "Ġmapping": 4557,
      "Ġmultiqubit": 4558,
      "Ġmultilevel": 4559,
      "Ġreduces": 4560,
      "Ġreducing": 4561,
      "Ġpromises": 4562,
      "ĠWikimedia": 4563,
      "ĠContact": 4564,
      "ĠContents": 4565,
      "ĠContextuality": 4566,
      "Ġexperiment": 4567,
      "resses": 4568,
      "ressed": 4569,
      "Ġcosts": 4570,
      "Ġcostly": 4571,
      "Ġanalytical": 4572,
      "Ġrandomness": 4573,
      "114": 4574,
      "PageName": 4575,
      "PageIs": 4576,
      "event": 4577,
      "overflow": 4578,
      "}}@": 4579,
      "Ġsemi": 4580,
      "Ġsemidefinite": 4581,
      "Ġsemiclassical": 4582,
      "Ġclose": 4583,
      "Ġclock": 4584,
      "Ġincrease": 4585,
      "Ġincreases": 4586,
      "Ġminimal": 4587,
      "ĠConsequ": 4588,
      "ĠAdaIn": 4589,
      "ĠArticles": 4590,
      "ĠArrays": 4591,
      "ĠMoore": 4592,
      "Ġcharacterization": 4593,
      "Ġcharacterize": 4594,
      "Ġdefine": 4595,
      "Ġdiscuss": 4596,
      "Ġextends": 4597,
      "Ġidentifies": 4598,
      "Ġachieves": 4599,
      "Ġachieving": 4600,
      "Ġachieved": 4601,
      "ĠZX": 4602,
      "Ġtheorems": 4603,
      "Ġfamilies": 4604,
      "Ġquestions": 4605,
      "Ġreflecting": 4606,
      "Ġdecoupling": 4607,
      "Ġmakes": 4608,
      "Ġapproximately": 4609,
      "Ġstronger": 4610,
      "Articles": 4611,
      "InP": 4612,
      "desktop": 4613,
      "Ġvertices": 4614,
      "Ġcrypt": 4615,
      "Ġwayback": 4616,
      "Ġboson": 4617,
      "Ġbosons": 4618,
      "Ġbroadband": 4619,
      "amples": 4620,
      "Ġgroups": 4621,
      "ĠTools": 4622,
      "Ġconnected": 4623,
      "ĠChannel": 4624,
      "ĠChromodynamics": 4625,
      "ĠSimulating": 4626,
      "Ġcombined": 4627,
      "Ġcombinatorial": 4628,
      "ĠMultiple": 4629,
      "ĠBob": 4630,
      "Ġintegral": 4631,
      "Ġrotations": 4632,
      "Ġsevere": 4633,
      "Ġrepresentations": 4634,
      "operation": 4635,
      "Ġtraffic": 4636,
      "Ġsumm": 4637,
      "Ġsums": 4638,
      "Ġpossible": 4639,
      "Ġpossibility": 4640,
      "Ġmotion": 4641,
      "Ġmayors": 4642,
      "Ġbipartition": 4643,
      "rieved": 4644,
      "ĠPhoton": 4645,
      "ĠReal": 4646,
      "ĠReferences": 4647,
      "ĠResource": 4648,
      "ĠResponse": 4649,
      "ĠResonators": 4650,
      "ĠReconstruction": 4651,
      "ĠErasure": 4652,
      "ĠErasures": 4653,
      "wgCanonical": 4654,
      "ĠGenerating": 4655,
      "ĠGeneralized": 4656,
      "Ġmaximal": 4657,
      "Ġmaximum": 4658,
      "2026": 4659,
      "Ġobtained": 4660,
      "Ġtransformations": 4661,
      "Ġconsists": 4662,
      "Ġconsistency": 4663,
      "Ġdiscriminated": 4664,
      "Ġidentifying": 4665,
      "LanguageSelect": 4666,
      "SQD": 4667,
      "SQL": 4668,
      "full": 4669,
      "Ġtasks": 4670,
      "atching": 4671,
      "Ġpowerful": 4672,
      "Ġretaining": 4673,
      "Ġevaluation": 4674,
      "Ġevaluated": 4675,
      "Ġstoring": 4676,
      "channel": 4677,
      "igurable": 4678,
      "ĠAlgorithm": 4679,
      "ĠAlgebra": 4680,
      "ĠAlthough": 4681,
      "ĠParallel": 4682,
      "ĠDevices": 4683,
      "ĠDeutsch": 4684,
      "Ġsynthesis": 4685,
      "Ġsyndrom": 4686,
      "Ġsynchron": 4687,
      "wgRestric": 4688,
      "Ġpredict": 4689,
      "Ġpredicting": 4690,
      "Ġseparable": 4691,
      "Ġdistinction": 4692,
      "Ġdeterminant": 4693,
      "Ġdeterministic": 4694,
      "Ġplatforms": 4695,
      "Ġphotonics": 4696,
      "Ġsubset": 4697,
      "Ġcrystals": 4698,
      "ĠRandomized": 4699,
      "Ġsignificantly": 4700,
      "_{\\{": 4701,
      "frequency": 4702,
      "http": 4703,
      "ivative": 4704,
      "pageLanguage": 4705,
      "textit": 4706,
      "});});": 4707,
      "Î´c": 4708,
      "Ġthereby": 4709,
      "Ġtherefore": 4710,
      "itudes": 4711,
      "isionId": 4712,
      "Ġfactors": 4713,
      "Ġdimensionality": 4714,
      "Ġinvertible": 4715,
      "Ġbitstr": 4716,
      "Ġevidence": 4717,
      "Ġlogarithm": 4718,
      "agnostic": 4719,
      "ĠSuper": 4720,
      "ĠAppearance": 4721,
      "ĠMetric": 4722,
      "ĠMethods": 4723,
      "ĠRetrieval": 4724,
      "ĠRetrieved": 4725,
      "ĠBounds": 4726,
      "wgPageCont": 4727,
      "Ġuniversality": 4728,
      "Ġcontains": 4729,
      "Ġresolve": 4730,
      "Ġresolving": 4731,
      "Ġoracles": 4732,
      "Ġ1820": 4733,
      "Ġ1818": 4734,
      "Ġcorresponds": 4735,
      "Ġpropagates": 4736,
      "Ġdescribe": 4737,
      "Ġdescribed": 4738,
      "Ġconsidered": 4739,
      "Ġthermodynamics": 4740,
      "ArticleId": 4741,
      "ArticleTarget": 4742,
      "Ġsupports": 4743,
      "ĠDeterministic": 4744,
      "ĠEncodings": 4745,
      "Ġpotentials": 4746,
      "Order": 4747,
      "Organ": 4748,
      "Project": 4749,
      "Probably": 4750,
      "electron": 4751,
      "frac": 4752,
      "frame": 4753,
      "itian": 4754,
      "Ġedit": 4755,
      "interlanguage": 4756,
      "aligned": 4757,
      "espace": 4758,
      "Ġpurification": 4759,
      "Ġdominant": 4760,
      "Ġindex": 4761,
      "Ġindecomp": 4762,
      "Ġinvolves": 4763,
      "Ġinvolving": 4764,
      "Ġmonotonic": 4765,
      "Ġmeasures": 4766,
      "Ġrevealing": 4767,
      "Ġlife": 4768,
      "Ġprojector": 4769,
      "Ġprojects": 4770,
      "Ġprojected": 4771,
      "Ġgoal": 4772,
      "Ġgood": 4773,
      "Ġgovern": 4774,
      "Ġgoverning": 4775,
      "Ġcondensed": 4776,
      "agged": 4777,
      "Ġhistory": 4778,
      "ĠQRAM": 4779,
      "ĠAccess": 4780,
      "ĠAcceler": 4781,
      "ĠAtoms": 4782,
      "ĠAtomic": 4783,
      "ĠMayors": 4784,
      "ĠMeasurements": 4785,
      "ĠMolecules": 4786,
      "Ġweakly": 4787,
      "Ġcouplings": 4788,
      "Ġalgebraic": 4789,
      "Ġdetuned": 4790,
      "theoretically": 4791,
      "Ġintrinsically": 4792,
      "Ġinterferometers": 4793,
      "Ġdiagonalizing": 4794,
      "Ġparallelism": 4795,
      "Ġparticularly": 4796,
      "ĠGeometry": 4797,
      "Ġstubs": 4798,
      "Ġimportance": 4799,
      "Ġdistinguishing": 4800,
      "Ġdistinguishability": 4801,
      "Ġdetectors": 4802,
      "centralNotice": 4803,
      "Ġcommonly": 4804,
      "Ġyielding": 4805,
      "Ġmagnons": 4806,
      "Ġmagnitude": 4807,
      "Ġcollision": 4808,
      "Ġcollisions": 4809,
      "Ġquantifier": 4810,
      "2484089": 4811,
      "Ġamplitude": 4812,
      "Ġamplitudes": 4813,
      "Ġtruncation": 4814,
      "Ġmechanisms": 4815,
      "ĠLindbladians": 4816,
      "Ġexhibiting": 4817,
      "\"}},\"": 4818,
      ")\"\\": 4819,
      "IPS": 4820,
      "Kitaev": 4821,
      "Qubit": 4822,
      "Query": 4823,
      "Specker": 4824,
      "Wikibase": 4825,
      "component": 4826,
      "compatibility": 4827,
      "height": 4828,
      "ibration": 4829,
      "ĠiSWAP": 4830,
      "Ġirreduc": 4831,
      "Ġslowest": 4832,
      "Ġpassage": 4833,
      "Ġwinding": 4834,
      "Ġwindow": 4835,
      "Ġmuch": 4836,
      "Ġmutual": 4837,
      "Ġbranch": 4838,
      "Ġbranches": 4839,
      "Ġbuilds": 4840,
      "Ġbuildup": 4841,
      "Ġreceiver": 4842,
      "Ġreceivers": 4843,
      "Ġreadout": 4844,
      "Ġrepeated": 4845,
      "Ġrepeaters": 4846,
      "Ġremoved": 4847,
      "Ġlayered": 4848,
      "Ġlargely": 4849,
      "Ġgadget": 4850,
      "Ġgadgets": 4851,
      "ĠCorrection": 4852,
      "ĠCompact": 4853,
      "ĠSystems": 4854,
      "Ġextraction": 4855,
      "Ġ($\\": 4856,
      "ĠMicrowave": 4857,
      "Ġcoefficients": 4858,
      "Ġvoltage": 4859,
      "ĠRelational": 4860,
      "ĠFrame": 4861,
      "Ġallows": 4862,
      "Ġallowed": 4863,
      "ĠLearn": 4864,
      "ĠLearning": 4865,
      "Ġphenomena": 4866,
      "wgULSis": 4867,
      "Ġcontexts": 4868,
      "ĠNeural": 4869,
      "Ġrigid": 4870,
      "Ġrigorous": 4871,
      "Ġobstructions": 4872,
      "Ġobstructing": 4873,
      "Ġemerged": 4874,
      "Ġintroduces": 4875,
      "Ġassumptions": 4876,
      "ĠSpectral": 4877,
      "ĠCommunication": 4878,
      "ĠComputing": 4879,
      "Ġfermionic": 4880,
      "Ġlabels": 4881,
      "Ġsequentially": 4882,
      "Ġutilizing": 4883,
      "Ġasymptotic": 4884,
      "Ġasymptotically": 4885,
      "DMRG": 4886,
      "DOF": 4887,
      "Namespace": 4888,
      "QRAM": 4889,
      "TransformTable": 4890,
      "Webarchive": 4891,
      "YBCO": 4892,
      "century": 4893,
      "eqiad": 4894,
      "mini": 4895,
      "vidual": 4896,
      "yclic": 4897,
      "ĠâĢĵ": 4898,
      "Ġensemble": 4899,
      "Ġultra": 4900,
      "Ġideal": 4901,
      "Ġironed": 4902,
      "Ġtwirl": 4903,
      "enhanced": 4904,
      "Ġsuccess": 4905,
      "Ġsoftware": 4906,
      "Ġcalc": 4907,
      "eshkov": 4908,
      "Ġoccu": 4909,
      "Ġferromagnetic": 4910,
      "Ġfails": 4911,
      "Ġfollowing": 4912,
      "Ġincoming": 4913,
      "Ġansatz": 4914,
      "Ġmultimode": 4915,
      "Ġmarginals": 4916,
      "Ġbelow": 4917,
      "Ġreproduce": 4918,
      "Ġrecurr": 4919,
      "Ġreciprocity": 4920,
      "ĠCreate": 4921,
      "ĠSinglet": 4922,
      "ĠSymFT": 4923,
      "adruply": 4924,
      "Ġholds": 4925,
      "ĠPrint": 4926,
      "ĠPerformance": 4927,
      "Ġcoexistence": 4928,
      "ĠImproved": 4929,
      "ĠFinding": 4930,
      "ĠEuCl": 4931,
      "ĠDuffing": 4932,
      "Ġalignment": 4933,
      "Ġchanges": 4934,
      "Ġcharging": 4935,
      "Ġattractive": 4936,
      "ĠLinear": 4937,
      "ĠLifted": 4938,
      "Ġnonlocality": 4939,
      "wgVisualEditor": 4940,
      "Ġshaping": 4941,
      "ĠObservables": 4942,
      "Ġorganic": 4943,
      "Ġadmits": 4944,
      "Ġparadig": 4945,
      "Ġneighbouring": 4946,
      "Ġimplies": 4947,
      "Ġimprove": 4948,
      "Ġdissipative": 4949,
      "Ġobservables": 4950,
      "Ġtransducers": 4951,
      "ĠStream": 4952,
      "Ġentirely": 4953,
      "Ġemploying": 4954,
      "Ġemitters": 4955,
      "Ġexpressivity": 4956,
      "Ġsubstantial": 4957,
      "ĠUnderstanding": 4958,
      "ĠUnconventional": 4959,
      "Ġmitigate": 4960,
      "ĠCounterdiabatic": 4961,
      "Ġfrequencies": 4962,
      "Ġconfirmed": 4963,
      "ĠPredictive": 4964,
      "Ġinitio": 4965,
      "Ġwaveguide": 4966,
      "Ġcycles": 4967,
      "ĠDiagonalization": 4968,
      "\":[\"\",\"\"],\"": 4969,
      "QCBMs": 4970,
      "Ġmeasurable": 4971,
      "Ġhistorical": 4972,
      "centralauth": 4973,
      "Ġtreatments": 4974,
      "Ġsandwiched": 4975,
      "Ġalphabet": 4976,
      "\":\"+\\\\\",\"": 4977,
      "ĠLorentzian": 4978,
      "Ġinterpretation": 4979,
      "32424": 4980,
      "Biography": 4981,
      "Backend": 4982,
      "CssJs": 4983,
      "Default": 4984,
      "Madan": 4985,
      "Publish": 4986,
      "Suzuk": 4987,
      "aparticles": 4988,
      "auging": 4989,
      "bolic": 4990,
      "casting": 4991,
      "decoration": 4992,
      "demolition": 4993,
      "doped": 4994,
      "gadget": 4995,
      "globalCssJs": 4996,
      "harmonic": 4997,
      "iometric": 4998,
      "moment": 4999,
      "null": 5000,
      "oichiometric": 5001,
      "push": 5002,
      "witch": 5003,
      "wapping": 5004,
      "window": 5005,
      "||[]).": 5006,
      "ÎĶE": 5007,
      "Ġrainbow": 5008,
      "inforcement": 5009,
      "Ġtackle": 5010,
      "replace": 5011,
      "Ġthousands": 5012,
      "Ġthreshold": 5013,
      "Ġsaturated": 5014,
      "Ġsatisfies": 5015,
      "Ġaffect": 5016,
      "isolated": 5017,
      "architecture": 5018,
      "Ġpipeline": 5019,
      "Ġfavorable": 5020,
      "Ġdeliver": 5021,
      "Ġdigital": 5022,
      "Ġdatabase": 5023,
      "Ġindividual": 5024,
      "Ġindicators": 5025,
      "Ġannealing": 5026,
      "Ġwireless": 5027,
      "stabilizerness": 5028,
      "Ġreformulating": 5029,
      "Ġreservoir": 5030,
      "Ġrearrangements": 5031,
      "imelike": 5032,
      "Ġeither": 5033,
      "unstrip": 5034,
      "Ġloss": 5035,
      "Ġlanguages": 5036,
      "embeddability": 5037,
      "absorption": 5038,
      "ĠToggle": 5039,
      "Ġstrictly": 5040,
      "Ġstatistical": 5041,
      "veraged": 5042,
      "ĠWorking": 5043,
      "Ġconsequence": 5044,
      "ĠSqueezing": 5045,
      "ĠActions": 5046,
      "riplet": 5047,
      "ĠHermitian": 5048,
      "ĠRashba": 5049,
      "Ġspontaneous": 5050,
      "ĠEvaluation": 5051,
      "Ġsuprem": 5052,
      "ĠDicke": 5053,
      "ĠDespite": 5054,
      "Ġalways": 5055,
      "ĠInAsP": 5056,
      "ĠInitialization": 5057,
      "ĠLipkin": 5058,
      "ĠBeyond": 5059,
      "ĠBenchmarking": 5060,
      "opups": 5061,
      "Ġopposite": 5062,
      "ĠNarrowband": 5063,
      "Ġstudied": 5064,
      "estKitchen": 5065,
      "ĠUpload": 5066,
      "device": 5067,
      "truncated": 5068,
      "Ġobstacles": 5069,
      "Ġrelativistic": 5070,
      "Ġempirical": 5071,
      "ĠKochen": 5072,
      "Ġsubcircuits": 5073,
      "Ġfluorescent": 5074,
      "ĠComplexity": 5075,
      "Ġtechnologically": 5076,
      "ĠProposal": 5077,
      "ĠConsequently": 5078,
      "ĠAdaInit": 5079,
      "desktopArticleTarget": 5080,
      "LanguageSelector": 5081,
      "Ġsyndrome": 5082,
      "wgRestriction": 5083,
      "wgPageContent": 5084,
      "Organization": 5085,
      "ProbablyEditable": 5086,
      "Ġindecomposable": 5087,
      "24840897": 5088,
      "Ġirreducible": 5089,
      "Suzuki": 5090
    },
    "merges": [
      [
        "i",
        "n"
      ],
      [
        "o",
        "n"
      ],
      [
        "e",
        "r"
      ],
      [
        "a",
        "n"
      ],
      [
        "Ġ",
        "t"
      ],
      [
        "t",
        "i"
      ],
      [
        "e",
        "n"
      ],
      [
        "r",
        "e"
      ],
      [
        "a",
        "l"
      ],
      [
        "o",
        "r"
      ],
      [
        "Ġt",
        "h"
      ],
      [
        "Ġ",
        "s"
      ],
      [
        "Ġ",
        "a"
      ],
      [
        "Ġ",
        "c"
      ],
      [
        "i",
        "t"
      ],
      [
        "e",
        "s"
      ],
      [
        "ti",
        "on"
      ],
      [
        "a",
        "t"
      ],
      [
        "Ġth",
        "e"
      ],
      [
        "Ġ",
        "o"
      ],
      [
        "i",
        "s"
      ],
      [
        "in",
        "g"
      ],
      [
        "a",
        "r"
      ],
      [
        "e",
        "d"
      ],
      [
        "Ġ",
        "p"
      ],
      [
        "r",
        "o"
      ],
      [
        "i",
        "c"
      ],
      [
        "Ġ",
        "f"
      ],
      [
        "l",
        "e"
      ],
      [
        "Ġ",
        "d"
      ],
      [
        "q",
        "u"
      ],
      [
        "Ġ",
        "in"
      ],
      [
        "Ġo",
        "f"
      ],
      [
        "t",
        "u"
      ],
      [
        "Ġ",
        "an"
      ],
      [
        "a",
        "tion"
      ],
      [
        "Ġ",
        "w"
      ],
      [
        "a",
        "s"
      ],
      [
        "Ġ",
        "m"
      ],
      [
        "en",
        "t"
      ],
      [
        "u",
        "t"
      ],
      [
        "Ġ",
        "b"
      ],
      [
        "tu",
        "m"
      ],
      [
        "an",
        "tum"
      ],
      [
        "Ġ",
        "qu"
      ],
      [
        "o",
        "m"
      ],
      [
        "s",
        "t"
      ],
      [
        "Ġ",
        "re"
      ],
      [
        "Ġan",
        "d"
      ],
      [
        "i",
        "m"
      ],
      [
        "Ġ",
        "e"
      ],
      [
        "a",
        "c"
      ],
      [
        "e",
        "c"
      ],
      [
        "e",
        "t"
      ],
      [
        "a",
        "m"
      ],
      [
        "Ġqu",
        "antum"
      ],
      [
        "u",
        "n"
      ],
      [
        "u",
        "l"
      ],
      [
        "e",
        "l"
      ],
      [
        "Ġ",
        "l"
      ],
      [
        "e",
        "m"
      ],
      [
        "ti",
        "c"
      ],
      [
        "Ġ",
        "n"
      ],
      [
        "Ġt",
        "o"
      ],
      [
        "o",
        "l"
      ],
      [
        "i",
        "l"
      ],
      [
        "Ġp",
        "ro"
      ],
      [
        "a",
        "b"
      ],
      [
        "Ġ",
        "g"
      ],
      [
        "o",
        "d"
      ],
      [
        "Ġ",
        "T"
      ],
      [
        ",",
        "\""
      ],
      [
        "l",
        "y"
      ],
      [
        "v",
        "e"
      ],
      [
        "c",
        "e"
      ],
      [
        "Ġf",
        "or"
      ],
      [
        "i",
        "d"
      ],
      [
        "Ġs",
        "t"
      ],
      [
        "v",
        "er"
      ],
      [
        "s",
        "i"
      ],
      [
        "p",
        "ut"
      ],
      [
        "it",
        "h"
      ],
      [
        "Ġ",
        "W"
      ],
      [
        "at",
        "e"
      ],
      [
        "c",
        "h"
      ],
      [
        "t",
        "er"
      ],
      [
        "Ġc",
        "on"
      ],
      [
        "\"",
        ":"
      ],
      [
        "i",
        "r"
      ],
      [
        "Ġ",
        "C"
      ],
      [
        "p",
        "ar"
      ],
      [
        "ic",
        "al"
      ],
      [
        "o",
        "w"
      ],
      [
        "Ġ",
        "on"
      ],
      [
        "a",
        "g"
      ],
      [
        "Ġ",
        "S"
      ],
      [
        "it",
        "y"
      ],
      [
        "is",
        "t"
      ],
      [
        "i",
        "g"
      ],
      [
        "s",
        "er"
      ],
      [
        "Ġ",
        "is"
      ],
      [
        "a",
        "d"
      ],
      [
        "u",
        "r"
      ],
      [
        "Ġ",
        "$"
      ],
      [
        "p",
        "er"
      ],
      [
        "p",
        "l"
      ],
      [
        "Ġ",
        "h"
      ],
      [
        "i",
        "z"
      ],
      [
        "u",
        "c"
      ],
      [
        "Ġ",
        "Q"
      ],
      [
        "Ġe",
        "x"
      ],
      [
        "Ġ",
        "."
      ],
      [
        "Ġc",
        "om"
      ],
      [
        "Ġw",
        "ith"
      ],
      [
        "u",
        "s"
      ],
      [
        "Ġ",
        "A"
      ],
      [
        "Ġ",
        "("
      ],
      [
        "o",
        "ut"
      ],
      [
        "r",
        "i"
      ],
      [
        "m",
        "w"
      ],
      [
        "Ġ",
        "M"
      ],
      [
        "re",
        "s"
      ],
      [
        "ĠW",
        "e"
      ],
      [
        "\"",
        ",\""
      ],
      [
        "ĠT",
        "h"
      ],
      [
        "m",
        "ent"
      ],
      [
        "Ġ",
        "H"
      ],
      [
        "ec",
        "t"
      ],
      [
        "ĠQ",
        "u"
      ],
      [
        "f",
        "or"
      ],
      [
        "r",
        "a"
      ],
      [
        "o",
        "t"
      ],
      [
        "Ġ",
        "P"
      ],
      [
        "Ġw",
        "e"
      ],
      [
        "par",
        "ser"
      ],
      [
        "out",
        "put"
      ],
      [
        "Ġth",
        "at"
      ],
      [
        "un",
        "d"
      ],
      [
        "r",
        "an"
      ],
      [
        "u",
        "m"
      ],
      [
        "ation",
        "s"
      ],
      [
        "ĠQu",
        "antum"
      ],
      [
        "o",
        "s"
      ],
      [
        "Ġw",
        "h"
      ],
      [
        "o",
        "g"
      ],
      [
        "u",
        "re"
      ],
      [
        "Ġa",
        "s"
      ],
      [
        "Ġc",
        "o"
      ],
      [
        "as",
        "s"
      ],
      [
        "for",
        "m"
      ],
      [
        "o",
        "c"
      ],
      [
        "f",
        "f"
      ],
      [
        "Ġ",
        "I"
      ],
      [
        "en",
        "ce"
      ],
      [
        "Ġ",
        "v"
      ],
      [
        "en",
        "er"
      ],
      [
        "Ġ",
        "R"
      ],
      [
        "ro",
        "m"
      ],
      [
        "b",
        "it"
      ],
      [
        "Ġ",
        "F"
      ],
      [
        "Ġb",
        "y"
      ],
      [
        "Ġs",
        "p"
      ],
      [
        "ti",
        "m"
      ],
      [
        "es",
        "s"
      ],
      [
        "at",
        "es"
      ],
      [
        "a",
        "in"
      ],
      [
        "e",
        "x"
      ],
      [
        "Ġ",
        "E"
      ],
      [
        "an",
        "t"
      ],
      [
        "c",
        "t"
      ],
      [
        "Ġs",
        "u"
      ],
      [
        "Ġ",
        "D"
      ],
      [
        "Ġ",
        "al"
      ],
      [
        "ti",
        "ve"
      ],
      [
        "Ġs",
        "y"
      ],
      [
        "Ġc",
        "h"
      ],
      [
        "Ġd",
        "e"
      ],
      [
        "h",
        "er"
      ],
      [
        "l",
        "ist"
      ],
      [
        "or",
        "k"
      ],
      [
        "si",
        "on"
      ],
      [
        "ĠTh",
        "e"
      ],
      [
        "l",
        "ass"
      ],
      [
        "p",
        "le"
      ],
      [
        "Ġth",
        "is"
      ],
      [
        "g",
        "e"
      ],
      [
        "Ġa",
        "t"
      ],
      [
        "ag",
        "e"
      ],
      [
        "ĠI",
        "n"
      ],
      [
        "in",
        "e"
      ],
      [
        "i",
        "es"
      ],
      [
        "an",
        "d"
      ],
      [
        "\":",
        "\""
      ],
      [
        "ig",
        "h"
      ],
      [
        "a",
        "y"
      ],
      [
        "at",
        "ed"
      ],
      [
        "a",
        "p"
      ],
      [
        "c",
        "tion"
      ],
      [
        "en",
        "s"
      ],
      [
        "f",
        "er"
      ],
      [
        "i",
        "an"
      ],
      [
        "t",
        "h"
      ],
      [
        "Ġ",
        "L"
      ],
      [
        "en",
        "c"
      ],
      [
        "d",
        "er"
      ],
      [
        "i",
        "a"
      ],
      [
        "o",
        "re"
      ],
      [
        "ab",
        "le"
      ],
      [
        "Ġ",
        "B"
      ],
      [
        "Ġp",
        "h"
      ],
      [
        "Ġin",
        "t"
      ],
      [
        "st",
        "em"
      ],
      [
        "tic",
        "al"
      ],
      [
        "er",
        "m"
      ],
      [
        "Ġf",
        "rom"
      ],
      [
        "Ġin",
        "ter"
      ],
      [
        "Ġn",
        "on"
      ],
      [
        "i",
        "f"
      ],
      [
        "o",
        "p"
      ],
      [
        "p",
        "h"
      ],
      [
        "Ġg",
        "ener"
      ],
      [
        "e",
        "as"
      ],
      [
        "r",
        "ic"
      ],
      [
        "w",
        "g"
      ],
      [
        "it",
        "s"
      ],
      [
        "Ġo",
        "p"
      ],
      [
        "am",
        "e"
      ],
      [
        "ab",
        "il"
      ],
      [
        "y",
        "n"
      ],
      [
        "Ġ",
        "un"
      ],
      [
        "at",
        "or"
      ],
      [
        "d",
        "uc"
      ],
      [
        "ar",
        "y"
      ],
      [
        "r",
        "uc"
      ],
      [
        "ti",
        "al"
      ],
      [
        "Ġm",
        "od"
      ],
      [
        "Ġcon",
        "t"
      ],
      [
        "on",
        "t"
      ],
      [
        "Ġs",
        "h"
      ],
      [
        "ac",
        "t"
      ],
      [
        "Ġsy",
        "stem"
      ],
      [
        "c",
        "u"
      ],
      [
        "Ġ",
        "N"
      ],
      [
        "Ġre",
        "s"
      ],
      [
        "lass",
        "ical"
      ],
      [
        "p",
        "p"
      ],
      [
        "w",
        "o"
      ],
      [
        "}",
        "."
      ],
      [
        "or",
        "t"
      ],
      [
        "iz",
        "ation"
      ],
      [
        "Ġcom",
        "put"
      ],
      [
        "Ġ",
        "us"
      ],
      [
        "Ġt",
        "ran"
      ],
      [
        "Ġa",
        "re"
      ],
      [
        "Ġd",
        "i"
      ],
      [
        "Ġb",
        "e"
      ],
      [
        "ex",
        "t"
      ],
      [
        "i",
        "ent"
      ],
      [
        "s",
        "e"
      ],
      [
        "yn",
        "am"
      ],
      [
        "h",
        "list"
      ],
      [
        "r",
        "y"
      ],
      [
        "w",
        "ork"
      ],
      [
        "Ġ",
        "O"
      ],
      [
        "Ġ",
        "or"
      ],
      [
        "an",
        "g"
      ],
      [
        "Ġa",
        "d"
      ],
      [
        "it",
        "e"
      ],
      [
        "ul",
        "t"
      ],
      [
        "a",
        "v"
      ],
      [
        "en",
        "d"
      ],
      [
        "re",
        "e"
      ],
      [
        "ic",
        "s"
      ],
      [
        "ab",
        "l"
      ],
      [
        "Ġp",
        "ar"
      ],
      [
        "ac",
        "e"
      ],
      [
        "ir",
        "cu"
      ],
      [
        "b",
        "o"
      ],
      [
        "er",
        "e"
      ],
      [
        "Ġs",
        "c"
      ],
      [
        "Ġc",
        "an"
      ],
      [
        "as",
        "e"
      ],
      [
        "b",
        "er"
      ],
      [
        "Ġt",
        "wo"
      ],
      [
        "or",
        "y"
      ],
      [
        "Ġs",
        "im"
      ],
      [
        "Ġa",
        "r"
      ],
      [
        "eas",
        "ure"
      ],
      [
        "i",
        "k"
      ],
      [
        "o",
        "ur"
      ],
      [
        "u",
        "p"
      ],
      [
        "Ġ",
        "G"
      ],
      [
        "Ġ",
        "le"
      ],
      [
        "c",
        "l"
      ],
      [
        "t",
        "y"
      ],
      [
        "on",
        "s"
      ],
      [
        "tion",
        "s"
      ],
      [
        "Ġf",
        "i"
      ],
      [
        "le",
        "ct"
      ],
      [
        "o",
        "us"
      ],
      [
        "v",
        "el"
      ],
      [
        "im",
        "e"
      ],
      [
        "a",
        "re"
      ],
      [
        "s",
        "p"
      ],
      [
        "en",
        "sion"
      ],
      [
        "al",
        "l"
      ],
      [
        "as",
        "ed"
      ],
      [
        "im",
        "it"
      ],
      [
        "el",
        "d"
      ],
      [
        "ff",
        "ic"
      ],
      [
        "t",
        "ing"
      ],
      [
        "y",
        "s"
      ],
      [
        "Ġ",
        "1"
      ],
      [
        "Ġ",
        "ro"
      ],
      [
        "Ġs",
        "tu"
      ],
      [
        "is",
        "e"
      ],
      [
        "ic",
        "h"
      ],
      [
        "ig",
        "n"
      ],
      [
        "bo",
        "x"
      ],
      [
        ",",
        "."
      ],
      [
        "Ġp",
        "re"
      ],
      [
        "a",
        "ve"
      ],
      [
        "c",
        "ess"
      ],
      [
        "v",
        "es"
      ],
      [
        "es",
        "t"
      ],
      [
        "Ġd",
        "ec"
      ],
      [
        "id",
        "e"
      ],
      [
        "Ġst",
        "ate"
      ],
      [
        "easure",
        "ment"
      ],
      [
        "0",
        "0"
      ],
      [
        "c",
        "o"
      ],
      [
        "u",
        "e"
      ],
      [
        "v",
        "en"
      ],
      [
        "v",
        "al"
      ],
      [
        "Ġn",
        "e"
      ],
      [
        "form",
        "ation"
      ],
      [
        "d",
        "y"
      ],
      [
        "i",
        "e"
      ],
      [
        "o",
        "und"
      ],
      [
        "r",
        "or"
      ],
      [
        "Ġc",
        "lassical"
      ],
      [
        "Ġc",
        "ircu"
      ],
      [
        "at",
        "h"
      ],
      [
        "Ġf",
        "r"
      ],
      [
        "Ġd",
        "ynam"
      ],
      [
        "im",
        "ension"
      ],
      [
        "ac",
        "h"
      ],
      [
        "ect",
        "or"
      ],
      [
        "os",
        "e"
      ],
      [
        "b",
        "le"
      ],
      [
        "Ġ",
        "U"
      ],
      [
        "Ġ",
        "im"
      ],
      [
        "er",
        "s"
      ],
      [
        "ro",
        "l"
      ],
      [
        "Ġd",
        "is"
      ],
      [
        "qu",
        "i"
      ],
      [
        "as",
        "t"
      ],
      [
        "un",
        "ction"
      ],
      [
        "Ġn",
        "o"
      ],
      [
        "Ġst",
        "ates"
      ],
      [
        "ir",
        "st"
      ],
      [
        "igh",
        "t"
      ],
      [
        "Ġ",
        "er"
      ],
      [
        "in",
        "t"
      ],
      [
        "on",
        "g"
      ],
      [
        "an",
        "ce"
      ],
      [
        "Ġs",
        "e"
      ],
      [
        "ri",
        "b"
      ],
      [
        "Ġwh",
        "ich"
      ],
      [
        "og",
        "ical"
      ],
      [
        "abil",
        "ity"
      ],
      [
        "g",
        "or"
      ],
      [
        "{",
        "\""
      ],
      [
        "Ġc",
        "or"
      ],
      [
        "Ġo",
        "per"
      ],
      [
        "ing",
        "le"
      ],
      [
        "Ġd",
        "ist"
      ],
      [
        "Ġm",
        "easurement"
      ],
      [
        "ith",
        "m"
      ],
      [
        "oc",
        "al"
      ],
      [
        "r",
        "al"
      ],
      [
        "Ġa",
        "c"
      ],
      [
        "ec",
        "h"
      ],
      [
        "am",
        "il"
      ],
      [
        "Ġmod",
        "el"
      ],
      [
        "d",
        "e"
      ],
      [
        "l",
        "ow"
      ],
      [
        "n",
        "e"
      ],
      [
        "Ġ",
        "r"
      ],
      [
        "on",
        "d"
      ],
      [
        "at",
        "ing"
      ],
      [
        "Ġo",
        "ver"
      ],
      [
        "Ġm",
        "a"
      ],
      [
        "Ġqu",
        "bit"
      ],
      [
        "il",
        "d"
      ],
      [
        "ra",
        "ph"
      ],
      [
        "Ġsh",
        "ow"
      ],
      [
        "Ġstu",
        "dy"
      ],
      [
        "2",
        "0"
      ],
      [
        "p",
        "e"
      ],
      [
        "u",
        "tion"
      ],
      [
        "Ġ",
        "und"
      ],
      [
        "Ġa",
        "pp"
      ],
      [
        "Ġp",
        "res"
      ],
      [
        "Ġin",
        "formation"
      ],
      [
        "tu",
        "re"
      ],
      [
        "ation",
        "al"
      ],
      [
        "st",
        "ruc"
      ],
      [
        "gor",
        "ithm"
      ],
      [
        ":",
        ":"
      ],
      [
        "m",
        "ath"
      ],
      [
        "t",
        "r"
      ],
      [
        "Ġs",
        "ingle"
      ],
      [
        "ar",
        "g"
      ],
      [
        "Ġp",
        "er"
      ],
      [
        "ic",
        "ation"
      ],
      [
        "ul",
        "ar"
      ],
      [
        "Ġpro",
        "p"
      ],
      [
        "od",
        "e"
      ],
      [
        "Ġon",
        "e"
      ],
      [
        "Ġsystem",
        "s"
      ],
      [
        "Ġsim",
        "ul"
      ],
      [
        "o",
        "le"
      ],
      [
        "w",
        "e"
      ],
      [
        "Ġ",
        "enc"
      ],
      [
        "or",
        "der"
      ],
      [
        "ar",
        "i"
      ],
      [
        "Ġp",
        "o"
      ],
      [
        "ac",
        "k"
      ],
      [
        "\":",
        "{\""
      ],
      [
        "Ġal",
        "gorithm"
      ],
      [
        "Ġund",
        "er"
      ],
      [
        ")",
        "$"
      ],
      [
        "-",
        "-"
      ],
      [
        "i",
        "p"
      ],
      [
        "i",
        "al"
      ],
      [
        "m",
        "m"
      ],
      [
        "n",
        "s"
      ],
      [
        "Ġ",
        "k"
      ],
      [
        "Ġ",
        "its"
      ],
      [
        "in",
        "ite"
      ],
      [
        "ar",
        "d"
      ],
      [
        "Ġp",
        "r"
      ],
      [
        "om",
        "et"
      ],
      [
        "ac",
        "tion"
      ],
      [
        "iz",
        "ed"
      ],
      [
        "Ġfi",
        "eld"
      ],
      [
        "Ġfr",
        "ame"
      ],
      [
        "a",
        "tive"
      ],
      [
        "l",
        "o"
      ],
      [
        "Ġt",
        "ime"
      ],
      [
        "ti",
        "f"
      ],
      [
        "es",
        "e"
      ],
      [
        "Ġthe",
        "ir"
      ],
      [
        "Ġo",
        "b"
      ],
      [
        "is",
        "h"
      ],
      [
        "Ġd",
        "et"
      ],
      [
        "Ġb",
        "ut"
      ],
      [
        "Ġb",
        "ound"
      ],
      [
        "Ġre",
        "qui"
      ],
      [
        "ĠTh",
        "is"
      ],
      [
        "Ġsu",
        "ch"
      ],
      [
        "Ġat",
        "om"
      ],
      [
        "Ġsc",
        "al"
      ],
      [
        "Ġcor",
        "re"
      ],
      [
        "mm",
        "et"
      ],
      [
        "2",
        "5"
      ],
      [
        "b",
        "ar"
      ],
      [
        "d",
        "i"
      ],
      [
        "i",
        "on"
      ],
      [
        "l",
        "es"
      ],
      [
        "n",
        "ing"
      ],
      [
        "Ġ",
        "it"
      ],
      [
        "Ġ",
        "ent"
      ],
      [
        "in",
        "d"
      ],
      [
        "ed",
        "ia"
      ],
      [
        "le",
        "ment"
      ],
      [
        "ĠH",
        "ere"
      ],
      [
        "Ġop",
        "tim"
      ],
      [
        "Ġtran",
        "s"
      ],
      [
        "imension",
        "al"
      ],
      [
        "b",
        "r"
      ],
      [
        "d",
        "u"
      ],
      [
        "i",
        "le"
      ],
      [
        "m",
        "ain"
      ],
      [
        "p",
        "tion"
      ],
      [
        "u",
        "pl"
      ],
      [
        "en",
        "tial"
      ],
      [
        "at",
        "ter"
      ],
      [
        "at",
        "ure"
      ],
      [
        "ar",
        "k"
      ],
      [
        "Ġm",
        "et"
      ],
      [
        "ent",
        "s"
      ],
      [
        "st",
        "y"
      ],
      [
        "Ġre",
        "g"
      ],
      [
        "Ġre",
        "l"
      ],
      [
        "et",
        "work"
      ],
      [
        "Ġl",
        "imit"
      ],
      [
        "ĠS",
        "t"
      ],
      [
        "ffic",
        "ient"
      ],
      [
        "Ġdynam",
        "ics"
      ],
      [
        "a",
        "ti"
      ],
      [
        "l",
        "ine"
      ],
      [
        "p",
        "re"
      ],
      [
        "p",
        "end"
      ],
      [
        "s",
        "c"
      ],
      [
        "t",
        "on"
      ],
      [
        "u",
        "g"
      ],
      [
        "v",
        "ing"
      ],
      [
        "Ġ",
        "en"
      ],
      [
        "ti",
        "g"
      ],
      [
        "al",
        "ly"
      ],
      [
        "Ġthe",
        "ory"
      ],
      [
        "Ġw",
        "ork"
      ],
      [
        "Ġe",
        "m"
      ],
      [
        "Ġl",
        "ocal"
      ],
      [
        "Ġpro",
        "t"
      ],
      [
        "ch",
        "ild"
      ],
      [
        "Ġcom",
        "ple"
      ],
      [
        "Ġcircu",
        "it"
      ],
      [
        "Ġer",
        "ror"
      ],
      [
        "Ġframe",
        "work"
      ],
      [
        "du",
        "ce"
      ],
      [
        "'",
        "s"
      ],
      [
        "o",
        "f"
      ],
      [
        "p",
        "ol"
      ],
      [
        "p",
        "ort"
      ],
      [
        "v",
        "ed"
      ],
      [
        "Ġ",
        "\\"
      ],
      [
        "Ġs",
        "ec"
      ],
      [
        "tion",
        "al"
      ],
      [
        "ro",
        "w"
      ],
      [
        "Ġd",
        "es"
      ],
      [
        "Ġl",
        "ow"
      ],
      [
        "em",
        "p"
      ],
      [
        "il",
        "l"
      ],
      [
        "od",
        "es"
      ],
      [
        "Ġh",
        "igh"
      ],
      [
        "Ġco",
        "her"
      ],
      [
        "Ġsp",
        "in"
      ],
      [
        "ple",
        "ment"
      ],
      [
        "fer",
        "ence"
      ],
      [
        "Ġph",
        "ys"
      ],
      [
        "Ġcont",
        "rol"
      ],
      [
        "c",
        "ent"
      ],
      [
        "e",
        "ver"
      ],
      [
        "e",
        "ad"
      ],
      [
        "p",
        "ro"
      ],
      [
        "u",
        "st"
      ],
      [
        "}",
        ",\""
      ],
      [
        "Ġ",
        "K"
      ],
      [
        "Ġs",
        "ol"
      ],
      [
        "Ġs",
        "ign"
      ],
      [
        "Ġf",
        "unction"
      ],
      [
        "Ġan",
        "al"
      ],
      [
        "Ġb",
        "ot"
      ],
      [
        "Ġe",
        "lect"
      ],
      [
        "ul",
        "ti"
      ],
      [
        "Ġex",
        "act"
      ],
      [
        "tim",
        "e"
      ],
      [
        "Ġint",
        "ro"
      ],
      [
        "ator",
        "s"
      ],
      [
        "Ġus",
        "ing"
      ],
      [
        "ang",
        "lement"
      ],
      [
        "our",
        "ce"
      ],
      [
        "Ġim",
        "plement"
      ],
      [
        "Ġno",
        "ise"
      ],
      [
        "amil",
        "ton"
      ],
      [
        "Ġapp",
        "ro"
      ],
      [
        "amilton",
        "ian"
      ],
      [
        "1",
        "0"
      ],
      [
        "c",
        "es"
      ],
      [
        "e",
        "ar"
      ],
      [
        "v",
        "ant"
      ],
      [
        "on",
        "ic"
      ],
      [
        "en",
        "g"
      ],
      [
        "Ġa",
        "b"
      ],
      [
        "Ġp",
        "l"
      ],
      [
        "et",
        "we"
      ],
      [
        "am",
        "box"
      ],
      [
        "tic",
        "e"
      ],
      [
        "ver",
        "y"
      ],
      [
        "si",
        "tion"
      ],
      [
        "Ġex",
        "t"
      ],
      [
        "ĠH",
        "amiltonian"
      ],
      [
        "Ġv",
        "ia"
      ],
      [
        "Ġint",
        "o"
      ],
      [
        "Ġgener",
        "al"
      ],
      [
        "Ġprot",
        "oc"
      ],
      [
        "etwe",
        "en"
      ],
      [
        "b",
        "ased"
      ],
      [
        "c",
        "on"
      ],
      [
        "c",
        "ol"
      ],
      [
        "e",
        "g"
      ],
      [
        "e",
        "y"
      ],
      [
        "n",
        "el"
      ],
      [
        "p",
        "pl"
      ],
      [
        "t",
        "o"
      ],
      [
        "t",
        "ain"
      ],
      [
        "w",
        "id"
      ],
      [
        "w",
        "are"
      ],
      [
        "x",
        "im"
      ],
      [
        "Ġth",
        "ese"
      ],
      [
        "Ġm",
        "an"
      ],
      [
        "Ġre",
        "al"
      ],
      [
        "Ġl",
        "i"
      ],
      [
        "Ġn",
        "um"
      ],
      [
        "Ġpro",
        "v"
      ],
      [
        "Ġpro",
        "cess"
      ],
      [
        "Ġst",
        "r"
      ],
      [
        "ow",
        "ever"
      ],
      [
        "Ġ$",
        "\\"
      ],
      [
        "Ġh",
        "as"
      ],
      [
        "Ġex",
        "p"
      ],
      [
        "Ġcom",
        "m"
      ],
      [
        "ĠE",
        "x"
      ],
      [
        "ens",
        "ity"
      ],
      [
        "Ġph",
        "ot"
      ],
      [
        "Ġop",
        "tical"
      ],
      [
        "ves",
        "tig"
      ],
      [
        "ug",
        "h"
      ],
      [
        "Ġprotoc",
        "ol"
      ],
      [
        "wid",
        "th"
      ],
      [
        "\\",
        "/"
      ],
      [
        "e",
        "f"
      ],
      [
        "e",
        "omet"
      ],
      [
        "n",
        "ess"
      ],
      [
        "p",
        "x"
      ],
      [
        "s",
        "ing"
      ],
      [
        "x",
        "ed"
      ],
      [
        "}",
        "$"
      ],
      [
        "Ġ",
        "V"
      ],
      [
        "ar",
        "ge"
      ],
      [
        "qu",
        "bit"
      ],
      [
        "Ġin",
        "vestig"
      ],
      [
        "Ġb",
        "etween"
      ],
      [
        "om",
        "p"
      ],
      [
        "Ġre",
        "main"
      ],
      [
        "ener",
        "g"
      ],
      [
        "ĠE",
        "n"
      ],
      [
        "Ġsu",
        "b"
      ],
      [
        "a",
        "f"
      ],
      [
        "c",
        "re"
      ],
      [
        "d",
        "it"
      ],
      [
        "d",
        "imensional"
      ],
      [
        "i",
        "ve"
      ],
      [
        "j",
        "or"
      ],
      [
        "n",
        "av"
      ],
      [
        "o",
        "v"
      ],
      [
        "r",
        "ad"
      ],
      [
        "Ġ",
        "y"
      ],
      [
        "Ġ",
        "est"
      ],
      [
        "re",
        "ad"
      ],
      [
        "Ġs",
        "et"
      ],
      [
        "is",
        "tic"
      ],
      [
        "ro",
        "up"
      ],
      [
        "Ġf",
        "inite"
      ],
      [
        "Ġd",
        "er"
      ],
      [
        "Ġm",
        "ag"
      ],
      [
        "Ġb",
        "ased"
      ],
      [
        "st",
        "r"
      ],
      [
        "Ġe",
        "qu"
      ],
      [
        "am",
        "et"
      ],
      [
        "Ġpro",
        "b"
      ],
      [
        "od",
        "ing"
      ],
      [
        "Ġst",
        "ruc"
      ],
      [
        "ical",
        "ly"
      ],
      [
        "iz",
        "e"
      ],
      [
        "ra",
        "in"
      ],
      [
        "Ġv",
        "ector"
      ],
      [
        "Ġch",
        "all"
      ],
      [
        "enc",
        "es"
      ],
      [
        "Ġor",
        "der"
      ],
      [
        "abl",
        "ish"
      ],
      [
        "Ġpar",
        "amet"
      ],
      [
        "ĠU",
        "n"
      ],
      [
        "struc",
        "tion"
      ],
      [
        "Ġper",
        "form"
      ],
      [
        "ole",
        "c"
      ],
      [
        "Ġcomple",
        "x"
      ],
      [
        "Ġest",
        "ablish"
      ],
      [
        "$",
        "-"
      ],
      [
        "a",
        "u"
      ],
      [
        "a",
        "ul"
      ],
      [
        "a",
        "tic"
      ],
      [
        "b",
        "in"
      ],
      [
        "c",
        "it"
      ],
      [
        "c",
        "ont"
      ],
      [
        "d",
        "is"
      ],
      [
        "h",
        "od"
      ],
      [
        "i",
        "ons"
      ],
      [
        "j",
        "ect"
      ],
      [
        "o",
        "st"
      ],
      [
        "v",
        "ic"
      ],
      [
        "v",
        "ol"
      ],
      [
        "w",
        "ik"
      ],
      [
        "on",
        "e"
      ],
      [
        "an",
        "c"
      ],
      [
        "ti",
        "es"
      ],
      [
        "at",
        "a"
      ],
      [
        "at",
        "tice"
      ],
      [
        "is",
        "ing"
      ],
      [
        "Ġp",
        "a"
      ],
      [
        "ro",
        "und"
      ],
      [
        "Ġf",
        "ul"
      ],
      [
        "Ġf",
        "irst"
      ],
      [
        "Ġm",
        "at"
      ],
      [
        "Ġe",
        "ff"
      ],
      [
        "Ġl",
        "ogical"
      ],
      [
        "Ġn",
        "ot"
      ],
      [
        "Ġfor",
        "m"
      ],
      [
        "ow",
        "n"
      ],
      [
        "pl",
        "o"
      ],
      [
        "Ġcom",
        "p"
      ],
      [
        "os",
        "ed"
      ],
      [
        "Ġas",
        "s"
      ],
      [
        "Ġsp",
        "ect"
      ],
      [
        "Ġsp",
        "ace"
      ],
      [
        "Ġsu",
        "per"
      ],
      [
        "Ġch",
        "an"
      ],
      [
        "fer",
        "ences"
      ],
      [
        "Ġun",
        "it"
      ],
      [
        "duc",
        "t"
      ],
      [
        "Ġle",
        "ar"
      ],
      [
        "ech",
        "an"
      ],
      [
        "Ġrequi",
        "re"
      ],
      [
        "Ġent",
        "anglement"
      ],
      [
        "Ġoptim",
        "al"
      ],
      [
        "sty",
        "le"
      ],
      [
        "Ġdes",
        "c"
      ],
      [
        "Ġcoher",
        "ent"
      ],
      [
        "Ġintro",
        "duce"
      ],
      [
        "read",
        "y"
      ],
      [
        "aul",
        "i"
      ],
      [
        "a",
        "k"
      ],
      [
        "a",
        "ult"
      ],
      [
        "b",
        "l"
      ],
      [
        "d",
        "ing"
      ],
      [
        "f",
        "t"
      ],
      [
        "i",
        "ver"
      ],
      [
        "l",
        "imit"
      ],
      [
        "t",
        "en"
      ],
      [
        "z",
        "e"
      ],
      [
        "Ġ",
        "2"
      ],
      [
        "Ġ",
        "id"
      ],
      [
        "Ġ",
        "ran"
      ],
      [
        "Ġ",
        "energ"
      ],
      [
        "Ġa",
        "ppl"
      ],
      [
        "Ġc",
        "odes"
      ],
      [
        "ro",
        "ugh"
      ],
      [
        "Ġf",
        "l"
      ],
      [
        "Ġd",
        "d"
      ],
      [
        "Ġd",
        "t"
      ],
      [
        "ec",
        "k"
      ],
      [
        "el",
        "y"
      ],
      [
        "tic",
        "le"
      ],
      [
        "Ġn",
        "etwork"
      ],
      [
        "Ġpro",
        "per"
      ],
      [
        "od",
        "y"
      ],
      [
        "Ġcon",
        "s"
      ],
      [
        "ĠS",
        "p"
      ],
      [
        "erm",
        "in"
      ],
      [
        "abil",
        "iz"
      ],
      [
        "ĠO",
        "p"
      ],
      [
        "abl",
        "ed"
      ],
      [
        "ty",
        "pe"
      ],
      [
        "Ġdist",
        "rib"
      ],
      [
        "Ġmeasurement",
        "s"
      ],
      [
        "Ġmodel",
        "s"
      ],
      [
        "Ġbot",
        "h"
      ],
      [
        "af",
        "ter"
      ],
      [
        "nav",
        "bar"
      ],
      [
        "a",
        "us"
      ],
      [
        "b",
        "order"
      ],
      [
        "b",
        "ody"
      ],
      [
        "d",
        "om"
      ],
      [
        "i",
        "ed"
      ],
      [
        "i",
        "tic"
      ],
      [
        "n",
        "own"
      ],
      [
        "r",
        "m"
      ],
      [
        "r",
        "ary"
      ],
      [
        "ti",
        "t"
      ],
      [
        "re",
        "ct"
      ],
      [
        "Ġc",
        "ol"
      ],
      [
        "Ġqu",
        "an"
      ],
      [
        "em",
        "ory"
      ],
      [
        "Ġpro",
        "ve"
      ],
      [
        "Ġg",
        "raph"
      ],
      [
        "ĠC",
        "om"
      ],
      [
        "ĠP",
        "auli"
      ],
      [
        "Ġwh",
        "ose"
      ],
      [
        "Ġv",
        "ari"
      ],
      [
        "bit",
        "rary"
      ],
      [
        "ĠF",
        "or"
      ],
      [
        "Ġsy",
        "mmet"
      ],
      [
        "ens",
        "or"
      ],
      [
        "enc",
        "y"
      ],
      [
        "Ġres",
        "ult"
      ],
      [
        "Ġcomput",
        "ing"
      ],
      [
        "ang",
        "u"
      ],
      [
        "Ġad",
        "vant"
      ],
      [
        "cl",
        "u"
      ],
      [
        "cl",
        "ient"
      ],
      [
        "vel",
        "op"
      ],
      [
        "ne",
        "tic"
      ],
      [
        "Ġqubit",
        "s"
      ],
      [
        "math",
        "rm"
      ],
      [
        "arg",
        "in"
      ],
      [
        "Ġcorre",
        "l"
      ],
      [
        "Ġmet",
        "hod"
      ],
      [
        "Ġman",
        "y"
      ],
      [
        "Ġnum",
        "ber"
      ],
      [
        "Ġstruc",
        "ture"
      ],
      [
        "au",
        "ge"
      ],
      [
        "abiliz",
        "er"
      ],
      [
        ")",
        ","
      ],
      [
        "b",
        "ef"
      ],
      [
        "l",
        "l"
      ],
      [
        "r",
        "on"
      ],
      [
        "s",
        "o"
      ],
      [
        "t",
        "ext"
      ],
      [
        "in",
        "im"
      ],
      [
        "on",
        "al"
      ],
      [
        "on",
        "str"
      ],
      [
        "er",
        "y"
      ],
      [
        "Ġt",
        "ech"
      ],
      [
        "Ġc",
        "ent"
      ],
      [
        "Ġo",
        "l"
      ],
      [
        "Ġo",
        "ut"
      ],
      [
        "is",
        "m"
      ],
      [
        "Ġp",
        "ol"
      ],
      [
        "Ġf",
        "und"
      ],
      [
        "Ġf",
        "erm"
      ],
      [
        "Ġd",
        "em"
      ],
      [
        "qu",
        "e"
      ],
      [
        "Ġm",
        "i"
      ],
      [
        "ent",
        "al"
      ],
      [
        "ec",
        "tion"
      ],
      [
        "un",
        "ication"
      ],
      [
        "ul",
        "ation"
      ],
      [
        "Ġl",
        "arge"
      ],
      [
        "Ġl",
        "attice"
      ],
      [
        "Ġpro",
        "ble"
      ],
      [
        "Ġg",
        "eomet"
      ],
      [
        "Ġg",
        "auge"
      ],
      [
        "ĠW",
        "h"
      ],
      [
        "ch",
        "em"
      ],
      [
        "Ġcon",
        "st"
      ],
      [
        "ĠC",
        "o"
      ],
      [
        "per",
        "im"
      ],
      [
        "Ġh",
        "ave"
      ],
      [
        "Ġex",
        "cit"
      ],
      [
        "ĠH",
        "owever"
      ],
      [
        "Ġde",
        "velop"
      ],
      [
        "Ġph",
        "ase"
      ],
      [
        "Ġdi",
        "ff"
      ],
      [
        "Ġar",
        "bitrary"
      ],
      [
        "our",
        "ces"
      ],
      [
        "sp",
        "ort"
      ],
      [
        "sp",
        "ace"
      ],
      [
        "Ġma",
        "jor"
      ],
      [
        "Ġpres",
        "ent"
      ],
      [
        "Ġprop",
        "ose"
      ],
      [
        "Ġsimul",
        "ation"
      ],
      [
        "Ġalgorithm",
        "s"
      ],
      [
        "Ġatom",
        "s"
      ],
      [
        "bef",
        "ore"
      ],
      [
        "Ġtech",
        "n"
      ],
      [
        "Ġfund",
        "am"
      ],
      [
        "Ġproble",
        "m"
      ],
      [
        "$",
        ","
      ],
      [
        "2",
        "4"
      ],
      [
        "E",
        "dit"
      ],
      [
        "a",
        "tial"
      ],
      [
        "e",
        "ature"
      ],
      [
        "f",
        "irst"
      ],
      [
        "i",
        "b"
      ],
      [
        "i",
        "eld"
      ],
      [
        "k",
        "s"
      ],
      [
        "k",
        "in"
      ],
      [
        "r",
        "am"
      ],
      [
        "s",
        "s"
      ],
      [
        "u",
        "res"
      ],
      [
        "in",
        "u"
      ],
      [
        "en",
        "ch"
      ],
      [
        "al",
        "s"
      ],
      [
        "Ġth",
        "erm"
      ],
      [
        "Ġa",
        "m"
      ],
      [
        "Ġc",
        "ap"
      ],
      [
        "Ġc",
        "ode"
      ],
      [
        "Ġf",
        "re"
      ],
      [
        "le",
        "ft"
      ],
      [
        "as",
        "ing"
      ],
      [
        "Ġm",
        "ic"
      ],
      [
        "st",
        "ate"
      ],
      [
        "Ġe",
        "very"
      ],
      [
        "el",
        "l"
      ],
      [
        "em",
        "pl"
      ],
      [
        "ol",
        "er"
      ],
      [
        "Ġcon",
        "f"
      ],
      [
        "\":",
        "["
      ],
      [
        "ĠC",
        "ar"
      ],
      [
        "Ġon",
        "ly"
      ],
      [
        "ĠA",
        "n"
      ],
      [
        "ĠP",
        "re"
      ],
      [
        "ĠP",
        "ro"
      ],
      [
        "Ġde",
        "g"
      ],
      [
        "ĠIn",
        "ter"
      ],
      [
        "Ġinter",
        "ference"
      ],
      [
        "Ġcomput",
        "ation"
      ],
      [
        "ber",
        "g"
      ],
      [
        "val",
        "u"
      ],
      [
        "ie",
        "w"
      ],
      [
        "Ġcircu",
        "its"
      ],
      [
        "de",
        "pend"
      ],
      [
        "math",
        "b"
      ],
      [
        "pre",
        "f"
      ],
      [
        "Ġphys",
        "ical"
      ],
      [
        "Ġinvestig",
        "ate"
      ],
      [
        "Ġremain",
        "s"
      ],
      [
        "cont",
        "ent"
      ],
      [
        "Ġlear",
        "ning"
      ],
      [
        "Ġid",
        "en"
      ],
      [
        "Ġenerg",
        "y"
      ],
      [
        "itic",
        "ian"
      ],
      [
        "angu",
        "age"
      ],
      [
        "Ġadvant",
        "age"
      ],
      [
        "Ġdem",
        "onstr"
      ],
      [
        "b",
        "and"
      ],
      [
        "b",
        "ack"
      ],
      [
        "b",
        "ust"
      ],
      [
        "c",
        "ur"
      ],
      [
        "d",
        "ic"
      ],
      [
        "e",
        "ous"
      ],
      [
        "f",
        "al"
      ],
      [
        "f",
        "ont"
      ],
      [
        "f",
        "unction"
      ],
      [
        "l",
        "ed"
      ],
      [
        "l",
        "if"
      ],
      [
        "l",
        "ast"
      ],
      [
        "m",
        "ore"
      ],
      [
        "m",
        "ark"
      ],
      [
        "m",
        "argin"
      ],
      [
        "o",
        "k"
      ],
      [
        "o",
        "int"
      ],
      [
        "t",
        "t"
      ],
      [
        "t",
        "ed"
      ],
      [
        "v",
        "an"
      ],
      [
        "y",
        "d"
      ],
      [
        "y",
        "mmet"
      ],
      [
        "{",
        "\\"
      ],
      [
        "Ġt",
        "r"
      ],
      [
        "Ġt",
        "ensor"
      ],
      [
        "or",
        "d"
      ],
      [
        "Ġth",
        "rough"
      ],
      [
        "Ġc",
        "lass"
      ],
      [
        "ar",
        "ac"
      ],
      [
        "Ġin",
        "i"
      ],
      [
        "Ġof",
        "fer"
      ],
      [
        "tu",
        "al"
      ],
      [
        "Ġan",
        "y"
      ],
      [
        "Ġw",
        "ave"
      ],
      [
        "as",
        "is"
      ],
      [
        "Ġm",
        "ap"
      ],
      [
        "Ġm",
        "ulti"
      ],
      [
        "Ġm",
        "olec"
      ],
      [
        "om",
        "e"
      ],
      [
        "Ġre",
        "duc"
      ],
      [
        "Ġre",
        "co"
      ],
      [
        "et",
        "s"
      ],
      [
        "Ġl",
        "ine"
      ],
      [
        "tic",
        "les"
      ],
      [
        "Ġpro",
        "m"
      ],
      [
        "Ġg",
        "ate"
      ],
      [
        "si",
        "ve"
      ],
      [
        "ĠW",
        "ik"
      ],
      [
        "ĠC",
        "ont"
      ],
      [
        "par",
        "ation"
      ],
      [
        "ur",
        "al"
      ],
      [
        "Ġh",
        "y"
      ],
      [
        "iz",
        "ing"
      ],
      [
        "Ġex",
        "perim"
      ],
      [
        "ĠA",
        "s"
      ],
      [
        "res",
        "s"
      ],
      [
        "for",
        "d"
      ],
      [
        "Ġwh",
        "ere"
      ],
      [
        "Ġwh",
        "ile"
      ],
      [
        "Ġco",
        "st"
      ],
      [
        "Ġsp",
        "atial"
      ],
      [
        "Ġde",
        "vic"
      ],
      [
        "and",
        "ard"
      ],
      [
        "Ġcomput",
        "ational"
      ],
      [
        "Ġdi",
        "rect"
      ],
      [
        "ik",
        "e"
      ],
      [
        "val",
        "ue"
      ],
      [
        "Ġoper",
        "ations"
      ],
      [
        "low",
        "er"
      ],
      [
        "tr",
        "ue"
      ],
      [
        "upl",
        "ed"
      ],
      [
        "ati",
        "s"
      ],
      [
        "Ġanal",
        "y"
      ],
      [
        "Ġappro",
        "ach"
      ],
      [
        "Ġprob",
        "ability"
      ],
      [
        "Ġperform",
        "ance"
      ],
      [
        "Ġcomplex",
        "ity"
      ],
      [
        "Ġful",
        "l"
      ],
      [
        "Ġeff",
        "ect"
      ],
      [
        "Ġran",
        "dom"
      ],
      [
        "Ġdistrib",
        "ution"
      ],
      [
        "Ġsymmet",
        "ry"
      ],
      [
        "Ġmethod",
        "s"
      ],
      [
        "empl",
        "ate"
      ],
      [
        "oler",
        "ant"
      ],
      [
        "depend",
        "ent"
      ],
      [
        "fal",
        "se"
      ],
      [
        "lif",
        "ford"
      ],
      [
        "arac",
        "ter"
      ],
      [
        "+",
        "."
      ],
      [
        "1",
        "1"
      ],
      [
        "A",
        "P"
      ],
      [
        "J",
        "o"
      ],
      [
        "P",
        "age"
      ],
      [
        "]",
        ",\""
      ],
      [
        "a",
        "il"
      ],
      [
        "e",
        "v"
      ],
      [
        "f",
        "eature"
      ],
      [
        "g",
        "le"
      ],
      [
        "g",
        "ence"
      ],
      [
        "h",
        "n"
      ],
      [
        "j",
        "oint"
      ],
      [
        "l",
        "van"
      ],
      [
        "n",
        "one"
      ],
      [
        "o",
        "ver"
      ],
      [
        "p",
        "s"
      ],
      [
        "p",
        "res"
      ],
      [
        "t",
        "om"
      ],
      [
        "t",
        "her"
      ],
      [
        "u",
        "x"
      ],
      [
        "y",
        "lvan"
      ],
      [
        "}",
        "}"
      ],
      [
        "Ġ",
        "\""
      ],
      [
        "Ġ",
        "20"
      ],
      [
        "in",
        "c"
      ],
      [
        "en",
        "ns"
      ],
      [
        "re",
        "f"
      ],
      [
        "al",
        "e"
      ],
      [
        "or",
        "m"
      ],
      [
        "or",
        "s"
      ],
      [
        "Ġth",
        "ree"
      ],
      [
        "Ġs",
        "em"
      ],
      [
        "Ġs",
        "chem"
      ],
      [
        "Ġa",
        "ch"
      ],
      [
        "Ġa",
        "ct"
      ],
      [
        "Ġc",
        "l"
      ],
      [
        "Ġthe",
        "y"
      ],
      [
        "ed",
        "om"
      ],
      [
        "ro",
        "ad"
      ],
      [
        "Ġf",
        "ree"
      ],
      [
        "Ġd",
        "o"
      ],
      [
        "Ġin",
        "cre"
      ],
      [
        "Ġof",
        "ten"
      ],
      [
        "Ġm",
        "echan"
      ],
      [
        "Ġm",
        "emory"
      ],
      [
        "Ġm",
        "inim"
      ],
      [
        "Ġe",
        "fficient"
      ],
      [
        "ac",
        "es"
      ],
      [
        "ac",
        "tical"
      ],
      [
        "et",
        "her"
      ],
      [
        "em",
        "per"
      ],
      [
        "Ġg",
        "i"
      ],
      [
        "od",
        "el"
      ],
      [
        "id",
        "es"
      ],
      [
        "Ġst",
        "andard"
      ],
      [
        "si",
        "tive"
      ],
      [
        "ĠC",
        "on"
      ],
      [
        "ag",
        "es"
      ],
      [
        "ur",
        "ity"
      ],
      [
        "ĠA",
        "d"
      ],
      [
        "ĠA",
        "r"
      ],
      [
        "ri",
        "ption"
      ],
      [
        "ĠM",
        "o"
      ],
      [
        "og",
        "y"
      ],
      [
        "ass",
        "more"
      ],
      [
        "oc",
        "k"
      ],
      [
        "Ġal",
        "l"
      ],
      [
        "Ġch",
        "aracter"
      ],
      [
        "Ġde",
        "f"
      ],
      [
        "ĠB",
        "y"
      ],
      [
        "Ġinter",
        "action"
      ],
      [
        "if",
        "ic"
      ],
      [
        "ĠN",
        "on"
      ],
      [
        "Ġres",
        "ource"
      ],
      [
        "Ġtran",
        "sport"
      ],
      [
        "Ġro",
        "bust"
      ],
      [
        "Ġne",
        "ar"
      ],
      [
        "Ġdis",
        "c"
      ],
      [
        "Ġk",
        "ey"
      ],
      [
        "Ġcorre",
        "ction"
      ],
      [
        "upl",
        "ing"
      ],
      [
        "Ġsec",
        "urity"
      ],
      [
        "Ġext",
        "end"
      ],
      [
        "Ġcomm",
        "unication"
      ],
      [
        "Ġder",
        "ive"
      ],
      [
        "vol",
        "ution"
      ],
      [
        "Ġchan",
        "nel"
      ],
      [
        "Ġiden",
        "tif"
      ],
      [
        "yd",
        "berg"
      ],
      [
        "Jo",
        "hn"
      ],
      [
        "ylvan",
        "ia"
      ],
      [
        "enns",
        "ylvania"
      ],
      [
        "Ġach",
        "ie"
      ],
      [
        "N",
        "ame"
      ],
      [
        "b",
        "ed"
      ],
      [
        "c",
        "lassical"
      ],
      [
        "d",
        "en"
      ],
      [
        "h",
        "ead"
      ],
      [
        "m",
        "all"
      ],
      [
        "o",
        "sition"
      ],
      [
        "r",
        "im"
      ],
      [
        "t",
        "s"
      ],
      [
        "t",
        "olerant"
      ],
      [
        "v",
        "i"
      ],
      [
        "v",
        "ity"
      ],
      [
        "Ã",
        "©"
      ],
      [
        "Ġ",
        "Z"
      ],
      [
        "Ġ",
        "es"
      ],
      [
        "Ġ",
        "ra"
      ],
      [
        "re",
        "ferences"
      ],
      [
        "or",
        "ies"
      ],
      [
        "Ġs",
        "ize"
      ],
      [
        "it",
        "ec"
      ],
      [
        "at",
        "form"
      ],
      [
        "Ġthe",
        "ore"
      ],
      [
        "ro",
        "sc"
      ],
      [
        "Ġf",
        "amil"
      ],
      [
        "le",
        "ar"
      ],
      [
        "Ġd",
        "ri"
      ],
      [
        "Ġb",
        "ench"
      ],
      [
        "Ġqu",
        "es"
      ],
      [
        "Ġre",
        "f"
      ],
      [
        "Ġre",
        "cent"
      ],
      [
        "Ġre",
        "pres"
      ],
      [
        "ac",
        "y"
      ],
      [
        "ac",
        "tions"
      ],
      [
        "Ġl",
        "ight"
      ],
      [
        "tic",
        "s"
      ],
      [
        "Ġg",
        "ates"
      ],
      [
        "ly",
        "ing"
      ],
      [
        "si",
        "ze"
      ],
      [
        "ch",
        "itec"
      ],
      [
        "Ġcon",
        "ver"
      ],
      [
        "Ġcon",
        "di"
      ],
      [
        "ser",
        "v"
      ],
      [
        "pl",
        "ic"
      ],
      [
        "Ġwh",
        "ether"
      ],
      [
        "ĠR",
        "ydberg"
      ],
      [
        "tim",
        "es"
      ],
      [
        "Ġde",
        "pend"
      ],
      [
        "tical",
        "ly"
      ],
      [
        "if",
        "ied"
      ],
      [
        "op",
        "ic"
      ],
      [
        "Ġgener",
        "ator"
      ],
      [
        "Ġcont",
        "inu"
      ],
      [
        "Ġus",
        "e"
      ],
      [
        "av",
        "ity"
      ],
      [
        "Ġdec",
        "o"
      ],
      [
        "co",
        "un"
      ],
      [
        "Ġne",
        "ed"
      ],
      [
        "Ġma",
        "k"
      ],
      [
        "Ġsimul",
        "ations"
      ],
      [
        "Ġpo",
        "sitive"
      ],
      [
        "ip",
        "edia"
      ],
      [
        "Ġk",
        "nown"
      ],
      [
        "ard",
        "ware"
      ],
      [
        "Ġpr",
        "actical"
      ],
      [
        "Ġrequi",
        "res"
      ],
      [
        "br",
        "id"
      ],
      [
        "emp",
        "ty"
      ],
      [
        "Ġfunction",
        "s"
      ],
      [
        "Ġappro",
        "xim"
      ],
      [
        "eng",
        "th"
      ],
      [
        "Ġstr",
        "ong"
      ],
      [
        "Ġprotocol",
        "s"
      ],
      [
        "Ġchall",
        "eng"
      ],
      [
        "Ġpa",
        "per"
      ],
      [
        "Ġunit",
        "ary"
      ],
      [
        "Ġdesc",
        "ription"
      ],
      [
        "iver",
        "s"
      ],
      [
        "Ġnetwork",
        "s"
      ],
      [
        "Ġproper",
        "ties"
      ],
      [
        "ĠOp",
        "tim"
      ],
      [
        "client",
        "pref"
      ],
      [
        "Ġcent",
        "ral"
      ],
      [
        "Ġferm",
        "ions"
      ],
      [
        "que",
        "e"
      ],
      [
        "Ġdiff",
        "er"
      ],
      [
        "Ġfundam",
        "ental"
      ],
      [
        "mathb",
        "b"
      ],
      [
        "Ġdemonstr",
        "ate"
      ],
      [
        "$",
        "."
      ],
      [
        ")",
        ";"
      ],
      [
        ")",
        "{"
      ],
      [
        "1",
        "2"
      ],
      [
        "A",
        "r"
      ],
      [
        "I",
        "n"
      ],
      [
        "W",
        "AP"
      ],
      [
        "b",
        "el"
      ],
      [
        "b",
        "ra"
      ],
      [
        "d",
        "es"
      ],
      [
        "e",
        "ed"
      ],
      [
        "e",
        "qu"
      ],
      [
        "i",
        "er"
      ],
      [
        "i",
        "ble"
      ],
      [
        "l",
        "is"
      ],
      [
        "l",
        "ike"
      ],
      [
        "m",
        "it"
      ],
      [
        "n",
        "er"
      ],
      [
        "n",
        "ed"
      ],
      [
        "o",
        "ise"
      ],
      [
        "s",
        "kin"
      ],
      [
        "u",
        "ser"
      ],
      [
        "v",
        "ector"
      ],
      [
        "y",
        "ond"
      ],
      [
        "Ġ",
        "ul"
      ],
      [
        "Ġ",
        "ver"
      ],
      [
        "in",
        "s"
      ],
      [
        "in",
        "ary"
      ],
      [
        "er",
        "ed"
      ],
      [
        "ti",
        "z"
      ],
      [
        "en",
        "u"
      ],
      [
        "Ġs",
        "ide"
      ],
      [
        "Ġc",
        "ry"
      ],
      [
        "Ġthe",
        "ories"
      ],
      [
        "ar",
        "row"
      ],
      [
        "ic",
        "on"
      ],
      [
        "le",
        "vel"
      ],
      [
        "Ġd",
        "imension"
      ],
      [
        "Ġd",
        "ensity"
      ],
      [
        "Ġin",
        "f"
      ],
      [
        "Ġin",
        "clu"
      ],
      [
        "Ġw",
        "ay"
      ],
      [
        "as",
        "es"
      ],
      [
        "as",
        "box"
      ],
      [
        "ut",
        "e"
      ],
      [
        "Ġb",
        "os"
      ],
      [
        "Ġb",
        "road"
      ],
      [
        "Ġe",
        "ach"
      ],
      [
        "Ġe",
        "volution"
      ],
      [
        "ac",
        "u"
      ],
      [
        "ec",
        "tive"
      ],
      [
        "am",
        "p"
      ],
      [
        "am",
        "pl"
      ],
      [
        "Ġto",
        "pol"
      ],
      [
        "ol",
        "d"
      ],
      [
        "Ġpro",
        "of"
      ],
      [
        "Ġg",
        "roup"
      ],
      [
        "ĠT",
        "o"
      ],
      [
        "ĠT",
        "emplate"
      ],
      [
        "Ġst",
        "abilizer"
      ],
      [
        "Ġcon",
        "n"
      ],
      [
        "Ġcon",
        "struction"
      ],
      [
        "ĠC",
        "h"
      ],
      [
        "ĠS",
        "im"
      ],
      [
        "pl",
        "ay"
      ],
      [
        "Ġh",
        "ow"
      ],
      [
        "uc",
        "lear"
      ],
      [
        "Ġcom",
        "bin"
      ],
      [
        "ri",
        "v"
      ],
      [
        "ĠM",
        "ulti"
      ],
      [
        "og",
        "raph"
      ],
      [
        "Ġv",
        "al"
      ],
      [
        "Ġsu",
        "pp"
      ],
      [
        "Ġal",
        "so"
      ],
      [
        "ge",
        "bra"
      ],
      [
        "and",
        "ing"
      ],
      [
        "ap",
        "tive"
      ],
      [
        "ens",
        "e"
      ],
      [
        "ĠB",
        "o"
      ],
      [
        "Ġint",
        "eg"
      ],
      [
        "Ġinter",
        "actions"
      ],
      [
        "ric",
        "es"
      ],
      [
        "Ġtran",
        "sition"
      ],
      [
        "Ġdi",
        "ffic"
      ],
      [
        "Ġbe",
        "en"
      ],
      [
        "Ġbe",
        "yond"
      ],
      [
        "ynam",
        "ics"
      ],
      [
        "ry",
        "ption"
      ],
      [
        "abl",
        "es"
      ],
      [
        "up",
        "per"
      ],
      [
        "Ġle",
        "ad"
      ],
      [
        "Ġro",
        "t"
      ],
      [
        "ven",
        "tional"
      ],
      [
        "ĠU",
        "sing"
      ],
      [
        "Ġse",
        "ver"
      ],
      [
        "Ġr",
        "ad"
      ],
      [
        "Ġenc",
        "oding"
      ],
      [
        "Ġbound",
        "s"
      ],
      [
        "Ġlimit",
        "ed"
      ],
      [
        "line",
        "ar"
      ],
      [
        "pol",
        "itician"
      ],
      [
        "emp",
        "or"
      ],
      [
        "Ġsol",
        "id"
      ],
      [
        "Ġsign",
        "al"
      ],
      [
        "Ġab",
        "s"
      ],
      [
        "Ġprov",
        "ide"
      ],
      [
        "Ġprov",
        "ides"
      ],
      [
        "Ġprocess",
        "ing"
      ],
      [
        "Ġy",
        "et"
      ],
      [
        "Ġequ",
        "ations"
      ],
      [
        "Ġparamet",
        "er"
      ],
      [
        "Ġgeomet",
        "ric"
      ],
      [
        "Ġini",
        "tial"
      ],
      [
        "Ġdevic",
        "es"
      ],
      [
        "ref",
        "list"
      ],
      [
        "orm",
        "al"
      ],
      [
        "rim",
        "in"
      ],
      [
        "Ġes",
        "tim"
      ],
      [
        "rosc",
        "opic"
      ],
      [
        "Ġrepres",
        "ent"
      ],
      [
        "Ġcontinu",
        "ous"
      ],
      [
        "quee",
        "z"
      ],
      [
        "bel",
        "ian"
      ],
      [
        "Ġdiffic",
        "ult"
      ],
      [
        "4",
        "0"
      ],
      [
        "K",
        "D"
      ],
      [
        "^",
        "{"
      ],
      [
        "c",
        "lass"
      ],
      [
        "f",
        "ree"
      ],
      [
        "i",
        "re"
      ],
      [
        "i",
        "ated"
      ],
      [
        "l",
        "i"
      ],
      [
        "o",
        "per"
      ],
      [
        "r",
        "ated"
      ],
      [
        "w",
        "w"
      ],
      [
        "y",
        "stem"
      ],
      [
        "Ġ",
        "#"
      ],
      [
        "in",
        "line"
      ],
      [
        "er",
        "tif"
      ],
      [
        "an",
        "eous"
      ],
      [
        "Ġt",
        "ra"
      ],
      [
        "Ġt",
        "emper"
      ],
      [
        "en",
        "ge"
      ],
      [
        "al",
        "ph"
      ],
      [
        "Ġs",
        "um"
      ],
      [
        "Ġs",
        "ame"
      ],
      [
        "Ġc",
        "avity"
      ],
      [
        "is",
        "sion"
      ],
      [
        "Ġp",
        "os"
      ],
      [
        "ro",
        "ss"
      ],
      [
        "Ġf",
        "ault"
      ],
      [
        "Ġd",
        "l"
      ],
      [
        "tu",
        "r"
      ],
      [
        "as",
        "ure"
      ],
      [
        "Ġm",
        "e"
      ],
      [
        "Ġm",
        "o"
      ],
      [
        "Ġm",
        "ay"
      ],
      [
        "Ġb",
        "i"
      ],
      [
        "Ġb",
        "asis"
      ],
      [
        "om",
        "en"
      ],
      [
        "om",
        "ic"
      ],
      [
        "st",
        "anding"
      ],
      [
        "im",
        "port"
      ],
      [
        "ul",
        "es"
      ],
      [
        "el",
        "t"
      ],
      [
        "el",
        "ity"
      ],
      [
        "Ġl",
        "ong"
      ],
      [
        "em",
        "ent"
      ],
      [
        "Ġg",
        "round"
      ],
      [
        "od",
        "ed"
      ],
      [
        "id",
        "elity"
      ],
      [
        "si",
        "ble"
      ],
      [
        "ir",
        "on"
      ],
      [
        "ow",
        "er"
      ],
      [
        "ag",
        "onal"
      ],
      [
        "Ġex",
        "plo"
      ],
      [
        "Ġwith",
        "out"
      ],
      [
        "ri",
        "e"
      ],
      [
        "ri",
        "um"
      ],
      [
        "ect",
        "ed"
      ],
      [
        "ĠP",
        "h"
      ],
      [
        "ĠP",
        "ennsylvania"
      ],
      [
        "ran",
        "s"
      ],
      [
        "Ġwh",
        "en"
      ],
      [
        "Ġv",
        "acu"
      ],
      [
        "ĠR",
        "e"
      ],
      [
        "ĠR",
        "es"
      ],
      [
        "ĠR",
        "ec"
      ],
      [
        "rom",
        "an"
      ],
      [
        "ĠE",
        "r"
      ],
      [
        "ĠD",
        "et"
      ],
      [
        "her",
        "ence"
      ],
      [
        "Ġinter",
        "f"
      ],
      [
        "wg",
        "C"
      ],
      [
        "duc",
        "ting"
      ],
      [
        "Ġus",
        "es"
      ],
      [
        "Ġad",
        "di"
      ],
      [
        "Ġsc",
        "atter"
      ],
      [
        "ĠG",
        "ener"
      ],
      [
        "ys",
        "is"
      ],
      [
        "Ġdynam",
        "ical"
      ],
      [
        "Ġoper",
        "ators"
      ],
      [
        "Ġma",
        "xim"
      ],
      [
        "20",
        "2"
      ],
      [
        "Ġprop",
        "osed"
      ],
      [
        "Ġpo",
        "st"
      ],
      [
        "Ġpr",
        "inc"
      ],
      [
        "Ġfield",
        "s"
      ],
      [
        "Ġob",
        "tain"
      ],
      [
        "Ġtrans",
        "form"
      ],
      [
        "ark",
        "ov"
      ],
      [
        "sty",
        "les"
      ],
      [
        "Ġreg",
        "ime"
      ],
      [
        "sc",
        "ale"
      ],
      [
        "Ġlow",
        "er"
      ],
      [
        "Ġelect",
        "ron"
      ],
      [
        "con",
        "ducting"
      ],
      [
        "col",
        "um"
      ],
      [
        "Ġphot",
        "ons"
      ],
      [
        "Ġset",
        "ting"
      ],
      [
        "Ġmag",
        "netic"
      ],
      [
        "Ġchall",
        "enge"
      ],
      [
        "dis",
        "play"
      ],
      [
        "Ġmat",
        "rices"
      ],
      [
        "Ġsuper",
        "conducting"
      ],
      [
        "Ġcons",
        "ist"
      ],
      [
        "Ġmi",
        "xed"
      ],
      [
        "ĠWh",
        "ile"
      ],
      [
        "Ġexcit",
        "ation"
      ],
      [
        "ymmet",
        "ric"
      ],
      [
        "Ġmolec",
        "ular"
      ],
      [
        "Ġprom",
        "ising"
      ],
      [
        "Ġeffect",
        "s"
      ],
      [
        "Ġschem",
        "e"
      ],
      [
        "Ġdisc",
        "rimin"
      ],
      [
        "Ġidentif",
        "y"
      ],
      [
        "Ġfamil",
        "y"
      ],
      [
        "Ġbench",
        "mark"
      ],
      [
        "Ġques",
        "tion"
      ],
      [
        "plic",
        "it"
      ],
      [
        "Ġdeco",
        "herence"
      ],
      [
        "ivers",
        "al"
      ],
      [
        "Ġtopol",
        "ogical"
      ],
      [
        "ograph",
        "y"
      ],
      [
        "empor",
        "al"
      ],
      [
        "alph",
        "a"
      ],
      [
        "(",
        "\\"
      ],
      [
        "1",
        "8"
      ],
      [
        ":",
        "\""
      ],
      [
        "D",
        "A"
      ],
      [
        "L",
        "anguage"
      ],
      [
        "O",
        "M"
      ],
      [
        "R",
        "L"
      ],
      [
        "S",
        "Q"
      ],
      [
        "b",
        "il"
      ],
      [
        "c",
        "al"
      ],
      [
        "c",
        "om"
      ],
      [
        "c",
        "ill"
      ],
      [
        "e",
        "fficient"
      ],
      [
        "f",
        "ul"
      ],
      [
        "g",
        "ree"
      ],
      [
        "l",
        "u"
      ],
      [
        "l",
        "og"
      ],
      [
        "l",
        "ocal"
      ],
      [
        "m",
        "box"
      ],
      [
        "m",
        "edia"
      ],
      [
        "n",
        "ame"
      ],
      [
        "o",
        "ch"
      ],
      [
        "p",
        "ing"
      ],
      [
        "p",
        "th"
      ],
      [
        "p",
        "ically"
      ],
      [
        "r",
        "um"
      ],
      [
        "s",
        "on"
      ],
      [
        "t",
        "op"
      ],
      [
        "u",
        "al"
      ],
      [
        "u",
        "ild"
      ],
      [
        "w",
        "ay"
      ],
      [
        "y",
        "m"
      ],
      [
        "Ġ",
        "6"
      ],
      [
        "Ġ",
        "J"
      ],
      [
        "Ġ",
        "["
      ],
      [
        "Ġ",
        "up"
      ],
      [
        "on",
        "ical"
      ],
      [
        "er",
        "ing"
      ],
      [
        "Ġt",
        "y"
      ],
      [
        "Ġt",
        "as"
      ],
      [
        "Ġt",
        "erm"
      ],
      [
        "en",
        "der"
      ],
      [
        "re",
        "es"
      ],
      [
        "re",
        "ak"
      ],
      [
        "al",
        "le"
      ],
      [
        "or",
        "g"
      ],
      [
        "Ġs",
        "ampl"
      ],
      [
        "Ġs",
        "queez"
      ],
      [
        "Ġc",
        "y"
      ],
      [
        "Ġc",
        "ar"
      ],
      [
        "Ġc",
        "ertif"
      ],
      [
        "at",
        "ch"
      ],
      [
        "Ġp",
        "ower"
      ],
      [
        "ic",
        "ations"
      ],
      [
        "Ġf",
        "oc"
      ],
      [
        "le",
        "ction"
      ],
      [
        "tu",
        "res"
      ],
      [
        "tu",
        "ations"
      ],
      [
        "Ġan",
        "cill"
      ],
      [
        "Ġm",
        "ess"
      ],
      [
        "Ġm",
        "ore"
      ],
      [
        "Ġm",
        "ost"
      ],
      [
        "ent",
        "ly"
      ],
      [
        "ent",
        "ally"
      ],
      [
        "Ġb",
        "ec"
      ],
      [
        "Ġb",
        "atter"
      ],
      [
        "Ġre",
        "st"
      ],
      [
        "Ġre",
        "tain"
      ],
      [
        "im",
        "es"
      ],
      [
        "Ġe",
        "ven"
      ],
      [
        "Ġe",
        "valu"
      ],
      [
        "am",
        "s"
      ],
      [
        "un",
        "c"
      ],
      [
        "Ġl",
        "ab"
      ],
      [
        "Ġn",
        "at"
      ],
      [
        "ol",
        "ogical"
      ],
      [
        "il",
        "ib"
      ],
      [
        "Ġpro",
        "g"
      ],
      [
        "ab",
        "atic"
      ],
      [
        "ĠT",
        "ime"
      ],
      [
        "Ġst",
        "e"
      ],
      [
        "Ġst",
        "or"
      ],
      [
        "si",
        "an"
      ],
      [
        "ch",
        "an"
      ],
      [
        "Ġcon",
        "struc"
      ],
      [
        "ag",
        "netic"
      ],
      [
        "ĠS",
        "U"
      ],
      [
        "ĠS",
        "WAP"
      ],
      [
        "ist",
        "ing"
      ],
      [
        "ig",
        "ur"
      ],
      [
        "ur",
        "r"
      ],
      [
        "Ġh",
        "ardware"
      ],
      [
        "uc",
        "tuations"
      ],
      [
        "Ġwith",
        "in"
      ],
      [
        "ĠA",
        "l"
      ],
      [
        "ĠM",
        "ont"
      ],
      [
        "ĠM",
        "odel"
      ],
      [
        "ĠM",
        "arkov"
      ],
      [
        "ĠTh",
        "ese"
      ],
      [
        "ĠQu",
        "bit"
      ],
      [
        "ot",
        "s"
      ],
      [
        "ĠP",
        "ar"
      ],
      [
        "ĠP",
        "assmore"
      ],
      [
        "ran",
        "gle"
      ],
      [
        "Ġco",
        "ver"
      ],
      [
        "oc",
        "iated"
      ],
      [
        "ĠR",
        "and"
      ],
      [
        "ex",
        "tual"
      ],
      [
        "ĠD",
        "e"
      ],
      [
        "ĠD",
        "i"
      ],
      [
        "Ġsy",
        "n"
      ],
      [
        "Ġch",
        "ain"
      ],
      [
        "and",
        "id"
      ],
      [
        "ĠL",
        "ind"
      ],
      [
        "Ġnon",
        "linear"
      ],
      [
        "wg",
        "R"
      ],
      [
        "Ġop",
        "en"
      ],
      [
        "Ġmod",
        "es"
      ],
      [
        "act",
        "ing"
      ],
      [
        "ĠN",
        "etwork"
      ],
      [
        "ĠN",
        "oise"
      ],
      [
        "Ġus",
        "ed"
      ],
      [
        "Ġar",
        "chitec"
      ],
      [
        "Ġle",
        "vel"
      ],
      [
        "Ġfi",
        "xed"
      ],
      [
        "Ġpre",
        "dic"
      ],
      [
        "Ġdec",
        "ay"
      ],
      [
        "Ġdec",
        "omp"
      ],
      [
        "ach",
        "ine"
      ],
      [
        "Ġdis",
        "order"
      ],
      [
        "int",
        "s"
      ],
      [
        "Ġse",
        "qu"
      ],
      [
        "Ġse",
        "par"
      ],
      [
        "Ġdist",
        "in"
      ],
      [
        "Ġac",
        "cur"
      ],
      [
        "Ġpres",
        "ence"
      ],
      [
        "arg",
        "et"
      ],
      [
        "ole",
        "an"
      ],
      [
        "Ġenc",
        "ryption"
      ],
      [
        "Ġdet",
        "ermin"
      ],
      [
        "Ġscal",
        "ing"
      ],
      [
        "Ġoptim",
        "ization"
      ],
      [
        "Ġsign",
        "ific"
      ],
      [
        "Ġimplement",
        "ations"
      ],
      [
        "Ġpl",
        "atform"
      ],
      [
        "Ġgeneral",
        "ized"
      ],
      [
        "col",
        "or"
      ],
      [
        "Ġphot",
        "on"
      ],
      [
        "ĠEn",
        "c"
      ],
      [
        "Ġsub",
        "s"
      ],
      [
        "rad",
        "ient"
      ],
      [
        "rain",
        "ed"
      ],
      [
        "Ġass",
        "ociated"
      ],
      [
        "Ġspect",
        "ral"
      ],
      [
        "bl",
        "ad"
      ],
      [
        "Ġfl",
        "uctuations"
      ],
      [
        "ĠSp",
        "in"
      ],
      [
        "Ġresult",
        "s"
      ],
      [
        "Ġcorrel",
        "ations"
      ],
      [
        "Ġmajor",
        "ization"
      ],
      [
        "Ġtechn",
        "i"
      ],
      [
        "Ġfre",
        "edom"
      ],
      [
        "\":[",
        "\""
      ],
      [
        "ĠCar",
        "lo"
      ],
      [
        "Ġdeg",
        "rees"
      ],
      [
        "ĠWik",
        "ipedia"
      ],
      [
        "atis",
        "tics"
      ],
      [
        "Ġincre",
        "asing"
      ],
      [
        "Ġminim",
        "um"
      ],
      [
        "Ġgi",
        "ven"
      ],
      [
        "bed",
        "d"
      ],
      [
        "Ġcry",
        "st"
      ],
      [
        "ĠBo",
        "olean"
      ],
      [
        "Ġsever",
        "al"
      ],
      [
        "rans",
        "form"
      ],
      [
        "Ġvacu",
        "um"
      ],
      [
        "Ġscatter",
        "ing"
      ],
      [
        "Ġprinc",
        "i"
      ],
      [
        "bil",
        "ity"
      ],
      [
        "alle",
        "l"
      ],
      [
        "Ġfoc",
        "us"
      ],
      [
        "Ġancill",
        "a"
      ],
      [
        "ilib",
        "rium"
      ],
      [
        "ĠMont",
        "e"
      ],
      [
        "ĠRand",
        "om"
      ],
      [
        "ĠLind",
        "blad"
      ],
      [
        "Ġsignific",
        "ant"
      ],
      [
        "\"",
        "},\""
      ],
      [
        "\"",
        "],\""
      ],
      [
        ")",
        "."
      ],
      [
        "1",
        "00"
      ],
      [
        "2",
        "7"
      ],
      [
        "5",
        "00"
      ],
      [
        "7",
        "1"
      ],
      [
        "C",
        "lifford"
      ],
      [
        "D",
        "P"
      ],
      [
        "I",
        "d"
      ],
      [
        "M",
        "s"
      ],
      [
        "Q",
        "P"
      ],
      [
        "U",
        "ser"
      ],
      [
        "_",
        "{\\"
      ],
      [
        "a",
        "w"
      ],
      [
        "c",
        "le"
      ],
      [
        "c",
        "tive"
      ],
      [
        "f",
        "re"
      ],
      [
        "f",
        "ield"
      ],
      [
        "g",
        "roup"
      ],
      [
        "h",
        "i"
      ],
      [
        "h",
        "tt"
      ],
      [
        "i",
        "v"
      ],
      [
        "i",
        "um"
      ],
      [
        "i",
        "form"
      ],
      [
        "i",
        "ence"
      ],
      [
        "m",
        "o"
      ],
      [
        "m",
        "s"
      ],
      [
        "m",
        "er"
      ],
      [
        "m",
        "an"
      ],
      [
        "m",
        "ed"
      ],
      [
        "n",
        "y"
      ],
      [
        "p",
        "id"
      ],
      [
        "p",
        "age"
      ],
      [
        "p",
        "ond"
      ],
      [
        "r",
        "it"
      ],
      [
        "r",
        "ight"
      ],
      [
        "t",
        "l"
      ],
      [
        "t",
        "ex"
      ],
      [
        "u",
        "le"
      ],
      [
        "u",
        "tions"
      ],
      [
        "u",
        "ish"
      ],
      [
        "v",
        "ail"
      ],
      [
        "}",
        "("
      ],
      [
        "}",
        ","
      ],
      [
        "}",
        ");"
      ],
      [
        "Î",
        "´"
      ],
      [
        "Ġ",
        "0"
      ],
      [
        "Ġ",
        "3"
      ],
      [
        "Ġ",
        "4"
      ],
      [
        "Ġ",
        "u"
      ],
      [
        "Ġ",
        "end"
      ],
      [
        "Ġ",
        "joint"
      ],
      [
        "in",
        "ed"
      ],
      [
        "on",
        "ential"
      ],
      [
        "er",
        "ror"
      ],
      [
        "an",
        "sion"
      ],
      [
        "ti",
        "tion"
      ],
      [
        "ti",
        "vity"
      ],
      [
        "al",
        "ing"
      ],
      [
        "Ġth",
        "an"
      ],
      [
        "Ġth",
        "en"
      ],
      [
        "Ġth",
        "ere"
      ],
      [
        "Ġs",
        "o"
      ],
      [
        "Ġs",
        "ur"
      ],
      [
        "Ġs",
        "mall"
      ],
      [
        "Ġc",
        "ase"
      ],
      [
        "Ġc",
        "andid"
      ],
      [
        "it",
        "u"
      ],
      [
        "it",
        "ed"
      ],
      [
        "at",
        "ures"
      ],
      [
        "is",
        "ed"
      ],
      [
        "is",
        "ion"
      ],
      [
        "Ġp",
        "ot"
      ],
      [
        "ic",
        "k"
      ],
      [
        "Ġf",
        "act"
      ],
      [
        "le",
        "ctive"
      ],
      [
        "Ġd",
        "imensional"
      ],
      [
        "qu",
        "ency"
      ],
      [
        "Ġin",
        "st"
      ],
      [
        "Ġin",
        "ver"
      ],
      [
        "Ġin",
        "dependent"
      ],
      [
        "Ġw",
        "as"
      ],
      [
        "as",
        "ter"
      ],
      [
        "Ġb",
        "it"
      ],
      [
        "Ġqu",
        "ery"
      ],
      [
        "Ġe",
        "v"
      ],
      [
        "Ġe",
        "ig"
      ],
      [
        "ac",
        "ity"
      ],
      [
        "ec",
        "ial"
      ],
      [
        "ul",
        "s"
      ],
      [
        "ul",
        "ating"
      ],
      [
        "Ġl",
        "in"
      ],
      [
        "Ġl",
        "og"
      ],
      [
        "Ġn",
        "uclear"
      ],
      [
        "il",
        "i"
      ],
      [
        "Ġpro",
        "duct"
      ],
      [
        "Ġg",
        "ap"
      ],
      [
        "Ġg",
        "radient"
      ],
      [
        "id",
        "ata"
      ],
      [
        "id",
        "den"
      ],
      [
        "si",
        "tions"
      ],
      [
        "Ġcon",
        "ventional"
      ],
      [
        "ir",
        "ac"
      ],
      [
        "ĠC",
        "ircu"
      ],
      [
        "ĠC",
        "lifford"
      ],
      [
        "par",
        "tit"
      ],
      [
        "ag",
        "n"
      ],
      [
        "ĠS",
        "u"
      ],
      [
        "ĠS",
        "ear"
      ],
      [
        "ser",
        "ving"
      ],
      [
        "ad",
        "g"
      ],
      [
        "Ġh",
        "owever"
      ],
      [
        "Ġex",
        "plicit"
      ],
      [
        "Ġcom",
        "par"
      ],
      [
        "ĠA",
        "pp"
      ],
      [
        "ri",
        "x"
      ],
      [
        "ĠM",
        "ac"
      ],
      [
        "ĠM",
        "et"
      ],
      [
        "res",
        "pond"
      ],
      [
        "ĠH",
        "igh"
      ],
      [
        "ot",
        "on"
      ],
      [
        "Ġco",
        "upled"
      ],
      [
        "ĠR",
        "et"
      ],
      [
        "ĠR",
        "Ã©"
      ],
      [
        "ĠF",
        "irst"
      ],
      [
        "ĠF",
        "ault"
      ],
      [
        "ĠD",
        "ec"
      ],
      [
        "ens",
        "ing"
      ],
      [
        "fer",
        "omet"
      ],
      [
        "ĠL",
        "anc"
      ],
      [
        "ĠB",
        "ound"
      ],
      [
        "Ġgener",
        "ation"
      ],
      [
        "Ġgener",
        "ate"
      ],
      [
        "wg",
        "Page"
      ],
      [
        "Ġun",
        "iversal"
      ],
      [
        "Ġmod",
        "e"
      ],
      [
        "Ġcont",
        "ain"
      ],
      [
        "Ġsh",
        "if"
      ],
      [
        "Ġres",
        "p"
      ],
      [
        "Ġres",
        "on"
      ],
      [
        "Ġres",
        "ol"
      ],
      [
        "Ġres",
        "ources"
      ],
      [
        "Ġor",
        "ac"
      ],
      [
        "ang",
        "led"
      ],
      [
        "our",
        "ier"
      ],
      [
        "lect",
        "ed"
      ],
      [
        "vel",
        "y"
      ],
      [
        "Ġ1",
        "8"
      ],
      [
        "Ġpre",
        "paration"
      ],
      [
        "rol",
        "ogy"
      ],
      [
        "Ġdis",
        "cre"
      ],
      [
        "qui",
        "val"
      ],
      [
        "Ġer",
        "asure"
      ],
      [
        "Ġcor",
        "respond"
      ],
      [
        "Ġprop",
        "ag"
      ],
      [
        "we",
        "ight"
      ],
      [
        "Ġenc",
        "oded"
      ],
      [
        "Ġunder",
        "lying"
      ],
      [
        "Ġpr",
        "im"
      ],
      [
        "lo",
        "b"
      ],
      [
        "Ġscal",
        "ar"
      ],
      [
        "Ġtrans",
        "m"
      ],
      [
        "ĠSt",
        "ate"
      ],
      [
        "Ġsec",
        "ure"
      ],
      [
        "row",
        "ave"
      ],
      [
        "Ġcoher",
        "ence"
      ],
      [
        "rad",
        "e"
      ],
      [
        "Ġequ",
        "ation"
      ],
      [
        "Ġparamet",
        "ers"
      ],
      [
        "Ġestablish",
        "ed"
      ],
      [
        "Ġpa",
        "ir"
      ],
      [
        "Ġspect",
        "rum"
      ],
      [
        "Ġdesc",
        "rib"
      ],
      [
        "Ġappl",
        "ication"
      ],
      [
        "Ġcons",
        "id"
      ],
      [
        "aus",
        "sian"
      ],
      [
        "Ġcol",
        "lective"
      ],
      [
        "Ġconst",
        "ra"
      ],
      [
        "Ġconst",
        "ant"
      ],
      [
        "Ġtherm",
        "al"
      ],
      [
        "Ġtherm",
        "od"
      ],
      [
        "Ġam",
        "ong"
      ],
      [
        "Ġreco",
        "very"
      ],
      [
        "Ġline",
        "ar"
      ],
      [
        "Ġhy",
        "per"
      ],
      [
        "Ġhy",
        "brid"
      ],
      [
        "Ġ20",
        "25"
      ],
      [
        "Ġdo",
        "es"
      ],
      [
        "Ġrobust",
        "ness"
      ],
      [
        "vi",
        "ous"
      ],
      [
        "Ġra",
        "pid"
      ],
      [
        "Ar",
        "ticle"
      ],
      [
        "Ġsupp",
        "ort"
      ],
      [
        "Ġlead",
        "ing"
      ],
      [
        "Ġrepresent",
        "ation"
      ],
      [
        "ĠDet",
        "ermin"
      ],
      [
        "Ġaddi",
        "tional"
      ],
      [
        "Ġsetting",
        "s"
      ],
      [
        "Ġty",
        "pically"
      ],
      [
        "Ġterm",
        "s"
      ],
      [
        "reak",
        "ing"
      ],
      [
        "Ġsampl",
        "ing"
      ],
      [
        "Ġbatter",
        "ies"
      ],
      [
        "Ġrest",
        "ric"
      ],
      [
        "Ġnat",
        "ural"
      ],
      [
        "ĠMarkov",
        "ian"
      ],
      [
        "extual",
        "ity"
      ],
      [
        "ĠEnc",
        "oding"
      ],
      [
        "ny",
        "i"
      ],
      [
        "Ġpot",
        "ential"
      ],
      [
        "partit",
        "e"
      ],
      [
        "ĠSear",
        "ch"
      ],
      [
        "ĠRÃ©",
        "nyi"
      ],
      [
        "ĠLanc",
        "aster"
      ],
      [
        "$",
        "("
      ],
      [
        "$",
        ")"
      ],
      [
        ")",
        "\",\""
      ],
      [
        "-",
        "\\"
      ],
      [
        "1",
        "6"
      ],
      [
        "5",
        "2"
      ],
      [
        "7",
        "0"
      ],
      [
        "8",
        "40"
      ],
      [
        "9",
        "6"
      ],
      [
        ":",
        "-"
      ],
      [
        ":",
        "\\/"
      ],
      [
        "A",
        "M"
      ],
      [
        "G",
        "F"
      ],
      [
        "I",
        "s"
      ],
      [
        "L",
        "S"
      ],
      [
        "O",
        "r"
      ],
      [
        "P",
        "ro"
      ],
      [
        "Q",
        "C"
      ],
      [
        "S",
        "S"
      ],
      [
        "S",
        "h"
      ],
      [
        "W",
        "ill"
      ],
      [
        "Y",
        "K"
      ],
      [
        "]",
        "{"
      ],
      [
        "a",
        "ware"
      ],
      [
        "c",
        "d"
      ],
      [
        "c",
        "el"
      ],
      [
        "c",
        "ircu"
      ],
      [
        "c",
        "ise"
      ],
      [
        "d",
        "ate"
      ],
      [
        "d",
        "ens"
      ],
      [
        "d",
        "ensity"
      ],
      [
        "d",
        "ata"
      ],
      [
        "e",
        "le"
      ],
      [
        "e",
        "ore"
      ],
      [
        "e",
        "lect"
      ],
      [
        "f",
        "r"
      ],
      [
        "g",
        "an"
      ],
      [
        "g",
        "ain"
      ],
      [
        "g",
        "raph"
      ],
      [
        "h",
        "ot"
      ],
      [
        "h",
        "anc"
      ],
      [
        "i",
        "ti"
      ],
      [
        "i",
        "ation"
      ],
      [
        "i",
        "able"
      ],
      [
        "i",
        "ties"
      ],
      [
        "i",
        "ams"
      ],
      [
        "i",
        "abatic"
      ],
      [
        "k",
        "nown"
      ],
      [
        "l",
        "ap"
      ],
      [
        "l",
        "anguage"
      ],
      [
        "l",
        "ock"
      ],
      [
        "n",
        "ot"
      ],
      [
        "o",
        "x"
      ],
      [
        "p",
        "t"
      ],
      [
        "p",
        "ad"
      ],
      [
        "p",
        "are"
      ],
      [
        "q",
        "r"
      ],
      [
        "r",
        "ins"
      ],
      [
        "s",
        "ymmetric"
      ],
      [
        "s",
        "hot"
      ],
      [
        "s",
        "qr"
      ],
      [
        "u",
        "b"
      ],
      [
        "u",
        "es"
      ],
      [
        "v",
        "iron"
      ],
      [
        "x",
        "ing"
      ],
      [
        "z",
        "er"
      ],
      [
        "}",
        "\\"
      ],
      [
        "}",
        ")$"
      ],
      [
        "Â",
        "·"
      ],
      [
        "Ï",
        "Ģ"
      ],
      [
        "Ġ",
        "="
      ],
      [
        "Ġ",
        "ed"
      ],
      [
        "Ġ",
        "Â·"
      ],
      [
        "in",
        "ter"
      ],
      [
        "on",
        "struction"
      ],
      [
        "on",
        "ium"
      ],
      [
        "er",
        "g"
      ],
      [
        "er",
        "ies"
      ],
      [
        "er",
        "ner"
      ],
      [
        "Ġt",
        "rain"
      ],
      [
        "Ġt",
        "imes"
      ],
      [
        "Ġt",
        "arget"
      ],
      [
        "ti",
        "l"
      ],
      [
        "ti",
        "ty"
      ],
      [
        "en",
        "eck"
      ],
      [
        "en",
        "sive"
      ],
      [
        "al",
        "ign"
      ],
      [
        "Ġs",
        "en"
      ],
      [
        "Ġs",
        "qu"
      ],
      [
        "Ġs",
        "ource"
      ],
      [
        "Ġs",
        "ources"
      ],
      [
        "Ġs",
        "ensing"
      ],
      [
        "Ġa",
        "vail"
      ],
      [
        "Ġa",
        "gain"
      ],
      [
        "Ġc",
        "urr"
      ],
      [
        "it",
        "ing"
      ],
      [
        "es",
        "p"
      ],
      [
        "es",
        "is"
      ],
      [
        "Ġthe",
        "m"
      ],
      [
        "Ġo",
        "ther"
      ],
      [
        "is",
        "es"
      ],
      [
        "is",
        "ter"
      ],
      [
        "ing",
        "uish"
      ],
      [
        "ar",
        "ch"
      ],
      [
        "ar",
        "ting"
      ],
      [
        "Ġp",
        "ur"
      ],
      [
        "Ġp",
        "ure"
      ],
      [
        "Ġf",
        "e"
      ],
      [
        "Ġf",
        "ind"
      ],
      [
        "Ġf",
        "idelity"
      ],
      [
        "Ġd",
        "om"
      ],
      [
        "Ġd",
        "ue"
      ],
      [
        "Ġd",
        "ata"
      ],
      [
        "Ġd",
        "ots"
      ],
      [
        "Ġin",
        "d"
      ],
      [
        "Ġin",
        "vol"
      ],
      [
        "tu",
        "b"
      ],
      [
        "Ġw",
        "ell"
      ],
      [
        "as",
        "i"
      ],
      [
        "as",
        "tic"
      ],
      [
        "Ġm",
        "on"
      ],
      [
        "Ġm",
        "eas"
      ],
      [
        "Ġm",
        "achine"
      ],
      [
        "Ġb",
        "inary"
      ],
      [
        "Ġre",
        "ve"
      ],
      [
        "im",
        "edia"
      ],
      [
        "Ġe",
        "quival"
      ],
      [
        "ac",
        "ed"
      ],
      [
        "un",
        "e"
      ],
      [
        "un",
        "ter"
      ],
      [
        "ul",
        "ations"
      ],
      [
        "Ġl",
        "if"
      ],
      [
        "Ġl",
        "aw"
      ],
      [
        "tic",
        "ular"
      ],
      [
        "il",
        "ber"
      ],
      [
        "Ġpro",
        "j"
      ],
      [
        "Ġpro",
        "duc"
      ],
      [
        "Ġpro",
        "ject"
      ],
      [
        "Ġg",
        "o"
      ],
      [
[...]
