{"<|pad|>":0,"<|bos|>":1,"<|eos|>":2,"<|en|>":3,"!":4,"\"":5,"#":6,"$":7,"%":8,"&":9,"'":10,"(":11,")":12,"*":13,"+":14,",":15,"-":16,".":17,"/":18,"0":19,"1":20,"2":21,"3":22,"4":23,"5":24,"6":25,"7":26,"8":27,"9":28,":":29,";":30,"<":31,"=":32,">":33,"?":34,"@":35,"A":36,"B":37,"C":38,"D":39,"E":40,"F":41,"G":42,"H":43,"I":44,"J":45,"K":46,"L":47,"M":48,"N":49,"O":50,"P":51,"Q":52,"R":53,"S":54,"T":55,"U":56,"V":57,"W":58,"X":59,"Y":60,"Z":61,"[":62,"\\":63,"]":64,"^":65,"_":66,"`":67,"a":68,"b":69,"c":70,"d":71,"e":72,"f":73,"g":74,"h":75,"i":76,"j":77,"k":78,"l":79,"m":80,"n":81,"o":82,"p":83,"q":84,"r":85,"s":86,"t":87,"u":88,"v":89,"w":90,"x":91,"y":92,"z":93,"{":94,"|":95,"}":96,"~":97,"¡":98,"¢":99,"£":100,"¤":101,"¥":102,"¦":103,"§":104,"¨":105,"©":106,"ª":107,"«":108,"¬":109,"®":110,"¯":111,"°":112,"±":113,"²":114,"³":115,"´":116,"µ":117,"¶":118,"·":119,"¸":120,"¹":121,"º":122,"»":123,"¼":124,"½":125,"¾":126,"¿":127,"À":128,"Á":129,"Â":130,"Ã":131,"Ä":132,"Å":133,"Æ":134,"Ç":135,"È":136,"É":137,"Ê":138,"Ë":139,"Ì":140,"Í":141,"Î":142,"Ï":143,"Ð":144,"Ñ":145,"Ò":146,"Ó":147,"Ô":148,"Õ":149,"Ö":150,"×":151,"Ø":152,"Ù":153,"Ú":154,"Û":155,"Ü":156,"Ý":157,"Þ":158,"ß":159,"à":160,"á":161,"â":162,"ã":163,"ä":164,"å":165,"æ":166,"ç":167,"è":168,"é":169,"ê":170,"ë":171,"ì":172,"í":173,"î":174,"ï":175,"ð":176,"ñ":177,"ò":178,"ó":179,"ô":180,"õ":181,"ö":182,"÷":183,"ø":184,"ù":185,"ú":186,"û":187,"ü":188,"ý":189,"þ":190,"ÿ":191,"Ā":192,"ā":193,"Ă":194,"ă":195,"Ą":196,"ą":197,"Ć":198,"ć":199,"Ĉ":200,"ĉ":201,"Ċ":202,"ċ":203,"Č":204,"č":205,"Ď":206,"ď":207,"Đ":208,"đ":209,"Ē":210,"ē":211,"Ĕ":212,"ĕ":213,"Ė":214,"ė":215,"Ę":216,"ę":217,"Ě":218,"ě":219,"Ĝ":220,"ĝ":221,"Ğ":222,"ğ":223,"Ġ":224,"ġ":225,"Ģ":226,"ģ":227,"Ĥ":228,"ĥ":229,"Ħ":230,"ħ":231,"Ĩ":232,"ĩ":233,"Ī":234,"ī":235,"Ĭ":236,"ĭ":237,"Į":238,"į":239,"İ":240,"ı":241,"Ĳ":242,"ĳ":243,"Ĵ":244,"ĵ":245,"Ķ":246,"ķ":247,"ĸ":248,"Ĺ":249,"ĺ":250,"Ļ":251,"ļ":252,"Ľ":253,"ľ":254,"Ŀ":255,"ŀ":256,"Ł":257,"ł":258,"Ń":259,"on":260,"er":261,"in":262,"Ġt":263,"an":264,"or":265,"at":266,"al":267,"ar":268,"en":269,"es":270,"Ġth":271,"ed":272,"it":273,"Ġs":274,"Ġ2":275,"ion":276,"ro":277,"Ġthe":278,"ĠM":279,"ic":280,"Ġc":281,"Ġ.":282,"Ġ1":283,"le":284,"ĠS":285,"is":286,"re":287,"Ġf":288,"Ġa":289,"Ġo":290,"ing":291,"per":292,"Ġp":293,"Ġd":294,"ct":295,"ĠG":296,"Ġ20":297,"ut":298,"et":299,"ch":300,"ia":301,"and":302,"qu":303,"Ġw":304,"Ġin":305,"Ġof":306,"ent":307,"ation":308,"ĠA":309,"ĠX":310,"Ġ201":311,"um":312,"ant":313,"Ġm":314,"om":315,"im":316,"as":317,"Ġb":318,"ĠR":319,"ev":320,"iv":321,"peria":322,"el":323,"ĠH":324,"ra":325,"em":326,"ig":327,"ĠF":328,"Ġ(":329,"st":330,"Ġqu":331,"Ġand":332,"ĠW":333,"Ġ4":334,"antum":335,"ĠC":336,"ri":337,"ĠT":338,"Ġg":339,"ony":340,"un":341,"Ġon":342,"Ġ8":343,"ul":344,"ĠXperia":345,"Ġ,":346,"ĠMP":347,"Ġn":348,"am":349,"Ġ5":350,"id":351,"Ġl":352,"Ġre":353,"rom":354,"ĠP":355,"ol":356,"ĠL":357,"ab":358,"ce":359,"Ġquantum":360,"put":361,"ex":362,"Ġto":363,"ont":364,"par":365,"00":366,"il":367,"ĠSony":368,"Ġâ":369,"Ġ[":370,"ĠGB":371,"od":372,"ĠD":373,"Ġst":374,"Ġfrom":375,"ad":376,"ist":377,"Ġ]":378,"ical":379,"Ġpro":380,",\"":381,"Ġor":382,"ĠE":383,"ap":384,"ly":385,"res":386,"ser":387,"ith":388,"ate":389,"ĠQ":390,"Ġfor":391,"out":392,"02":393,"mw":394,"SM":395,"ob":396,"ow":397,"us":398,"ual":399,"Ġ\"":400,"ot":401,"\":":402,"ir":403,"ĠAr":404,"parser":405,"output":406,"11":407,"Ģĵ":408,"etri":409,"ear":410,"pl":411,"pt":412,"ur":413,"chiv":414,"ĠRetri":415,"eved":416,"ter":417,"ac":418,"ge":419,"inal":420,"Ġ3":421,"ĠI":422,"ĠRetrieved":423,"Ġ2013":424,"iz":425,"ec":426,"ity":427,"Ġis":428,"Ġ6":429,"ĠArchiv":430,"ĠN":431,"iginal":432,"Ġoriginal":433,"ĠArchived":434,"ect":435,"Ġwith":436,"Ĩĳ":437,"ĠâĨĳ":438,"Ġh":439,"Hz":440,"ile":441,"ary":442,"av":443,"ĠTh":444,"for":445,"ĠJ":446,"ru":447,"Ġv":448,"Ġcom":449,"Ġ$":450,"ĠZ":451,"Ġan":452,"ĠGSM":453,"Ġex":454,"os":455,"\",\"":456,"ĠGHz":457,"og":458,"ĠWe":459,"Ġ802":460,"PA":461,"if":462,"Ġ12":463,"ction":464,"ĠLT":465,"ure":466,"ay":467,"SPA":468,"ĠHSPA":469,"ations":470,"ĠO":471,"ive":472,"ens":473,"elo":474,"her":475,"und":476,"gon":477,"Ġar":478,"ront":479,"evelo":480,"obile":481,"Ġas":482,"ment":483,"ĠMar":484,"Ġcon":485,"oc":486,"ĠRear":487,"10":488,"ĠQu":489,"ĠFront":490,"Ġwe":491,"able":492,"Ġsu":493,"form":494,"ber":495,"ore":496,"ragon":497,"ĠY":498,"ess":499,"dragon":500,"nap":501,"ĠB":502,"Ġthat":503,"napdragon":504,"ĠSnapdragon":505,"ĠLTE":506,"ver":507,"Ġe":508,"Ġ10":509,"Ġsp":510,"ĠMobile":511,"Ġwh":512,"ph":513,"âĢĵ":514,"igh":515,"ĠThe":516,"eveloper":517,"ies":518,"20":519,"ld":520,"ran":521,"orld":522,"its":523,"ain":524,"Ġdual":525,"Sony":526,"ox":527,"Ġph":528,"ĠMarch":529,"ĠQuantum":530,"ĠYes":531,"ite":532,"ĠWorld":533,"ĠDeveloper":534,"Ġ+":535,"ics":536,"ĠHD":537,"Ġ2016":538,"list":539,"Ġco":540,"Ġ13":541,"com":542,"ence":543,"las":544,"ener":545,"core":546,"du":547,"Ġch":548,"Ġby":549,"band":550,"act":551,"ial":552,"ork":553,"ĠU":554,"eb":555,"yst":556,"Ġal":557,"est":558,"}.":559,"ĠIn":560,"Ġ7":561,"ates":562,"ple":563,"Ġat":564,"one":565,"ult":566,"12":567,"age":568,"mar":569,"ag":570,"sical":571,"box":572,"up":573,"ers":574,"ort":575,"edia":576,"\":\"":577,"ystem":578,"Xperia":579,"ĠâĢĵ":580,"ĠV":581,"ated":582,"Ġthis":583,"ime":584,"ext":585,"rans":586,"Ġ16":587,"Ġint":588,"fer":589,"ian":590,"ĠNo":591,"comm":592,"bit":593,"ud":594,"yn":595,"ember":596,"der":597,"ew":598,"ff":599,"th":600,"tic":601,"Ġres":602,"ight":603,"ik":604,"pp":605,"Ġ15":606,"ruary":607,"ebruary":608,"nav":609,"ĠFebruary":610,"ull":611,"ip":612,"erm":613,"enc":614,"Ġun":615,"ions":616,"ĠQual":617,"ÃĹ":618,"ĠÃĹ":619,"Ġinter":620,"ĠAn":621,"Ġme":622,"Ġbe":623,"ĠQualcomm":624,",.":625,"ator":626,"end":627,"Ġsh":628,"Ġcont":629,"Ġ202":630,"ase":631,"Ġgener":632,"ient":633,"ric":634,"wg":635,"Ġ9":636,"Ġsystem":637,"ĠSO":638,"Ġare":639,"ĠK":640,"ization":641,"cl":642,"Ġsc":643,"Ġde":644,"Ġmod":645,"Ġnon":646,"ide":647,").":648,"cu":649,"hlist":650,"ib":651,"wo":652,"etw":653,"Ġus":654,"ang":655,"ĠMSM":656,"abil":657,"Ġcomput":658,"lassical":659,"co":660,"ine":661,"Ġtrans":662,"lect":663,"ree":664,"Ġ2015":665,"asure":666,"ign":667,"Ġr":668,"ynam":669,"ĠXQ":670,"ory":671,"Ġopt":672,"ĠAp":673,"ased":674,"ĠCom":675,"25":676,"80":677,"col":678,"imit":679,"ever":680,"ram":681,"ril":682,"IM":683,"cess":684,"pe":685,"Ġro":686,"Ġtwo":687,"all":688,"ional":689,"Ġpar":690,"ame":691,"ircu":692,"dro":693,"se":694,"Ġle":695,"Ġcan":696,"abl":697,"ave":698,"droid":699,"Ġsim":700,"Ġ23":701,"ich":702,"Ġad":703,"Ġ2014":704,"mart":705,"30":706,"Ġ0":707,"ere":708,"irst":709,"ĠApril":710,"ace":711,"iel":712,"ov":713,"port":714,"ari":715,"Ġ14":716,"navbox":717,"ry":718,"son":719,"Ġac":720,"Ġdis":721,"ĠFull":722,"ack":723,"ire":724,"kin":725,"ous":726,"our":727,"ound":728,"ance":729,"rodu":730,"ise":731,"ield":732,"ach":733,"ft":734,"px":735,"pos":736,"ror":737,"ym":738,"int":739,"ĠPl":740,"Ġsub":741,"ug":742,"ong":743,"ons":744,"order":745,"are":746,"50":747,"dit":748,"Ġim":749,"ard":750,"ĠMB":751,"Ġdec":752,"une":753,"Ġstate":754,"ector":755,"ific":756,"formation":757,"ĠAndroid":758,"asurement":759,"martph":760,"--":761,"GA":762,"ax":763,"gro":764,"{\"":765,"ath":766,"Ġdynam":767,"Ġno":768,"ode":769,"Ġprov":770,"ĠEr":771,"Ġ64":772,"ĠJune":773,"Ġwhich":774,"13":775,"ak":776,"}}":777,"Ġper":778,"ind":779,"ating":780,"rol":781,"Ġclassical":782,"Ġcircu":783,"ĠSe":784,"ingle":785,"imens":786,"Ġquad":787,"unction":788,"Ġstud":789,"'s":790,"lu":791,"low":792,"ral":793,"Ġ|":794,"ones":795,"ese":796,"ĠMIM":797,"Ġoper":798,"Ġpres":799,"rib":800,"Ġstates":801,"ogical":802,"ĠMIMO":803,"les":804,"ole":805,"tra":806,"Ġer":807,"Ġdist":808,"ctob":809,"Ġ2012":810,"sty":811,"play":812,"ablet":813,"ffic":814,"etwork":815,"color":816,"ctober":817,"gor":818,"Ġ27":819,"Ġcor":820,"Ġapp":821,"Ġoct":822,"Ġpre":823,"ithm":824,"ize":825,"ĠOctober":826,"icsson":827,"Ġmeasurement":828,"Ġmodel":829,"Ġocta":830,"32":831,"60":832,"VGA":833,"ty":834,"Ġit":835,"Ġits":836,"atter":837,"ref":838,"Ġover":839,"Ġdet":840,"ution":841,"Ġne":842,"amil":843,"\":{\"":844,"ocal":845,"ding":846,"ech":847,"net":848,"sp":849,"Ġund":850,"anu":851,"ature":852,"alu":853,"Ġ11":854,"ĠSt":855,"ular":856,"Ġprob":857,"oth":858,"ized":859,"Ġshow":860,"Ġstudy":861,"DR":862,"ix":863,"skin":864,"wik":865,"Ġtime":866,"Ġinformation":867,"ational":868,"Ġbut":869,"raph":870,"stru":871,"ody":872,"ĠEDR":873,"ptember":874,"ock":875,"Ġsuch":876,"ability":877,"gorithm":878,"::":879,"Ar":880,"HD":881,"action":882,"math":883,"pact":884,"upl":885,"Ġev":886,"ative":887,"Ġsingle":888,"Ġ25":889,"Ġ29":890,"Ġ2020":891,"Ġmin":892,"imal":893,"Ġone":894,"idth":895,"ĠPro":896,"ĠEn":897,"Ġ32":898,"Ġsystems":899,"Ġsimul":900,"ĠEricsson":901,"ĠSeptember":902,"Ġunder":903,"anuary":904,"03":905,"aper":906,"body":907,"ust":908,"Ġent":909,"Ġenc":910,"ond":911,"ition":912,"Ġcap":913,"ish":914,"Ġfram":915,"Ġ2019":916,"ast":917,"ill":918,"ption":919,"ĠJanuary":920,"Ġvari":921,"duct":922,"Ġalgorithm":923,")$":924,"01":925,"back":926,"de":927,"dis":928,"lo":929,"main":930,"ub":931,"Ġ)":932,"Ġk":933,"inite":934,"Ġsol":935,"Ġtheir":936,"ĠSp":937,"Ġfield":938,"Ġpr":939,"omet":940,"Ġ512":941,"Ġrequ":942,"ild":943,"15":944,"II":945,"cent":946,"ost":947,"pro":948,"ton":949,"ware":950,"Ġra":951,"Ġ17":952,"Ġob":953,"Ġbound":954,"ĠHere":955,"000":956,"ĠEx":957,"Ġatom":958,"Ġintrodu":959,"Ġscal":960,"ymm":961,"Ġcorre":962,"08":963,"89":964,"ED":965,"\\/":966,"eg":967,"get":968,"of":969,"op":970,"Ġest":971,"lement":972,"Ġdes":973,"Ġinv":974,"ents":975,"ĠXZ":976,"Ġnot":977,"Ġhigh":978,"ĠThis":979,"imensional":980,"35":981,"gin":982,"tain":983,"ures":984,"Ġem":985,"Ġse":986,"ĠMedia":987,"ĠST":988,"child":989,"ential":990,"Ġmet":991,"evic":992,"ĠWh":993,"Ġlin":994,"Ġlow":995,"Ġlimit":996,"Ġreg":997,"Ġrel":998,"Ġhas":999,"ework":1000,"Ġdynamics":1001,"fficient":1002,"05":1003,"border":1004,"con":1005,"ced":1006,"ey":1007,"ead":1008,"not":1009,"pend":1010,"ting":1011,"toc":1012,"Ġtra":1013,"Ġsec":1014,"Ġ21":1015,"ros":1016,"row":1017,"Ġtheory":1018,"left":1019,"Ġwork":1020,"ely":1021,"ĠTablet":1022,"Ġlocal":1023,"odes":1024,"Ġpropos":1025,"plic":1026,"Ġcomple":1027,"Ġphy":1028,"ference":1029,"ĠNov":1030,"ators":1031,"Ġ2023":1032,"Ġgeneral":1033,"Ġcircuit":1034,"Ġerror":1035,"Ġframework":1036,"ymmet":1037,"09":1038,"72":1039,"LED":1040,"ces":1041,"ject":1042,"ks":1043,"ltra":1044,"width":1045,"},\"":1046,"âĦ":1047,"Ġ\\":1048,"arge":1049,"Ġsmartph":1050,"ĠMay":1051,"Ġ19":1052,"Ġfunction":1053,"Ġab":1054,"Ġpos":1055,"Ġdif":1056,"ell":1057,"ically":1058,"ose":1059,"herent":1060,"Ġequ":1061,"Ġspin":1062,"Ġspec":1063,"ĠHDR":1064,"ĠUltra":1065,"plement":1066,"ffect":1067,"Ġcontrol":1068,"ible":1069,"Ġusing":1070,"ĠCompact":1071,"ugh":1072,"style":1073,"âĦ¢":1074,"06":1075,"DF":1076,"bar":1077,"een":1078,"lock":1079,"ning":1080,"nel":1081,"pres":1082,"riv":1083,"Ġy":1084,"Ġup":1085,"onic":1086,"erv":1087,"ery":1088,"aly":1089,"eng":1090,"Ġsign":1091,"Ġ26":1092,"read":1093,"Ġfirst":1094,"Ġwas":1095,"eme":1096,"ĠDec":1097,"Ġprocess":1098,"Ġvia":1099,"Ġexact":1100,"ĠOLED":1101,"Ġass":1102,"Ġelect":1103,"margin":1104,"Ġinto":1105,"anglement":1106,"Ġimplement":1107,"Ġnoise":1108,"Ġappro":1109,"type":1110,"amilton":1111,"amiltonian":1112,"42":1113,"500":1114,"82":1115,"based":1116,"cit":1117,"cre":1118,"ht":1119,"none":1120,"sion":1121,"ther":1122,"text":1123,"vant":1124,"any":1125,"atic":1126,"ena":1127,"Ġset":1128,"ental":1129,"ĠHamiltonian":1130,"unic":1131,"ambox":1132,"Ġli":1133,"Ġreal":1134,"Ġprotoc":1135,"ruct":1136,"ensity":1137,"Ġ1080":1138,"Ġwhile":1139,"Ġphot":1140,"etween":1141,"ource":1142,"struction":1143,"ready":1144,"55":1145,"PDF":1146,"Te":1147,"ail":1148,"cle":1149,"date":1150,"eature":1151,"iew":1152,"now":1153,"ok":1154,"oint":1155,"pref":1156,"right":1157,"Ġed":1158,"ata":1159,"Ġthese":1160,"ĠMT":1161,"Ġact":1162,"Ġpl":1163,"andom":1164,"Ġ2017":1165,"Ġ2018":1166,"ĠRe":1167,"Ġnum":1168,"Ġstr":1169,"owever":1170,"Ġcomm":1171,"Ġ$\\":1172,"Ġphone":1173,"lass":1174,"estig":1175,"Ġinteraction":1176,"Ġprotocol":1177,"af":1178,"bits":1179,"font":1180,"ium":1181,"log":1182,"line":1183,"limit":1184,"ness":1185,"pad":1186,"so":1187,"sing":1188,"tation":1189,"ãĥ":1190,"Ġ/":1191,"Ġen":1192,"Ġtheor":1193,"Ġcent":1194,"Ġ18":1195,"Ġout":1196,"Ġpaper":1197,"Ġder":1198,"qubit":1199,"Ġbased":1200,"Ġbetween":1201,"str":1202,"uly":1203,"Ġname":1204,"amp":1205,"Ġlat":1206,"Ġremain":1207,"ĠPh":1208,"ĠPre":1209,"Ġext":1210,"Ġsuper":1211,"energ":1212,"ĠUn":1213,"agnet":1214,"client":1215,"angu":1216,"Ġperform":1217,"ixed":1218,"Ġmini":1219,"Ġvariant":1220,"Ġinvestig":1221,"Ġphysical":1222,"ĠNovember":1223,"Tek":1224,"18":1225,"100":1226,"52":1227,"WVGA":1228,"aj":1229,"aul":1230,"ault":1231,"be":1232,"cont":1233,"dimensional":1234,"eomet":1235,"ied":1236,"ll":1237,"media":1238,"ou":1239,"ron":1240,"sc":1241,"valu":1242,"inher":1243,"edu":1244,"rough":1245,"Ġfinite":1246,"Ġol":1247,"Ġdevic":1248,"chan":1249,"ĠXA":1250,"imes":1251,"ĠFWVGA":1252,"Ġonly":1253,"amer":1254,"amet":1255,"oding":1256,"Ġstruct":1257,"ĠJuly":1258,"Ġvector":1259,"here":1260,"Ġeffect":1261,"Ġspect":1262,"Ġchan":1263,"navbar":1264,"clud":1265,"Ġoptical":1266,"Ġparamet":1267,"ĠPlus":1268,"ifications":1269,"ground":1270,"group":1271,"olec":1272,"Ġcapable":1273,"background":1274,"display":1275,"ĠMediaTek":1276,"Ġcomplex":1277,"padding":1278,"ajor":1279,"inherit":1280,"$-":1281,"16":1282,"28":1283,"33":1284,"CD":1285,"au":1286,"bin":1287,"cing":1288,"hod":1289,"ns":1290,"por":1291,"ww":1292,"ord":1293,"lem":1294,"ising":1295,"iab":1296,"Ġ2011":1297,"Ġbits":1298,"Ġboth":1299,"ĠFor":1300,"ĠFHD":1301,"Ġqubit":1302,"Ġgro":1303,"Ġlogical":1304,"odel":1305,"istic":1306,"Ġform":1307,"ĠNetwork":1308,"fore":1309,"Ġanaly":1310,"ĠOpt":1311,"ensor":1312,"Ġcoherent":1313,"Ġchall":1314,"ulti":1315,"tice":1316,"Ġ1500":1317,"Ġunit":1318,"Ġoptimal":1319,"Ġlear":1320,"ablish":1321,"ĠPlay":1322,"Ġdistrib":1323,"Ġmodels":1324,"echn":1325,"Arena":1326,"Ġentanglement":1327,"Ġintroduce":1328,"Ġestablish":1329,"Ġdesc":1330,"anguage":1331,"auli":1332,"04":1333,"202":1334,"70":1335,"AM":1336,"SO":1337,"fob":1338,"io":1339,"pon":1340,"vel":1341,"Ġever":1342,"Ġenerg":1343,"eries":1344,"Ġ24":1345,"Ġcodes":1346,"Ġap":1347,"Ġdd":1348,"Ġdt":1349,"Ġdevelo":1350,"Ġwhere":1351,"ĠAs":1352,"Ġmat":1353,"emory":1354,"Ġnetwork":1355,"Ġlarge":1356,"Ġproper":1357,"Ġorder":1358,"apt":1359,"plo":1360,"ural":1361,"eck":1362,"Ġ120":1363,"ĠMark":1364,"Ġresult":1365,"ipedia":1366,"ermin":1367,"abiliz":1368,"Ġredu":1369,"abled":1370,"Ġmeasurements":1371,"ĠDecember":1372,"nown":1373,"Ġedit":1374,"after":1375,"amera":1376,"fobox":1377,"Ġdevelop":1378,"),":1379,"+.":1380,"53":1381,"825":1382,":#":1383,"OM":1384,"aus":1385,"ee":1386,"fic":1387,"first":1388,"rm":1389,"rit":1390,"rary":1391,"to":1392,"time":1393,"}$":1394,"Ġi":1395,"Ġid":1396,"inu":1397,"atform":1398,"Ġdem":1399,"Ġmany":1400,"Ġqubits":1401,"ĠCh":1402,"ĠCon":1403,"rid":1404,"Ġgraph":1405,"ĠPauli":1406,"olv":1407,"ological":1408,"adget":1409,"apan":1410,"Ġhave":1411,"ĠJapan":1412,"Ġcons":1413,"Ġconst":1414,"Ġwhose":1415,"Ġchar":1416,"ages":1417,"bitrary":1418,"ticle":1419,"ency":1420,"ences":1421,"Ġcomputing":1422,"Ġadvant":1423,"Ġacro":1424,"irect":1425,"Ġprove":1426,"space":1427,"mathrm":1428,"Ġcorrel":1429,"Ġmethod":1430,"Ġnumber":1431,"agnetic":1432,"auge":1433,"abilizer":1434,"(.":1435,"14":1436,"26":1437,"200":1438,"64":1439,"65":1440,"74":1441,"In":1442,"]]":1443,"eight":1444,"ie":1445,"oun":1446,"ps":1447,"ts":1448,"ten":1449,"ãĢ":1450,"ãĤ":1451,"onstr":1452,"infobox":1453,"Ġtem":1454,"Ġtechn":1455,"org":1456,"Ġthrough":1457,"Ġcol":1458,"ism":1459,"Ġfe":1460,"Ġfund":1461,"Ġferm":1462,"perim":1463,"Ġinclud":1464,"Ġmajor":1465,"imedia":1466,"import":1467,"ĠHowever":1468,"rac":1469,"empt":1470,"Ġquant":1471,"ĠCM":1472,"ription":1473,"Ġgauge":1474,"ulation":1475,"amental":1476,"oler":1477,"olution":1478,"ĠDis":1479,"izing":1480,"rue":1481,"Ġexcit":1482,"herence":1483,"Ġarbitrary":1484,"Ġconf":1485,"Ġphase":1486,"last":1487,"Ġalso":1488,"ĠInter":1489,"ferences":1490,"ticles":1491,"cover":1492,"ources":1493,"Ġpresent":1494,"Ġproblem":1495,"Ġsimulation":1496,"Ġalgorithms":1497,"Ġkey":1498,"Ġatoms":1499,"Ġpropose":1500,"ymmetry":1501,"Ġspecifications":1502,"unication":1503,"Ġlattice":1504,"clientpref":1505,"before":1506,"Ġstructure":1507,"Ġevery":1508,"8255":1509,"Ġfundamental":1510,"$,":1511,"){":1512,"23":1513,"27":1514,"39":1515,"68":1516,"Edit":1517,"PS":1518,"den":1519,"lin":1520,"man":1521,"ner":1522,"nect":1523,"pic":1524,"size":1525,"true":1526,"vent":1527,"Ġul":1528,"ined":1529,"atial":1530,"ench":1531,"Ġtherm":1532,"Ġso":1533,"Ġsqu":1534,"Ġ22":1535,"road":1536,"ĠModel":1537,"ict":1538,"Ġcode":1539,"lease":1540,"ĠSystem":1541,"reen":1542,"Ġfre":1543,"Ġfull":1544,"Ġflu":1545,"Ġam":1546,"andard":1547,"Ġinit":1548,"Ġmic":1549,"ass":1550,"asing":1551,"ract":1552,"state":1553,"ĠWik":1554,"Ġ48":1555,"ĠTem":1556,"ĠTrans":1557,"Ġgeomet":1558,"Ġrec":1559,"ĠLCD":1560,"ility":1561,"Ġproduct":1562,"resp":1563,"ress":1564,"\":[":1565,"url":1566,"ĠIII":1567,"Ġvers":1568,"Ġcomp":1569,"ogy":1570,"ogam":1571,"berg":1572,"ĠBy":1573,"Ġspace":1574,"Ġphones":1575,"Ġ720":1576,"Ġinterference":1577,"Ġ2021":1578,"Ġdeg":1579,"Ġcomputation":1580,"Ġrob":1581,"Ġcircuits":1582,"mathb":1583,"Ġrequire":1584,"Ġsmartphone":1585,"Ġsignal":1586,"htt":1587,"clear":1588,"Ġremains":1589,"Ġperformance":1590,"Ġinvestigate":1591,"content":1592,"Ġdevices":1593,"Ġlearning":1594,"Ġdistribution":1595,"Ġenergy":1596,"Ġident":1597,"Ġdemonstr":1598,"Ġadvantage":1599,")\"":1600,"//":1601,"54":1602,"DA":1603,"Station":1604,"TE":1605,"cs":1606,"eous":1607,"function":1608,"gle":1609,"hor":1610,"joint":1611,"led":1612,"lif":1613,"mall":1614,"mium":1615,"over":1616,"rim":1617,"sony":1618,"sub":1619,"ue":1620,"xim":1621,"yb":1622,"yd":1623,"{\\":1624,"Ġ&":1625,"erg":1626,"ert":1627,"ered":1628,"inem":1629,"Ġtensor":1630,"orm":1631,"itive":1632,"Ġsymmetry":1633,"ĠMe":1634,"ĠMogam":1635,"icon":1636,"Ġclass":1637,"Ġprom":1638,"Ġdo":1639,"Ġdirect":1640,"Ġwave":1641,"Ġincre":1642,"Ġ2010":1643,"Ġmap":1644,"Ġmolec":1645,"imization":1646,"asis":1647,"elt":1648,"ĠCar":1649,"ĠCont":1650,"Ġgate":1651,"ĠPad":1652,"paration":1653,"ĠDet":1654,"Ġstandard":1655,"plate":1656,"ĠNon":1657,"ford":1658,"Ġany":1659,"ĠGSMArena":1660,"Ġexperim":1661,"ify":1662,"ified":1663,"Ġ128":1664,"Ġspatial":1665,"Ġcost":1666,"acter":1667,"ike":1668,"Ġcontinu":1669,"ideo":1670,"Ġuse":1671,"Ġcomputational":1672,"Ġrandom":1673,"Ġ2300":1674,"ugust":1675,"aking":1676,"lower":1677,"Ġoperations":1678,"styles":1679,"Ġprobability":1680,"upled":1681,"pendent":1682,"Ġapproach":1683,"value":1684,"Ġchannel":1685,"Ġcomplexity":1686,"Ġmethods":1687,"olerant":1688,"lifford":1689,"ĠMogami":1690,");":1691,"07":1692,"22":1693,"36":1694,"67":1695,"88":1696,"AP":1697,"Page":1698,"],\"":1699,"bl":1700,"bed":1701,"cc":1702,"fal":1703,"free":1704,"feature":1705,"ires":1706,"min":1707,"pre":1708,"pect":1709,"tur":1710,"ties":1711,"ve":1712,"anc":1713,"atch":1714,"ale":1715,"alax":1716,"Ġthree":1717,"edom":1718,"Ġsch":1719,"Ġsem":1720,"Ġsens":1721,"Ġseries":1722,"Ġthey":1723,"ice":1724,"Ġfree":1725,"Ġach":1726,"Ġpract":1727,"Ġdate":1728,"ĠGalax":1729,"ets":1730,"Ġwell":1731,"Ġoffer":1732,"Ġoften":1733,"ĠAugust":1734,"Ġmemory":1735,"rad":1736,"ĠTo":1737,"ĠTab":1738,"Ġgiv":1739,"Ġnear":1740,"Ġ5000":1741,"Ġrecover":1742,"urity":1743,"ĠOn":1744,"Ġsupp":1745,"vers":1746,"Ġefficient":1747,"Ġall":1748,"mark":1749,"Ġresource":1750,"Ġmechan":1751,"Ġbeen":1752,"Ġ2022":1753,"Ġdef":1754,"Ġtransport":1755,"ĠComm":1756,"Ġdisc":1757,"ardware":1758,"Ġprovid":1759,"indow":1760,"Ġneed":1761,"upling":1762,"Ġ256":1763,"Ġknown":1764,"Ġsolid":1765,"ĠSpec":1766,"Ġcorrection":1767,"Ġsecurity":1768,"present":1769,"Ġprocessing":1770,"Ġcommunication":1771,"Ġderive":1772,"Ġextend":1773,"ĠPlayStation":1774,"Ġcharacter":1775,"important":1776,"empty":1777,"ĠCMD":1778,"Ġproducts":1779,"Ġrobust":1780,"ydberg":1781,"false":1782,"Ġachi":1783,"ĠGalaxy":1784,"19":1785,"300":1786,"94":1787,"LTE":1788,"Name":1789,"classical":1790,"head":1791,"ned":1792,"tom":1793,"tolerant":1794,"Ã©":1795,"áĢ":1796,"Ġ#":1797,"error":1798,"inc":1799,"inary":1800,"Ġtr":1801,"ors":1802,"ater":1803,"atist":1804,"align":1805,"arg":1806,"itect":1807,"Ġsever":1808,"Ġsize":1809,"Ġ28":1810,"ĠMin":1811,"ĠSim":1812,"ĠSmartph":1813,"references":1814,"Ġfamil":1815,"Ġpol":1816,"Ġdl":1817,"Ġdensity":1818,"ĠGener":1819,"Ġ2008":1820,"ute":1821,"ether":1822,"chitect":1823,"anding":1824,"ĠAd":1825,"ĠAl":1826,"ompos":1827,"imum":1828,"ash":1829,"Ġbench":1830,"ĠRydberg":1831,"ivers":1832,"Ġquest":1833,"ĠCor":1834,"ĠCode":1835,"Ġgates":1836,"Ġlight":1837,"Ġlong":1838,"Ġref":1839,"Ġrecent":1840,"ĠPaper":1841,"Ġtop":1842,"part":1843,"lying":1844,"urr":1845,"ĠII":1846,"Ġhow":1847,"avity":1848,"ĠZL":1849,"ift":1850,"Ġcondit":1851,"Ġconstruction":1852,"Ġwhether":1853,"Ġinteg":1854,"Ġgenerator":1855,"ĠSOG":1856,"Ġdepend":1857,"coun":1858,"copic":1859,"Ġdeco":1860,"Ġneo":1861,"wikimedia":1862,"struct":1863,"Ġsimulations":1864,"Ġrequires":1865,"Ġrad":1866,"8974":1867,"ĠWhite":1868,"Ġlinks":1869,"Ġsmartphones":1870,"Ġfunctions":1871,"Ġpositive":1872,"Ġyet":1873,"ength":1874,"Ġapproxim":1875,"Ġstrong":1876,"Ġprotocols":1877,"Ġcentral":1878,"Ġunitary":1879,"Ġdescription":1880,"Ġapplic":1881,"Ġnetworks":1882,"Ġproperties":1883,"eez":1884,"Ġfermions":1885,"ventional":1886,"Ġversion":1887,"mathbb":1888,"Ġdemonstrate":1889,"rimin":1890,"ybrid":1891,"ormal":1892,"Ġpractical":1893,"$.":1894,"17":1895,"21":1896,"311":1897,"51":1898,"62":1899,":-":1900,"WAP":1901,"[[":1902,"aw":1903,"bel":1904,"bra":1905,"fd":1906,"go":1907,"gram":1908,"language":1909,"like":1910,"ms":1911,"mit":1912,"oper":1913,"opt":1914,"sh":1915,"times":1916,"user":1917,"uclear":1918,"vector":1919,"xperia":1920,"yond":1921,"ativ":1922,"alk":1923,"art":1924,"arrow":1925,"enu":1926,"Ġsum":1927,"Ġsmall":1928,"ĠMo":1929,"ick":1930,"Ġcle":1931,"ĠSIM":1932,"Ġdiv":1933,"Ġdimens":1934,"chos":1935,"Ġway":1936,"Ġwww":1937,"Ġind":1938,"Ġinf":1939,"ĠApp":1940,"Ġmag":1941,"Ġmulti":1942,"ases":1943,"Ġbos":1944,"Ġbroad":1945,"ĠHVGA":1946,"ĠCo":1947,"Ġnew":1948,"ampl":1949,"idden":1950,"Ġrepresent":1951,"old":1952,"ĠDe":1953,"Ġstabilizer":1954,"Ġproof":1955,"serv":1956,"earch":1957,"acu":1958,"aces":1959,"gebra":1960,"Ġ31":1961,"Ġwithin":1962,"Ġwithout":1963,"Ġcombin":1964,"ĠWeight":1965,"Ġconver":1966,"Ġconnect":1967,"ĠBlu":1968,"Ġeach":1969,"Ġwhite":1970,"pha":1971,"range":1972,"Ġchip":1973,"ĠUsing":1974,"Ġbeyond":1975,"Ġcontain":1976,"rict":1977,"rices":1978,"Ġscreen":1979,"Ġtransition":1980,"ynamics":1981,"Ġlead":1982,"ryption":1983,"achine":1984,"ftware":1985,"Ġsubs":1986,"ification":1987,"Ġprovide":1988,"attery":1989,"reflist":1990,"Ġdetect":1991,"Ġevolution":1992,"Ġencoding":1993,"Ġbounds":1994,"Ġestim":1995,"Ġlimited":1996,"ross":1997,"roscopic":1998,"ymmetric":1999,"Ġabs":2000,"Ġdiffic":2001,"Ġequations":2002,"Ġupdate":2003,"Ġinteractions":2004,"Ġtheories":2005,"ĠPremium":2006,"Ġeffects":2007,"Ġparameter":2008,"poral":2009,"Ġchalleng":2010,"aptive":2011,"ĠDisplay":2012,"linear":2013,"Ġinitial":2014,"ĠTemplate":2015,"Ġgeometric":2016,"Ġcontinuous":2017,"Ġprovides":2018,"Ġachiev":2019,"belian":2020,"Ġdifficult":2021,"\"},\"":2022,"%;":2023,"512":2024,"800":2025,"900":2026,":\"":2027,"://":2028,"Ah":2029,"An":2030,"BA":2031,"Fi":2032,"KD":2033,"PQ":2034,"Wave":2035,"^{":2036,"br":2037,"cal":2038,"cated":2039,"equ":2040,"hi":2041,"hat":2042,"iqu":2043,"iated":2044,"lis":2045,"me":2046,"ml":2047,"med":2048,"non":2049,"ooth":2050,"pen":2051,"pag":2052,"rin":2053,"rum":2054,"ryst":2055,"sis":2056,"sch":2057,"table":2058,"vail":2059,"web":2060,"ys":2061,"ãģ":2062,"Ġq":2063,"Ġend":2064,"inline":2065,"Ġtri":2066,"aneous":2067,"alpha":2068,"ark":2069,"arget":2070,"enge":2071,"itle":2072,"itions":2073,"Ġsame":2074,"ĠMat":2075,"ĠMulti":2076,"Ġcavity":2077,"ised":2078,"ission":2079,"Ġfault":2080,"Ġother":2081,"perature":2082,"Ġpost":2083,"ĠGen":2084,"utions":2085,"etic":2086,"etooth":2087,"iagon":2088,"ands":2089,"ĠAPQ":2090,"Ġmobile":2091,"Ġmore":2092,"Ġmax":2093,"Ġmixed":2094,"Ġmagnetic":2095,"ĠmAh":2096,"ome":2097,"omic":2098,"Ġbec":2099,"Ġbasis":2100,"ĠRec":2101,"ĠRAM":2102,"ĠROM":2103,"ival":2104,"ivity":2105,"elity":2106,"rab":2107,"standing":2108,"ĠWi":2109,"Ġ400":2110,"ĠCent":2111,"ĠCort":2112,"ĠCinem":2113,"rium":2114,"Ġgo":2115,"Ġ801":2116,"ules":2117,"idelity":2118,"roman":2119,"ĠLite":2120,"oded":2121,"Ġstor":2122,"ade":2123,"Ġproject":2124,"ĠEu":2125,"ower":2126,"usic":2127,"ots":2128,"iron":2129,"ired":2130,"pth":2131,"chive":2132,"acy":2133,"ĠIPS":2134,"Ġhardware":2135,"ĠThese":2136,"Ġvacu":2137,"ĠZR":2138,"Ġann":2139,"Ġexist":2140,"ograph":2141,"ense":2142,"Ġarc":2143,"ĠBattery":2144,"Ġwhen":2145,"upper":2146,"Ġinterf":2147,"Ġcontext":2148,"wgC":2149,"ĠSOV":2150,"Ġscatter":2151,"Ġuses":2152,"Ġused":2153,"Ġtransform":2154,"lected":2155,"colum":2156,"ables":2157,"ymb":2158,"onsive":2159,"Ġdynamical":2160,"Ġoperators":2161,"olean":2162,"Ġdistin":2163,"Ġ2700":2164,"wikipedia":2165,"ducting":2166,"dependent":2167,"ĠSpin":2168,"Ġfields":2169,"Ġprinc":2170,"proof":2171,"Ġ1750":2172,"Ġobtain":2173,"ĠWhile":2174,"Ġlower":2175,"Ġregime":2176,"conducting":2177,"note":2178,"Ġproposed":2179,"plicit":2180,"Ġdiffer":2181,"Ġelectron":2182,"Ġsetting":2183,"Ġphotons":2184,"Ġactive":2185,"Ġplatform":2186,"ĠRelease":2187,"ĠPhone":2188,"Ġsuperconducting":2189,"scale":2190,"Ġground":2191,"Ġgroup":2192,"Ġchallenge":2193,"Ġmatrices":2194,"ploit":2195,"ĠMarket":2196,"ĠJapanese":2197,"Ġconsist":2198,"Ġconstra":2199,"Ġfeat":2200,"Ġexcitation":2201,"Ġsqueez":2202,"ĠTransform":2203,"responsive":2204,"Ġidentify":2205,"Ġpromising":2206,"Ġmolecular":2207,"bedd":2208,"Ġscheme":2209,"Ġsupport":2210,"Ġdiscrimin":2211,"aterproof":2212,"Ġseveral":2213,"ĠSmartphones":2214,"Ġfamily":2215,"iversal":2216,"Ġquestion":2217,"Ġtopological":2218,"Ġdecoherence":2219,"Ġradi":2220,"ĠBluetooth":2221,"Android":2222,"hatnote":2223,"rystal":2224,"iagonal":2225,"ĠCortex":2226,"ĠCinema":2227,"(\\":2228,"29":2229,"230":2230,"45":2231,"66":2232,"69":2233,"600":2234,"660":2235,"DM":2236,"Language":2237,"RL":2238,"SE":2239,"SQ":2240,"User":2241,"Wide":2242,"]{":2243,"cill":2244,"class":2245,"db":2246,"data":2247,"ele":2248,"efficient":2249,"gree":2250,"ience":2251,"ious":2252,"li":2253,"lap":2254,"lob":2255,"local":2256,"mWave":2257,"name":2258,"och":2259,"oolean":2260,"page":2261,"pically":2262,"ration":2263,"rated":2264,"tl":2265,"tr":2266,"tim":2267,"top":2268,"title":2269,"uil":2270,"uations":2271,"view":2272,"way":2273,"weight":2274,"yper":2275,"onical":2276,"ering":2277,"erge":2278,"inch":2279,"ince":2280,"Ġtd":2281,"Ġty":2282,"Ġtas":2283,"Ġterm":2284,"Ġtablet":2285,"atural":2286,"alle":2287,"archive":2288,"eness":2289,"Ġthan":2290,"edict":2291,"ital":2292,"ities":2293,"Ġsyn":2294,"Ġsampl":2295,"ĠMont":2296,"ĠMHz":2297,"Ġcl":2298,"Ġcy":2299,"Ġcar":2300,"Ġcamera":2301,"Ġcert":2302,"Ġcrystal":2303,"lection":2304,"level":2305,"ĠSP":2306,"ĠSU":2307,"ĠSh":2308,"ĠSo":2309,"ĠSWAP":2310,"rees":2311,"Ġfoc":2312,"Ġfixed":2313,"Ġavail":2314,"Ġopen":2315,"Ġpa":2316,"Ġpoint":2317,"Ġpower":2318,"Ġdriv":2319,"Ġdue":2320,"ctuations":2321,"andid":2322,"Ġwere":2323,"Ġmain":2324,"Ġmov":2325,"Ġmost":2326,"ĠmmWave":2327,"Ġbi":2328,"Ġbot":2329,"ĠRes":2330,"ĠRandom":2331,"eless":2332,"ĠFirst":2333,"ĠWalk":2334,"Ġ4500":2335,"ĠCS":2336,"ĠCamera":2337,"rier":2338,"ĠTime":2339,"Ġgap":2340,"uls":2341,"Ġnatural":2342,"ames":2343,"Ġlab":2344,"Ġrece":2345,"Ġretain":2346,"ĠPur":2347,"ology":2348,"ĠLind":2349,"ili":2350,"ilib":2351,"Ġste":2352,"Ġprodu":2353,"otic":2354,"Ġvalu":2355,"Ġcompar":2356,"Ġancill":2357,"Ġextra":2358,"ĠOther":2359,"Ġarchitect":2360,"Ġconventional":2361,"ociated":2362,"ĠBoolean":2363,"rangle":2364,"Ġchain":2365,"ĠVII":2366,"ĠNoise":2367,"ewidth":2368,"theme":2369,"wgR":2370,"Ġmodes":2371,"Ġnonlinear":2372,"ibility":2373,"Ġoptimization":2374,"peat":2375,"Ġlevel":2376,"ovian":2377,"Ġacc":2378,"Ġaccess":2379,"Ġdisorder":2380,"Ġdisplay":2381,"Ġdecay":2382,"Ġdecompos":2383,"ificant":2384,"Ġpresence":2385,"Ġdetermin":2386,"Ġeven":2387,"Ġevalu":2388,"Ġminimum":2389,"ĠEnc":2390,"Ġencryption":2391,"central":2392,"Ġscaling":2393,"Ġdesign":2394,"Ġsequ":2395,"Ġsepar":2396,"Ġgeneralized":2397,"Ġsignificant":2398,"Ġassociated":2399,"Ġimplementations":2400,"html":2401,"unications":2402,"Ġphoton":2403,"Ġspectral":2404,"Ġspectrum":2405,"iabatic":2406,"Ġresults":2407,"auss":2408,"Ġcorrelations":2409,"Ġtechniqu":2410,"Ġmajorization":2411,"Ġthermal":2412,"Ġfreedom":2413,"Ġfluctuations":2414,"ĠWikipedia":2415,"\":[\"":2416,"Ġdegrees":2417,"https":2418,"Ġdoes":2419,"Ġincreasing":2420,"ĠCarlo":2421,"blad":2422,"radient":2423,"Ġgiven":2424,"indows":2425,"atistics":2426,"Ġbenchmark":2427,"urrent":2428,"Ġclean":2429,"Ġvacuum":2430,"ography":2431,"Ġscattering":2432,"Ġprinci":2433,"ĠCinemaWide":2434,"lobal":2435,"allel":2436,"ĠMonte":2437,"Ġfocus":2438,"Ġavailable":2439,"ĠWalkman":2440,"ĠPureness":2441,"ĠLindblad":2442,"ilibrium":2443,"Ġancilla":2444,"\"],\"":2445,"):":2446,"312":2447,"41":2448,"550":2449,"650":2450,"700":2451,"83":2452,"93":2453,"95":2454,":\\/":2455,"AC":2456,"AT":2457,"BC":2458,"Clifford":2459,"DP":2460,"Id":2461,"Ms":2462,"NO":2463,"QP":2464,"St":2465,"Symb":2466,"To":2467,"Tub":2468,"Thor":2469,"UK":2470,"Wik":2471,"_{\\":2472,"aut":2473,"aThor":2474,"bf":2475,"cite":2476,"fre":2477,"ful":2478,"full":2479,"field":2480,"gan":2481,"ging":2482,"gence":2483,"gadget":2484,"height":2485,"iC":2486,"ier":2487,"iform":2488,"irac":2489,"lish":2490,"mbox":2491,"ny":2492,"pan":2493,"pid":2494,"ring":2495,"tem":2496,"ux":2497,"uish":2498,"urab":2499,"var":2500,"}(":2501,"},":2502,"}@":2503,"});":2504,"Î´":2505,"Ġkin":2506,"Ġjoint":2507,"onal":2508,"aling":2509,"alog":2510,"aries":2511,"Ġthen":2512,"Ġthere":2513,"itud":2514,"Ġsur":2515,"Ġthem":2516,"ĠMic":2517,"ĠMet":2518,"ĠMac":2519,"Ġcase":2520,"Ġcrit":2521,"Ġcandid":2522,"Ġ110":2523,"leased":2524,"ĠSu":2525,"ĠSearch":2526,"ision":2527,"reat":2528,"reaking":2529,"Ġfact":2530,"inguish":2531,"Ġpot":2532,"Ġdimensional":2533,"etime":2534,"ches":2535,"query":2536,"quency":2537,"Ġinst":2538,"Ġinver":2539,"Ġindependent":2540,"ently":2541,"ĠAc":2542,"ĠAqu":2543,"ĠAce":2544,"Ġmess":2545,"Ġmult":2546,"Ġmak":2547,"oment":2548,"asures":2549,"Ġbr":2550,"Ġbit":2551,"Ġbatter":2552,"ĠRÃ©":2553,"ived":2554,"elow":2555,"ĠHel":2556,"ĠHigh":2557,"ement":2558,"ĠFault":2559,"Ġquery":2560,"ĠCircu":2561,"ĠClifford":2562,"rix":2563,"Ġgradient":2564,"Ġ800":2565,"ulating":2566,"Ġnuclear":2567,"idata":2568,"Ġlog":2569,"Ġret":2570,"ĠPR":2571,"ĠPr":2572,"ĠPer":2573,"ĠPar":2574,"ĠPol":2575,"ĠPDA":2576,"ollow":2577,"ĠLL":2578,"Ġpropag":2579,"Ġorac":2580,"uality":2581,"oton":2582,"otion":2583,"ĠArchos":2584,"plies":2585,"acity":2586,"acetime":2587,"ĠIS":2588,"ĠIV":2589,"ĠIt":2590,"Ġ630":2591,"Ġhe":2592,"Ġhowever":2593,"Ġhybrid":2594,"Ġhyper":2595,"Ġvideo":2596,"Ġexplicit":2597,"Ġexploit":2598,"ifies":2599,"Ġ1200":2600,"ayer":2601,"Ġconstruct":2602,"ĠYou":2603,"ĠBound":2604,"ĠBlog":2605,"Ġeig":2606,"Ġcover":2607,"Ġcoherence":2608,"Ġcoupled":2609,"Ġ135":2610,"acting":2611,"Ġatt":2612,"ĠVerge":2613,"feromet":2614,"Ġrest":2615,"Ġreson":2616,"Ġresources":2617,"Ġ151":2618,"Ġuniversal":2619,"Ġshift":2620,"Ġgeneration":2621,"Ġgenerate":2622,"wgPage":2623,"Ġdepth":2624,"Ġmode":2625,"angled":2626,"Ġtransm":2627,"lective":2628,"Ġroll":2629,"Ġpart":2630,"Ġ144":2631,"Ġdiscre":2632,"roduct":2633,"roducing":2634,"martphone":2635,"}},\"":2636,"rology":2637,"Ġerasure":2638,"Ġpreparation":2639,"echan":2640,"ĠState":2641,"wiki":2642,"Article":2643,"ĠProcess":2644,"Ġunderlying":2645,"Ġencoded":2646,"ductor":2647,"Ġrapid":2648,"Ġintroduced":2649,"Ġscalar":2650,"Ġlinear":2651,"Ġsecure":2652,"Ġsecond":2653,"rowave":2654,"Ġposs":2655,"Ġequation":2656,"erving":2657,"Ġtheorem":2658,"Ġcenter":2659,"Ġextens":2660,"Ġvariants":2661,"ourier":2662,"Ġparameters":2663,"poration":2664,"ĠNetworks":2665,"Ġanalyz":2666,"Ġdescrib":2667,"ponential":2668,"ĠMarkovian":2669,"Ġconsid":2670,"Ġconstant":2671,"ounced":2672,"ãĢĮ":2673,"ãĢį":2674,"Ġcollective":2675,"Ġthermod":2676,"Ġsoftware":2677,"Ġamong":2678,"http":2679,"iconductor":2680,"ĠDetermin":2681,"Ġexperimental":2682,"Ġrecovery":2683,"ĠCommunications":2684,"Ġneeded":2685,"ĠSpecs":2686,"Ġrobustness":2687,"ĠMini":2688,"ĠCorporation":2689,"partite":2690,"Ġapplication":2691,"fdfd":2692,"shot":2693,"Ġdimension":2694,"Ġrepresentation":2695,"Ġleading":2696,"ĠqHD":2697,"Ġtriple":2698,"Ġdistinct":2699,"Ġsettings":2700,"Ġconstraint":2701,"bedded":2702,"Ġtypically":2703,"Ġterms":2704,"Ġsampling":2705,"Ġpair":2706,"ĠEncoding":2707,"aussian":2708,"Ġcleanup":2709,":\\/\\/":2710,"Symbian":2711,"Tube":2712,"nyi":2713,"pansion":2714,"Ġpotential":2715,"Ġbatteries":2716,"ĠRÃ©nyi":2717,"ĠPDAdb":2718,"ĠYouTube":2719,"\"\"":2720,"\"}},\"":2721,"$(":2722,"$)":2723,"-\\":2724,".,":2725,"160":2726,"24":2727,"210":2728,"235":2729,"57":2730,"580":2731,"530":2732,"715":2733,"84":2734,"99":2735,"As":2736,"BQ":2737,"CT":2738,"DC":2739,"DI":2740,"DO":2741,"En":2742,"Er":2743,"FC":2744,"FT":2745,"GF":2746,"Is":2747,"LS":2748,"Or":2749,"Pro":2750,"Pad":2751,"RI":2752,"SH":2753,"Sh":2754,"TV":2755,"Will":2756,"YK":2757,"aware":2758,"bo":2759,"cial":2760,"circu":2761,"cise":2762,"dot":2763,"dens":2764,"density":2765,"eor":2766,"elect":2767,"fus":2768,"gu":2769,"ges":2770,"gain":2771,"graph":2772,"hidden":2773,"iate":2774,"iber":2775,"jector":2776,"ken":2777,"known":2778,"light":2779,"mobile":2780,"oad":2781,"pol":2782,"qr":2783,"sist":2784,"site":2785,"sics":2786,"sip":2787,"smartphone":2788,"sqr":2789,"tt":2790,"tely":2791,"uk":2792,"vis":2793,"viron":2794,"vious":2795,"wt":2796,"watch":2797,"xon":2798,"zo":2799,"zer":2800,"{{":2801,"}\\":2802,"})$":2803,"ÏĢ":2804,"Ġ-":2805,"Ġ=":2806,"Ġion":2807,"onf":2808,"onstruction":2809,"erner":2810,"inter":2811,"Ġtip":2812,"Ġtimes":2813,"Ġtarget":2814,"orn":2815,"ording":2816,"eneck":2817,"esis":2818,"Ġside":2819,"Ġslow":2820,"Ġserv":2821,"Ġsources":2822,"roken":2823,"ĠMolec":2824,"ĠMusic":2825,"Ġcurrent":2826,"lex":2827,"ĠSL":2828,"ises":2829,"Ġful":2830,"Ġfind":2831,"Ġfeature":2832,"Ġfidelity":2833,"Ġfollow":2834,"Ġagain":2835,"ings":2836,"Ġpure":2837,"Ġpric":2838,"Ġdom":2839,"Ġdata":2840,"Ġdots":2841,"Ġdiagonal":2842,"ĠGo":2843,"ĠGeomet":2844,"iams":2845,"Ġwid":2846,"ĠAO":2847,"ĠAm":2848,"ĠAll":2849,"ĠAtom":2850,"ĠAbelian":2851,"ĠAlex":2852,"Ġmon":2853,"Ġmass":2854,"Ġmachine":2855,"image":2856,"asi":2857,"astic":2858,"Ġbinary":2859,"eval":2860,"iver":2861,"eler":2862,"ĠHig":2863,"ĠHil":2864,"rap":2865,"raction":2866,"rays":2867,"igur":2868,"igital":2869,"ĠFourier":2870,"stant":2871,"ĠCre":2872,"ĠCDM":2873,"ĠTwo":2874,"Ġgadget":2875,"uncated":2876,"Ġ810":2877,"ulations":2878,"idence":2879,"Ġloc":2880,"Ġlaw":2881,"Ġreve":2882,"romagnetic":2883,"olog":2884,"pare":2885,"ilson":2886,"Ġ[[":2887,"Ġstoch":2888,"istory":2889,"resh":2890,"ĠQR":2891,"ĠQKD":2892,"114":2893,"ured":2894,"uring":2895,"urther":2896,"tern":2897,"tertain":2898,"Ġ30":2899,"Ġ33":2900,"aves":2901,"ĠZe":2902,"Ġanalog":2903,"Ġexpect":2904,"Ġexponential":2905,"osed":2906,"ogen":2907,"ĠOper":2908,"ments":2909,"Ġcondens":2910,"Ġweight":2911,"Ġweak":2912,"formance":2913,"bert":2914,"209":2915,"ainlist":2916,"liststyle":2917,"Ġcoun":2918,"Ġcoupling":2919,"Ġ138":2920,"Ġchem":2921,"Ġalong":2922,"Ġalgebra":2923,"Ġ70":2924,"plex":2925,"agg":2926,"ĠVari":2927,"Ġ163":2928,"Ġintrin":2929,"commons":2930,"theor":2931,"ticular":2932,"Ġresolv":2933,"Ġrespect":2934,"Ġ154":2935,"Ġinterferomet":2936,"enders":2937,"Ġshort":2938,"wgM":2939,"Ġ99":2940,"ĠSOL":2941,"Ġdead":2942,"ibase":2943,"coupled":2944,"Ġrate":2945,"256":2946,"8064":2947,"rame":2948,"Ġrot":2949,"Ġroute":2950,"Ġparallel":2951,"Ġparticular":2952,"Ġleast":2953,"Ġcanonical":2954,"abling":2955,"Ġsimult":2956,"ariant":2957,"Ġacross":2958,"ĠPlatform":2959,"ditional":2960,"Ġimport":2961,"}}@":2962,"inde":2963,"Ġoperator":2964,"Ġdistinguish":2965,"Ġcorresp":2966,"Ġoverhead":2967,"Ġdetun":2968,"Ġdetector":2969,"Ġprobabil":2970,"Ġstudying":2971,"upload":2972,"ĠEnt":2973,"ĠEntertain":2974,"Ġentangled":2975,"Ġcapacity":2976,"disabled":2977,"Ġsolv":2978,"Ġpredict":2979,"center":2980,"prov":2981,"Ġray":2982,"Ġboundary":2983,"Ġscale":2984,"Ġscalable":2985,"Ġinvolv":2986,"Ġmetrology":2987,"Ġlinewidth":2988,"Ġregion":2989,"Ġregist":2990,"Ġtrain":2991,"Ġphysics":2992,"ĠNovaThor":2993,"Ġerrors":2994,"7227":2995,"Ġequival":2996,"Ġspins":2997,"press":2998,"Ġyield":2999,"erva":3000,"Ġelectric":3001,"Ġimplementation":3002,"8260":3003,"Ġphotonic":3004,"okie":3005,"Ġnumer":3006,"Ġcommon":3007,"limited":3008,"soid":3009,"Ġoutput":3010,"ĠPhase":3011,"Ġphysically":3012,"mediawiki":3013,"Ġdevice":3014,"change":3015,"Ġeffective":3016,"Ġchange":3017,"ordin":3018,"iable":3019,"Ġanalysis":3020,"ĠOptimization":3021,"Ġestablished":3022,"2022":3023,"ploy":3024,"Ġresulting":3025,"ĠiTo":3026,"Ġgraphs":3027,"Ġtemperature":3028,"Ġcollis":3029,"Ġincluding":3030,"Ġconfigur":3031,"Ġproblems":3032,"Ġsquare":3033,"Ġampl":3034,"Ġrecording":3035,"\":[],\"":3036,"subgroup":3037,"ergence":3038,"ĠMeasurement":3039,"Ġdirectly":3040,"minerva":3041,"Ġsensing":3042,"ĠOne":3043,"Ġmechanics":3044,"Ġmechanism":3045,"Ġpolar":3046,"Ġrecently":3047,"Ġdepends":3048,"count":3049,"atively":3050,"Ġinflu":3051,"Ġmagn":3052,"Ġbosonic":3053,"Ġproofs":3054,"Ġconvergence":3055,"Ġcontaining":3056,"Ġdetection":3057,"Ġestimation":3058,"Ġchallenges":3059,"Ġmaximal":3060,"Ġstorage":3061,"Ġannounced":3062,"Ġexisting":3063,"ĠTransformer":3064,"Ġdiscrimination":3065,"tleneck":3066,"timeless":3067,"Ġtask":3068,"Ġtablets":3069,"Ġbottleneck":3070,"iliary":3071,"Ġdecomposition":3072,"ĠLindbladian":3073,"uxiliary":3074,"ĠMacWill":3075,"Ġbrand":3076,"ĠPRO":3077,"ĠPerformance":3078,"ĠLLC":3079,"Ġeigen":3080,"Ġdiscret":3081,"echanical":3082,"sqrt":3083,"vironment":3084,"xonium":3085,"Ġtipo":3086,"Ġfully":3087,"Ġagainst":3088,"ĠHilbert":3089,"ĠCDMA":3090,"Ġstochastic":3091,"ĠVariational":3092,"Ġcorrespond":3093,"ĠEntertainment":3094,"ĠiToF":3095,"ĠMacWilliams":3096,"\")":3097,"\"//":3098,"$_":3099,"%)":3100,"%}.":3101,"(--":3102,"(){":3103,"(\"//":3104,"..":3105,"150":3106,"34":3107,"37":3108,"310":3109,"320":3110,"44":3111,"56":3112,"610":3113,"680":3114,"73":3115,"79":3116,"8500":3117,">.":3118,"AQ":3119,"AS":3120,"AY":3121,"Abelian":3122,"BO":3123,"CC":3124,"Ch":3125,"Cl":3126,"Cs":3127,"DQ":3128,"Dual":3129,"Dog":3130,"DTV":3131,"ES":3132,"Gord":3133,"Kit":3134,"LAY":3135,"NS":3136,"OV":3137,"PU":3138,"Pl":3139,"Pres":3140,"QC":3141,"Qu":3142,"Sp":3143,"Single":3144,"TC":3145,"TF":3146,"ULS":3147,"View":3148,"Xiv":3149,"XGA":3150,"_\\":3151,"ah":3152,"ba":3153,"bot":3154,"blog":3155,"basis":3156,"bserv":3157,"cer":3158,"cons":3159,"crib":3160,"cdot":3161,"des":3162,"developer":3163,"ef":3164,"fect":3165,"face":3166,"flo":3167,"finite":3168,"gs":3169,"he":3170,"hol":3171,"hib":3172,"hanc":3173,"iro":3174,"iency":3175,"ja":3176,"jquery":3177,"kill":3178,"lt":3179,"late":3180,"less":3181,"mov":3182,"mode":3183,"moment":3184,"noth":3185,"normal":3186,"oe":3187,"pin":3188,"ping":3189,"pies":3190,"pite":3191,"pub":3192,"rÃ":3193,"rate":3194,"rons":3195,"ratic":3196,"sm":3197,"sv":3198,"sic":3199,"symmetric":3200,"trans":3201,"troducing":3202,"ule":3203,"uri":3204,"ven":3205,"word":3206,"waterproof":3207,"ysical":3208,"ype":3209,"Îĺ":3210,"Ïģ":3211,"à®":3212,"Ġ'":3213,"Ġ:":3214,"Ġut":3215,"Ġir":3216,"Ġess":3217,"Ġide":3218,"Ġrange":3219,"onomic":3220,"Ġtest":3221,"Ġtext":3222,"orter":3223,"ather":3224,"atomic":3225,"alf":3226,"als":3227,"arc":3228,"arp":3229,"enom":3230,"edback":3231,"item":3232,"itig":3233,"itter":3234,"itness":3235,"itivity":3236,"Ġsat":3237,"Ġsid":3238,"Ġsite":3239,"Ġsource":3240,"Ġsome":3241,"roc":3242,"roup":3243,"rope":3244,"ĠMany":3245,"ĠMemory":3246,"ĠMachine":3247,"icy":3248,"Ġcru":3249,"Ġ100":3250,"lein":3251,"leash":3252,"ĠSX":3253,"ĠSm":3254,"ĠSam":3255,"ĠSol":3256,"ĠSur":3257,"isy":3258,"ream":3259,"revers":3260,"reme":3261,"repeat":3262,"Ġfl":3263,"Ġfront":3264,"Ġfast":3265,"Ġfiber":3266,"Ġaction":3267,"Ġauxiliary":3268,"Ġour":3269,"Ġocc":3270,"Ġport":3271,"Ġpop":3272,"Ġpass":3273,"Ġdel":3274,"Ġdense":3275,"uting":3276,"eter":3277,"cha":3278,"check":3279,"quet":3280,"Ġwaterproof":3281,"Ġinput":3282,"Ġincom":3283,"ĠAI":3284,"Ġman":3285,"Ġmid":3286,"Ġmatter":3287,"Ġmaking":3288,"Ġmade":3289,"omography":3290,"omechanical":3291,"imits":3292,"asurab":3293,"Ġbran":3294,"Ġbest":3295,"Ġblock":3296,"Ġbuil":3297,"Ġbroken":3298,"ĠRel":3299,"ĠRam":3300,"ĠRob":3301,"ĠRead":3302,"iving":3303,"elf":3304,"ĠHay":3305,"ĠHybrid":3306,"rav":3307,"rained":3308,"emb":3309,"ements":3310,"ĠFe":3311,"ĠFound":3312,"ĠFlo":3313,"ĠFeature":3314,"Ġ($":3315,"ster":3316,"stat":3317,"Ġquasi":3318,"ĠWith":3319,"ĠWindows":3320,"ĠWilson":3321,"ĠCas":3322,"ĠClassical":3323,"ĠCoun":3324,"ried":3325,"ĠTro":3326,"ĠTra":3327,"Ġgover":3328,"Ġgenu":3329,"Ġglobal":3330,"Ġ845":3331,"uld":3332,"ulate":3333,"Ġnam":3334,"Ġnow":3335,"Ġnov":3336,"Ġnature":3337,"Ġnarrow":3338,"Ġlist":3339,"Ġlif":3340,"Ġlay":3341,"Ġlarg":3342,"Ġlength":3343,"Ġread":3344,"Ġrely":3345,"Ġrecon":3346,"Ġreference":3347,"Ġretur":3348,"Ġreview":3349,"Ġreleased":3350,"ĠPict":3351,"ĠPLAY":3352,"ols":3353,"ĠList":3354,"ably":3355,"abov":3356,"exa":3357,"onth":3358,"parse":3359,"iling":3360,"ilicon":3361,"ĠDynamics":3362,"ĠDirac":3363,"isted":3364,"istent":3365,"Ġprogram":3366,"Ġprojector":3367,"Ġorgan":3368,"ĠEdit":3369,"ĠEfficient":3370,"ape":3371,"ualEdit":3372,"irc":3373,"irÃ©":3374,"ĠArticles":3375,"etries":3376,"early":3377,"ples":3378,"plac":3379,"plainlist":3380,"ptions":3381,"urs":3382,"urate":3383,"access":3384,"Ġ3000":3385,"izes":3386,"Ġ600":3387,"Ġ6000":3388,"ĠNe":3389,"ĠNex":3390,"ĠNations":3391,"ĠNFC":3392,"ĠNDTV":3393,"Ġhide":3394,"Ġhexa":3395,"avor":3396,"ĠJP":3397,"Ġvar":3398,"Ġvol":3399,"Ġview":3400,"Ġvert":3401,"Ġcompact":3402,"Ġexce":3403,"Ġexhi":3404,"Ġexpansion":3405,"Ġexchange":3406,"ogonal":3407,"Ġ126":3408,"Ġarticle":3409,"Ġasym":3410,"ĠQubits":3411,"Ġweb":3412,"ĠBroad":3413,"Ġspacetime":3414,"phase":3415,"photon":3416,"ĠTheor":3417,"2013":3418,"Ġphenom":3419,"listitem":3420,"Ġcoefficient":3421,"Ġcoordin":3422,"Ġcopies":3423,"Ġ137":3424,"come":3425,"duced":3426,"ially":3427,"ĠUL":3428,"ĠUS":3429,"ebar":3430,"ebelow":3431,"Ġallow":3432,"ĠInformation":3433,"ultra":3434,"125":3435,"ĠVI":3436,"ĠView":3437,"ĠVideo":3438,"Ġ161":3439,"Ġ162":3440,"Ġ164":3441,"Ġ168":3442,"ĠNook":3443,"pping":3444,"ermine":3445,"Ġuncl":3446,"Ġunified":3447,"Ġuniform":3448,"Ġunknown":3449,"ĠAnd":3450,"ĠAnaly":3451,"Ġmean":3452,"Ġbeing":3453,"ended":3454,"Ġ2024":3455,"Ġ2025":3456,"Ġgenerates":3457,"wgULS":3458,"Ġ94":3459,"ĠKry":3460,"ĠKey":3461,"ĠKlein":3462,"Ġcomputer":3463,"Ġcomputers":3464,"Ġtransfer":3465,"Ġtransitions":3466,"lecting":3467,"Ġrig":3468,"ynamic":3469,"ĠApplic":3470,"ĠComput":3471,"cessing":3472,"peed":3473,"Ġrotation":3474,"sequ":3475,"selected":3476,"Ġsimpl":3477,"Ġsimple":3478,"Ġadd":3479,"Ġadmit":3480,"Ġadaptive":3481,"Ġadiabatic":3482,"Ġ143":3483,"Ġ146":3484,"Ġ147":3485,"Ġ148":3486,"Ġ149":3487,"---":3488,"Ġdynamic":3489,"ĠError":3490,"}}$":3491,"inding":3492,"luster":3493,"Ġoperational":3494,"Ġpreserv":3495,"Ġprescrib":3496,"Ġdistance":3497,"fficiency":3498,"Ġapply":3499,"Ġprevious":3500,"3213":3501,"atterns":3502,"Ġdetermine":3503,"Ġneural":3504,"Ġ115":3505,"ĠStabilizer":3506,"ixing":3507,"skins":3508,"Articles":3509,"ĠEngadget":3510,"Ġframe":3511,"Ġvarious":3512,"Ġvariational":3513,"load":3514,"ublish":3515,"ĠSpect":3516,"Ġprimit":3517,"Ġprint":3518,"Ġrequired":3519,"Ġobject":3520,"ĠExact":3521,"8960":3522,"8994":3523,"Ġemerg":3524,"evices":3525,"ĠWhen":3526,"Ġlink":3527,"Ġlimiting":3528,"Ġrelation":3529,"rossing":3530,"Ġabout":3531,"Ġdiffus":3532,"Ġspecs":3533,"preserving":3534,"riven":3535,"rivial":3536,"Ġ2620":3537,"Ġprocessor":3538,"Ġassum":3539,"citation":3540,"Ġrealistic":3541,"ailed":3542,"Ġacts":3543,"Ġacting":3544,"Ġplan":3545,"Ġstrength":3546,"Ġenabled":3547,"Ġenabling":3548,"Ġenvironment":3549,"Ġtheoret":3550,"ĠPreparation":3551,"ĠUncon":3552,"ĠUnlike":3553,"ouch":3554,"Ġspectra":3555,"331":3556,"www":3557,"Ġformal":3558,"Ġanalytic":3559,"ĠOptical":3560,"ĠOptimal":3561,"2021":3562,"ponse":3563,"Ġapplies":3564,"Ġproperty":3565,"aptcha":3566,"Ġreduce":3567,"Ġreduced":3568,"olved":3569,"Ġcorrelation":3570,"Ġcorrelated":3571,"2008":3572,"Ġtemporal":3573,"Ġfermion":3574,"Ġinclude":3575,"ĠInterference":3576,"Ġfundamentally":3577,"Ġfluxonium":3578,"Ġmicroscopic":3579,"Ġmicrowave":3580,"ĠTemporal":3581,"Ġgeometry":3582,"Ġcompet":3583,"Ġdegree":3584,"Ġsignals":3585,"sonymobile":3586,"Ġmaps":3587,"Ġmolecules":3588,"elta":3589,"ĠDetailed":3590,"Ġexperiments":3591,"Ġapproaches":3592,"Ġchannels":3593,"Ġsemiconductor":3594,"Ġgives":3595,"Ġnearly":3596,"Ġrecovered":3597,"Ġneeding":3598,"Ġcharacterized":3599,"ĠSimulations":3600,"ĠCorre":3601,"Ġconditional":3602,"Ġinteger":3603,"counter":3604,"Ġapproximation":3605,"Ġapproximate":3606,"operator":3607,"xperiablog":3608,"ĠMoirÃ©":3609,"ĠAppro":3610,"Ġmagic":3611,"Ġmultiple":3612,"ĠCoherent":3613,"Ġcombines":3614,"Ġconnection":3615,"Ġsubsets":3616,"Ġabsor":3617,"Ġabsence":3618,"Ġchallenging":3619,"Ġachieve":3620,"^{-":3621,"ĠCentral":3622,"ĠEurope":3623,"Ġcontextuality":3624,"column":3625,"columns":3626,"Ġdifferent":3627,"Ġdifferential":3628,"ĠPhoneDog":3629,"Ġfeatures":3630,"Ġsqueezed":3631,"Ġradiation":3632,"RLQ":3633,"className":3634,"greek":3635,"Ġcycle":3636,"Ġdriving":3637,"Ġmove":3638,"ĠCSS":3639,"Ġlabel":3640,"Ġproducing":3641,"Ġvalues":3642,"Ġarchitecture":3643,"Ġsequential":3644,"Ġtechniques":3645,"Ġprinciples":3646,"DPC":3647,"freedom":3648,"itude":3649,"ĠAqua":3650,"Ġmessages":3651,"Ġmake":3652,"ĠHelio":3653,"Ġoracle":3654,"Ġhypergraph":3655,"Ġrestrict":3656,"Ġtransmission":3657,"Ġrolling":3658,"Ġanalyze":3659,"ãĢįãĢĮ":3660,"Ġthermodynamic":3661,"ĠDetermining":3662,"Ericsson":3663,"board":3664,"guide":3665,"zero":3666,"onfir":3667,"Ġservice":3668,"Ġfollowing":3669,"Ġwidely":3670,"ĠAOL":3671,"ĠHiggs":3672,"ologies":3673,"ĠZeus":3674,"ogeneous":3675,"Ġcount":3676,"Ġchemical":3677,"Ġsimultaneous":3678,"independent":3679,"Ġprobabilistic":3680,"ĠEntanglement":3681,"Ġsolving":3682,"Ġequivalent":3683,"Ġnumerical":3684,"Ġconfiguration":3685,"Ġinfluence":3686,"Gordon":3687,"consistent":3688,"float":3689,"holonomic":3690,"notheme":3691,"pinned":3692,"rÃ¶":3693,"svg":3694,"urific":3695,"Ġessential":3696,"Ġsidebar":3697,"Ġcrucial":3698,"leashed":3699,"ĠRaman":3700,"ĠFloquet":3701,"Ġnovel":3702,"ĠPictures":3703,"abovebelow":3704,"ualEditor":3705,"Ġvertex":3706,"Ġexhibit":3707,"Ġasympt":3708,"'>":3709,")[":3710,")}.":3711,"+\\":3712,"102":3713,"380":3714,"342":3715,"40":3716,"43":3717,"520":3718,"710":3719,"AB":3720,"AU":3721,"BE":3722,"CQ":3723,"CS":3724,"Cont":3725,"Captcha":3726,"DE":3727,"Dis":3728,"EC":3729,"EGF":3730,"ERI":3731,"GB":3732,"GE":3733,"Gaussian":3734,"ISQ":3735,"Js":3736,"LI":3737,"LP":3738,"Lock":3739,"MC":3740,"MI":3741,"Mo":3742,"Mand":3743,"Not":3744,"Names":3745,"ON":3746,"OS":3747,"Ou":3748,"PF":3749,"Po":3750,"Par":3751,"PERI":3752,"QI":3753,"QR":3754,"QKD":3755,"Res":3756,"Rad":3757,"SiC":3758,"SYK":3759,"TT":3760,"Trans":3761,"Tok":3762,"The":3763,"UBO":3764,"Vis":3765,"Vers":3766,"Windows":3767,"\\\"":3768,"]}":3769,"az":3770,"aun":3771,"aio":3772,"bow":3773,"bur":3774,"cor":3775,"cation":3776,"cell":3777,"cible":3778,"div":3779,"dem":3780,"doc":3781,"dates":3782,"ders":3783,"dark":3784,"driven":3785,"ep":3786,"eq":3787,"fa":3788,"from":3789,"fact":3790,"flow":3791,"frame":3792,"gent":3793,"gist":3794,"gest":3795,"gated":3796,"gress":3797,"han":3798,"har":3799,"hite":3800,"iod":3801,"ker":3802,"ling":3803,"lad":3804,"lanc":3805,"lick":3806,"layer":3807,"mi":3808,"my":3809,"mor":3810,"model":3811,"mEdit":3812,"ng":3813,"night":3814,"off":3815,"ough":3816,"opping":3817,"py":3818,"pat":3819,"ply":3820,"pir":3821,"pace":3822,"produ":3823,"rong":3824,"rast":3825,"ronic":3826,"sw":3827,"sat":3828,"set":3829,"system":3830,"sible":3831,"self":3832,"speed":3833,"te":3834,"tal":3835,"tical":3836,"tter":3837,"two":3838,"tech":3839,"teg":3840,"vare":3841,"variant":3842,"with":3843,"wall":3844,"wave":3845,"wich":3846,"white":3847,"ycl":3848,"|[":3849,"}^":3850,"}_":3851,"~\\":3852,"Â·":3853,"Î±":3854,"Îµ":3855,"Ðº":3856,"Ñģ":3857,"Ġ;":3858,"ĠÉ":3859,"Ġet":3860,"Ġens":3861,"Ġran":3862,"Ġ--":3863,"Ġ}}":3864,"ĠãĤ":3865,"Ġ{\\":3866,"Ġiron":3867,"Ġ{{":3868,"ĠÂ·":3869,"ĢĶ":3870,"onable":3871,"erion":3872,"eric":3873,"ins":3874,"init":3875,"inos":3876,"iness":3877,"insp":3878,"induced":3879,"Ġtw":3880,"Ġtree":3881,"Ġtreat":3882,"Ġtomography":3883,"ana":3884,"annel":3885,"ores":3886,"ored":3887,"orent":3888,"oriz":3889,"orator":3890,"atom":3891,"atab":3892,"atures":3893,"ately":3894,"attice":3895,"atio":3896,"ally":3897,"ality":3898,"alty":3899,"alized":3900,"arting":3901,"arXiv":3902,"ened":3903,"enabled":3904,"enormal":3905,"enalty":3906,"esh":3907,"esian":3908,"edic":3909,"ites":3910,"Ġsl":3911,"Ġsing":3912,"Ġsand":3913,"Ġskin":3914,"Ġsole":3915,"Ġsensor":3916,"Ġsince":3917,"Ġsparse":3918,"rog":3919,"round":3920,"ropy":3921,"ĠMob":3922,"ĠMain":3923,"ĠMult":3924,"ĠMag":3925,"ĠMajor":3926,"Ġcal":3927,"Ġcre":3928,"Ġcut":3929,"Ġcall":3930,"Ġcell":3931,"Ġcross":3932,"Ġcirc":3933,"Ġcluster":3934,"legated":3935,"ĠSch":3936,"ĠSav":3937,"ĠSmart":3938,"ĠSingle":3939,"ĠSeries":3940,"ison":3941,"isher":3942,"isson":3943,"rec":3944,"report":3945,"reak":3946,"regist":3947,"Ġfer":3948,"Ġfil":3949,"Ġflow":3950,"Ġfail":3951,"Ġfurther":3952,"Ġaut":3953,"Ġaco":3954,"peratures":3955,"Ġpage":3956,"Ġpath":3957,"Ġpages":3958,"Ġpuls":3959,"Ġpatterns":3960,"Ġpurific":3961,"Ġpenalty":3962,"cting":3963,"ĠGraph":3964,"ĠGadget":3965,"ĠGreen":3966,"ĠGaussian":3967,"ĠGroup":3968,"Ġ200":3969,"utral":3970,"utrit":3971,"uthor":3972,"utsch":3973,"etter":3974,"iagram":3975,"quad":3976,"quilibrium":3977,"Ġwaves":3978,"Ġwitness":3979,"entity":3980,"ĠAb":3981,"ĠAra":3982,"ĠAuthor":3983,"ument":3984,"umber":3985,"Ġmac":3986,"Ġmarg":3987,"Ġmusic":3988,"Ġmotion":3989,"Ġmiro":3990,"Ġmitig":3991,"Ġmonth":3992,"omial":3993,"imir":3994,"imode":3995,"asible":3996,"Ġbus":3997,"Ġbond":3998,"ĠRev":3999,"ĠRog":4000,"ives":4001,"eline":4002,"ĠHong":4003,"ĠHardware":4004,"ĠHistory":4005,"ray":4006,"ems":4007,"emes":4008,"igation":4009,"ĠFan":4010,"ĠFisher":4011,"stri":4012,"start":4013,"strained":4014,"Ġquar":4015,"Ġqudit":4016,"ĠWag":4017,"ĠWign":4018,"ĠWave":4019,"ĠWVGA":4020,"ĠWerner":4021,"Ġ4000":4022,"ĠCol":4023,"ĠClo":4024,"ĠCost":4025,"ĠCodes":4026,"ĠCNO":4027,"rior":4028,"rift":4029,"rieval":4030,"ĠTL":4031,"ĠTX":4032,"ĠTos":4033,"ĠTog":4034,"ĠTech":4035,"ĠTop":4036,"ĠTechn":4037,"ĠTFT":4038,"Ġgive":4039,"Ġgrow":4040,"Ġgsm":4041,"Ġ820":4042,"Ġ835":4043,"Ġ865":4044,"Ġ888":4045,"ulse":4046,"Ġnan":4047,"Ġnormal":4048,"amb":4049,"Ġ50":4050,"Ġ55":4051,"Ġlad":4052,"Ġlack":4053,"Ġlimits":4054,"Ġlaun":4055,"Ġreport":4056,"Ġreaction":4057,"Ġrelease":4058,"Ġremov":4059,"Ġreprodu":4060,"ĠPock":4061,"ĠPriv":4062,"ĠProduct":4063,"ĠLo":4064,"ĠLin":4065,"ĠLear":4066,"ĠLog":4067,"ĠLogical":4068,"ĠLorent":4069,"abs":4070,"cept":4071,"exist":4072,"Ġtow":4073,"Ġtotal":4074,"parent":4075,"parsoid":4076,"ily":4077,"ilon":4078,"ilation":4079,"ilizing":4080,"ĠâĢĶ":4081,"oder":4082,"ĠDo":4083,"ĠDu":4084,"ĠDes":4085,"ĠDensity":4086,"ĠDiagonal":4087,"ĠDigital":4088,"ĠDelta":4089,"Ġstabil":4090,"Ġstatistics":4091,"istor":4092,"istance":4093,"Ġprogress":4094,"ĠEl":4095,"ĠEm":4096,"ĠEqu":4097,"ĠElect":4098,"resnel":4099,"resolved":4100,"ategor":4101,"ĠQVGA":4102,"own":4103,"ush":4104,"usion":4105,"Ġ\"}.":4106,"110":4107,"ears":4108,"earance":4109,"place":4110,"plied":4111,"chival":4112,"inally":4113,"Ġ34":4114,"Ġ3300":4115,"Ġ3580":4116,"ĠIm":4117,"ĠIts":4118,"ĠIQP":4119,"izations":4120,"Ġ60":4121,"Ġ62":4122,"Ġ65":4123,"ĠNot":4124,"ĠNuclear":4125,"ection":4126,"Ġhel":4127,"Ġhere":4128,"Ġhold":4129,"Ġhalf":4130,"aving":4131,"ĠThrough":4132,"ĠJames":4133,"rustr":4134,"Ġver":4135,"Ġvery":4136,"Ġcompon":4137,"Ġanch":4138,"Ġexpl":4139,"ogle":4140,"Ġ129":4141,"ctions":4142,"ayesian":4143,"ĠOur":4144,"ĠOffic":4145,"ĠObserv":4146,"ensive":4147,"Ġaround":4148,"Ġarise":4149,"Ġarriv":4150,"Ġarising":4151,"Ġarrays":4152,"Ġarchival":4153,"Ġcones":4154,"ĠQuad":4155,"ĠQubit":4156,"ĠBet":4157,"ĠBuil":4158,"ĠBorn":4159,"ĠBayesian":4160,"verage":4161,"Ġelement":4162,"Ġefficiency":4163,"Ġspaces":4164,"phab":4165,"phasing":4166,"ighb":4167,"2012":4168,"rang":4169,"oxel":4170,"Ġcould":4171,"Ġcoexist":4172,"Ġ136":4173,"lasov":4174,"Ġchang":4175,"Ġcharge":4176,"Ġcheck":4177,"ĠUr":4178,"Ġalign":4179,"Ġaltern":4180,"Ġalphab":4181,"estrict":4182,"ĠInc":4183,"Ġattra":4184,"oneable":4185,"128":4186,"1217":4187,"erson":4188,"ediaView":4189,"\":\"[[":4190,"\":\"+\\":4191,"ĠVaio":4192,"ĠVlad":4193,"ĠVlasov":4194,"extended":4195,"Ġ169":4196,"Ġintensity":4197,"iance":4198,"ynman":4199,"ynomial":4200,"thesis":4201,"though":4202,"tices":4203,"pped":4204,"Ġ152":4205,"Ġ153":4206,"Ġ155":4207,"Ġ156":4208,"Ġ159":4209,"ipher":4210,"ipse":4211,"ipulation":4212,"encies":4213,"Ġuncer":4214,"Ġinterpre":4215,"Ġintermed":4216,"Ġinteratomic":4217,"ĠAnime":4218,"ĠmeV":4219,"Ġmeasurab":4220,"atorial":4221,"Ġcontrib":4222,"Ġ2026":4223,"Ġgenerating":4224,"Ġgenerative":4225,"wgT":4226,"wgIs":4227,"Ġsystematic":4228,"ĠKy":4229,"clusion":4230,"Ġscram":4231,"Ġscience":4232,"Ġdepre":4233,"Ġdephasing":4234,"Ġnonlocal":4235,"Ġnonholonomic":4236,"idefinite":4237,"curac":4238,"ibr":4239,"Ġcompute":4240,"cookie":4241,"Ġtransdu":4242,"ĠComp":4243,"ĠComplex":4244,"250":4245,"collap":4246,"Ġrouting":4247,"Ġparad":4248,"Ġparity":4249,"Ġparticle":4250,"Ġadm":4251,"Ġadv":4252,"Ġ142":4253,"rypt":4254,"Ġaccurac":4255,"Ġdiscover":4256,"Ġdissip":4257,"acks":4258,"integ":4259,"Ġsubspace":4260,"dition":4261,"ards":4262,"Ġnoisy":4263,"1365":4264,"}}]}":4265,"Ġpersist":4266,"Ġperiod":4267,"rolled":4268,"ĠSee":4269,"Ġoperation":4270,"Ġoperating":4271,"Ġpresents":4272,"Ġappear":4273,"Ġpreclud":4274,"Ġprecise":4275,"Ġprepare":4276,"3223":4277,"Ġovercome":4278,"Ġneg":4279,"Ġneighb":4280,"\":{\"@":4281,"dinger":4282,"span":4283,"Ġ117":4284,"ĠStrong":4285,"ularization":4286,"wikibase":4287,"Ġevents":4288,"Ġ2900":4289,"ĠProf":4290,"Ġsimulator":4291,"Ġunderstanding":4292,"Ġentire":4293,"Ġentropy":4294,"Ġencode":4295,"Ġcapt":4296,"Ġcaptur":4297,"asting":4298,"astatistics":4299,"maint":4300,"Ġsola":4301,"Ġsolution":4302,"prof":4303,"processing":4304,"Ġ178":4305,"Ġobstruction":4306,"Ġobserv":4307,"ĠExcit":4308,"ĠExmor":4309,"Ġscales":4310,"ymmetries":4311,"egra":4312,"ĠXZs":4313,"Ġhighly":4314,"3593":4315,"tainty":4316,"Ġemission":4317,"Ġemploy":4318,"Ġemitter":4319,"Ġselected":4320,"evice":4321,"Ġlimitation":4322,"Ġrelations":4323,"Ġrelies":4324,"Ġrelated":4325,"eady":4326,"Ġtrade":4327,"Ġtraject":4328,"Ġlocally":4329,"Ġlocalization":4330,"Ġcompletely":4331,"Ġgenerally":4332,"Ġgeneralizes":4333,"Ġabbr":4334,"Ġspecial":4335,"Ġcontrolled":4336,"Ġupdates":4337,"Ġ2600":4338,"Ġexactly":4339,"Ġelectromagnetic":4340,"Ġimplemented":4341,"Ġimplementing":4342,"Ġrealize":4343,"nowrap":4344,"prefers":4345,"Ġstrings":4346,"limitreport":4347,"Ġcenters":4348,"Ġ187":4349,"Ġderived":4350,"ĠPhysical":4351,"energy":4352,"ĠUnder":4353,"scription":4354,"values":4355,"3311":4356,"leman":4357,"iables":4358,"Ġunitaries":4359,"Ġdistributions":4360,"SOI":4361,"Ġenergies":4362,"Ġwhereas":4363,"Ġmatrix":4364,"Ġreduction":4365,"ause":4366,"ausal":4367,"}$.":4368,"Ġcharging":4369,"Ġnumbers":4370,"643593":4371,"Introducing":4372,"iezo":4373,"psilon":4374,"Ġtemperatures":4375,"Ġtechnologies":4376,"Ġfeedback":4377,"Ġfeasible":4378,"Ġincluded":4379,"importance":4380,"rack":4381,"Ġquantization":4382,"ĠDisc":4383,"Ġexciton":4384,"Ġconfir":4385,"ĠInteraction":4386,"ĠInteracting":4387,"Ġpresented":4388,"Ġkeyboard":4389,"6833":4390,"Ġfrequ":4391,"Ġfrequency":4392,"ĠWikimedia":4393,"ĠWikidata":4394,"ĠTransport":4395,"Ġrecip":4396,"Ġversions":4397,"mathbf":4398,"Ġrequirement":4399,"subscription":4400,"inement":4401,"ĠCarleman":4402,"ĠContext":4403,"ĠControl":4404,"Ġspatially":4405,"6757":4406,"bler":4407,"turb":4408,"Ġschemes":4409,"Ġsensitivity":4410,"Ġefficiently":4411,"Ġdefined":4412,"Ġextended":4413,"header":4414,"áĢ¬":4415,"Ġtruncated":4416,"Ġ2870":4417,"ĠSimulation":4418,"ĠGeneration":4419,"ĠAdaptive":4420,"Ġreflection":4421,"ifted":4422,"Ġcondition":4423,"Ġconditions":4424,"Ġintegrated":4425,"Ġstrongly":4426,"Ġapplications":4427,"3113":4428,"mitter":4429,"optomechanical":4430,"Ġsums":4431,"Ġdivergence":4432,"Ġdimensions":4433,"Ġways":4434,"Ġinfinite":4435,"ĠDef":4436,"ĠDeutsch":4437,"Ġleads":4438,"Ġencodings":4439,"Ġestimates":4440,"BAR":4441,"equilibrium":4442,"lisher":4443,"measure":4444,"scheme":4445,"ĠMatrix":4446,"Ġbecome":4447,"Ġbecause":4448,"ĠRecent":4449,"ĠCenter":4450,"Ġinterface":4451,"Ġinterfaces":4452,"wgConfir":4453,"Ġtransforms":4454,"Ġplatforms":4455,"Ġsqueezing":4456,"Ġradiative":4457,"6603":4458,"elevant":4459,"Ġclose":4460,"Ġclosed":4461,"Ġcycl":4462,"Ġcarried":4463,"Ġcertification":4464,"ĠSoftware":4465,"Ġdriven":4466,"Ġmaint":4467,"Ġbipartite":4468,"Ġlaborator":4469,"Ġretains":4470,"Ġstep":4471,"Ġsteering":4472,"Ġvalue":4473,"Ġcomparison":4474,"Ġarchitectures":4475,"ĠVIII":4476,"wgRelevant":4477,"peaters":4478,"Ġaccurate":4479,"Ġaccessible":4480,"centralaut":4481,"Ġsequence":4482,"Ġseparated":4483,"Ġtechnique":4484,"\":[\"\",\"":4485,"Ġincreasingly":4486,"Ġprinciple":4487,"Ġfocusing":4488,"5503":4489,"6506":4490,"Start":4491,"temperature":4492,"Ġkinetic":4493,"Ġjointly":4494,"Ġsurface":4495,"ĠMicro":4496,"Ġcritical":4497,"Ġcandidate":4498,"Ġcandidates":4499,"Ġfactor":4500,"Ġinstead":4501,"Ġinversion":4502,"ĠCircuit":4503,"ĠCircuits":4504,"Ġgradients":4505,"Ġlogic":4506,"Ġretrieval":4507,"Ġheav":4508,"Ġexploited":4509,"Ġexploiting":4510,"Ġattacks":4511,"Ġresonators":4512,"Ġpartial":4513,"Ġrapidly":4514,"Ġextension":4515,"Ġconsider":4516,"Ġexperimentally":4517,"fdfdfd":4518,"Ġconstraints":4519,"7152":4520,"Enabled":4521,"Short":4522,"circuit":4523,"ĠMolecular":4524,"Ġpricing":4525,"Ġdomain":4526,"ĠGeometric":4527,"ĠAmeric":4528,"Ġgadgets":4529,"Ġlocations":4530,"Ġlaws":4531,"Ġreveal":4532,"ĠQROM":4533,"1141217":4534,"Ġexpectation":4535,"Ġexponentially":4536,"ĠOperators":4537,"Ġcondensation":4538,"2097152":4539,"aggered":4540,"Ġintrinsic":4541,"theoretic":4542,"Ġinterferometry":4543,"wgMediaView":4544,"Ġimportant":4545,"Ġregister":4546,"Ġtrainability":4547,"Ġpolarization":4548,"Ġmaximally":4549,"Ġeigenvalues":4550,"Ġcorrespondence":4551,"Preskill":4552,"QCB":4553,"bottom":4554,"hiba":4555,"publisher":4556,"ĠSmith":4557,"ĠSolutions":4558,"reversibility":4559,"Ġfrontier":4560,"Ġportal":4561,"Ġpopular":4562,"eterogeneous":4563,"Ġmanipulation":4564,"ĠHayden":4565,"ĠFoundation":4566,"status":4567,"ĠWithin":4568,"ĠCasimir":4569,"ĠCounter":4570,"ĠTrotter":4571,"Ġgenuine":4572,"Ġreconstruction":4573,"Ġreturns":4574,"Ġprogramm":4575,"Ġprojectors":4576,"placed":4577,"ĠNexus":4578,"Ġvariables":4579,"Ġcoordinates":4580,"Ġuncloneable":4581,"ĠAnalysis":4582,"ĠKryo":4583,"ĠKeyl":4584,"ĠApplications":4585,"Ġsimplified":4586,"Ġaddress":4587,"Ġpreserves":4588,"Ġprescribed":4589,"Ġprimitives":4590,"Ġobjects":4591,"Ġdiffusive":4592,"Ġtheoretical":4593,"Ġformalism":4594,"operatorname":4595,"ĠApproach":4596,"Ġrestricted":4597,"Ġsimultaneously":4598,"rÃ¶dinger":4599,"Mandel":4600,"Notice":4601,"Poisson":4602,"PERIA":4603,"Radar":4604,"Transform":4605,"Token":4606,"Version":4607,"document":4608,"tegrated":4609,"varepsilon":4610,"inspired":4611,"orizon":4612,"enormalization":4613,"edicting":4614,"Ġsingular":4615,"Ġsandwich":4616,"ĠMajorana":4617,"ĠSchrÃ¶dinger":4618,"ĠSavov":4619,"registration":4620,"Ġacoust":4621,"Ġpulses":4622,"ĠArago":4623,"ĠAuthority":4624,"Ġmacroscopic":4625,"Ġmarginal":4626,"ĠRogerson":4627,"ĠWagner":4628,"ĠWigner":4629,"ĠCNOT":4630,"ĠToshiba":4631,"ĠToggle":4632,"ĠTechRadar":4633,"ĠTopological":4634,"ĠgsmArena":4635,"ĠPocket":4636,"ĠPrivacy":4637,"ĠLorentz":4638,"Ġstabilization":4639,"ategories":4640,"Ġarrives":4641,"ĠBuilding":4642,"Ġattract":4643,"Ġuncertainty":4644,"Ġintermediate":4645,"Ġscrambler":4646,"Ġdeprecated":4647,"collapse":4648,"Ġaccuracy":4649,"1365643593":4650,"}}]}'>":4651,"Ġtrajectory":4652,"wgConfirmEdit":4653,"Ġlaboratory":4654,"wgMediaViewer":4655,"\",":4656,"\";":4657,"\"]":4658,"\"}":4659,"\"}.":4660,"'$":4661,"'+":4662,"'t":4663,"($":4664,"('":4665,"(/":4666,"({\"":4667,")!":4668,")&":4669,"))":4670,")/":4671,")=":4672,")>":4673,",#":4674,"-$":4675,".},":4676,"189":4677,"142":4678,"220":4679,"260":4680,"38":4681,"302":4682,"47":4683,"411":4684,"510":4685,"630":4686,"694":4687,"750":4688,"705":4689,"770":4690,"85":4691,"86":4692,"810":4693,"850":4694,"813":4695,"90":4696,"96":4697,"902":4698,"910":4699,";/":4700,"=\\":4701,"={\"":4702,"=[[":4703,">[[":4704,">\"}},\"":4705,"?.":4706,"AD":4707,"AN":4708,"AO":4709,"AX":4710,"Ap":4711,"Aware":4712,"All":4713,"BT":4714,"Bin":4715,"Bad":4716,"Based":4717,"Back":4718,"Bright":4719,"Blanc":4720,"CK":4721,"Co":4722,"Col":4723,"CAM":4724,"DX":4725,"Date":4726,"Dimensional":4727,"Dirac":4728,"DDI":4729,"Def":4730,"Em":4731,"Ex":4732,"Efficient":4733,"FE":4734,"FI":4735,"FS":4736,"FW":4737,"Fl":4738,"For":4739,"Free":4740,"Fock":4741,"Fresnel":4742,"Go":4743,"Hint":4744,"Head":4745,"HOM":4746,"HON":4747,"IF":4748,"Ising":4749,"IQP":4750,"IDI":4751,"Joe":4752,"KAN":4753,"LU":4754,"Lab":4755,"Low":4756,"Live":4757,"LDPC":4758,"MA":4759,"MD":4760,"MZ":4761,"Mod":4762,"Mad":4763,"Mobile":4764,"Max":4765,"Now":4766,"New":4767,"Nov":4768,"OW":4769,"PI":4770,"Pauli":4771,"Publish":4772,"QD":4773,"QNS":4774,"RD":4775,"RG":4776,"Re":4777,"Rev":4778,"SP":4779,"SR":4780,"Se":4781,"Su":4782,"SIM":4783,"SWAP":4784,"Select":4785,"Table":4786,"Time":4787,"Tolerant":4788,"Target":4789,"UXGA":4790,"UOS":4791,"VL":4792,"VIDI":4793,"WA":4794,"WM":4795,"Werner":4796,"[\"":4797,"\\\",\"":4798,"\\\"\"":4799,"\\}}$":4800,"]+":4801,"]).":4802,"^|":4803,"_{":4804,"aev":4805,"apar":4806,"aos":4807,"aug":4808,"aIn":4809,"aals":4810,"by":4811,"ban":4812,"bum":4813,"base":4814,"bient":4815,"block":4816,"bhi":4817,"breaking":4818,"bably":4819,"brack":4820,"cx":4821,"can":4822,"cri":4823,"cers":4824,"case":4825,"ccess":4826,"cast":4827,"capt":4828,"camera":4829,"cision":4830,"cement":4831,"cÏĢ":4832,"crossing":4833,"dd":4834,"ds":4835,"dom":4836,"dev":4837,"drom":4838,"dec":4839,"dop":4840,"diabatic":4841,"device":4842,"eed":4843,"eak":4844,"eering":4845,"ealing":4846,"eiling":4847,"eCol":4848,"fig":4849,"fies":4850,"frac":4851,"fidelity":4852,"gacy":4853,"global":4854,"glish":4855,"ggest":4856,"hd":4857,"hing":4858,"hom":4859,"hap":4860,"hogonal":4861,"iá":4862,"ior":4863,"iomet":4864,"iPS":4865,"js":4866,"kov":4867,"ktop":4868,"la":4869,"lint":4870,"large":4871,"ma":4872,"mf":4873,"mm":4874,"mp":4875,"mod":4876,"max":4877,"mak":4878,"matter":4879,"monic":4880,"menu":4881,"no":4882,"nate":4883,"near":4884,"null":4885,"network":4886,"nost":4887,"neg":4888,"number":4889,"oo":4890,"oot":4891,"oir":4892,"oich":4893,"ook":4894,"oice":4895,"ped":4896,"path":4897,"post":4898,"product":4899,"png":4900,"push":4901,"pensive":4902,"qutrit":4903,"ren":4904,"red":4905,"run":4906,"rive":4907,"rite":4908,"redu":4909,"rised":4910,"rreversibility":4911,"sim":4912,"sun":4913,"sure":4914,"side":4915,"scre":4916,"sizing":4917,"small":4918,"sue":4919,"search":4920,"since":4921,"sJs":4922,"ted":4923,"tot":4924,"tage":4925,"tag":4926,"tril":4927,"tablet":4928,"tible":4929,"tables":4930,"uch":4931,"uple":4932,"uild":4933,"vo":4934,"vex":4935,"video":4936,"wn":4937,"ws":4938,"wap":4939,"window":4940,"wned":4941,"ylo":4942,"yMax":4943,"zuk":4944,"{.":4945,"{|":4946,"|\\":4947,"||[":4948,"}]":4949,"}{":4950,"£²":4951,"ªŀ":4952,"±Ø":4953,"³ãĥ":4954,"»Î":4955,"¼r":4956,"Ã§":4957,"Ã¼r":4958,"Î©":4959,"ÎĶ":4960,"ÎĽ":4961,"ÏĦ":4962,"ÏĨ":4963,"Ð°":4964,"Ø§":4965,"Ø±Ø":4966,"ä¸":4967,"å£²":4968,"èªŀ":4969,"Ġj":4970,"Ġu":4971,"ĠÐ":4972,"Ġant":4973,"Ġel":4974,"Ġru":4975,"Ġif":4976,"Ġell":4977,"Ġeng":4978,"Ġzo":4979,"Ġearly":4980,"Ġultra":4981,"Ġzero":4982,"ĠÏĦ":4983,"Ġä¸":4984,"onant":4985,"only":4986,"onate":4987,"onators":4988,"ereb":4989,"ina":4990,"ink":4991,"ines":4992,"ining":4993,"inant":4994,"infor":4995,"information":4996,"inning":4997,"inbow":4998,"invariant":4999,"Ġtim":5000,"Ġtun":5001,"Ġtable":5002,"Ġtack":5003,"Ġtele":5004,"Ġtrivial":5005,"ane":5006,"anar":5007,"aniel":5008,"ances":5009,"anonical":5010,"oring":5011,"oration":5012,"orous":5013,"orption":5014,"ato":5015,"alt":5016,"ales":5017,"alid":5018,"alous":5019,"alance":5020,"alks":5021,"algebra":5022,"aron":5023,"ared":5024,"arch":5025,"arse":5026,"arithm":5027,"arts":5028,"architect":5029,"arrang":5030,"arren":5031,"ene":5032,"enn":5033,"enus":5034,"ender":5035,"enari":5036,"enhan":5037,"Ġthus":5038,"Ġthous":5039,"Ġthose":5040,"Ġthesis":5041,"Ġthresh":5042,"Ġthereb":5043,"edirect":5044,"itch":5045,"itial":5046,"itian":5047,"itors":5048,"Ġspl":5049,"Ġsmart":5050,"Ġsilicon":5051,"Ġsites":5052,"Ġsymmetries":5053,"rocal":5054,"ĠMK":5055,"ĠMZ":5056,"ĠMed":5057,"ĠMim":5058,"ĠMod":5059,"ĠMot":5060,"ĠMore":5061,"ĠMode":5062,"ĠMixed":5063,"ĠMagnetic":5064,"ĠMotion":5065,"iclassical":5066,"icators":5067,"Ġcat":5068,"Ġcite":5069,"Ġclock":5070,"Ġcamer":5071,"Ġcases":5072,"Ġcrossing":5073,"Ġcrypt":5074,"Ġcausal":5075,"Ġ180":5076,"Ġ1000":5077,"levant":5078,"leven":5079,"ĠSc":5080,"ĠSqu":5081,"ĠSem":5082,"ĠSec":5083,"ĠSever":5084,"ĠSym":5085,"ĠSlow":5086,"ĠSources":5087,"ĠSymmetric":5088,"ĠScal":5089,"ĠSince":5090,"ĠSYK":5091,"ĠSlate":5092,"ĠSilicon":5093,"ĠSQD":5094,"iss":5095,"isation":5096,"isol":5097,"isfies":5098,"rew":5099,"replace":5100,"Ġfar":5101,"Ġfile":5102,"Ġfine":5103,"Ġface":5104,"Ġfraction":5105,"Ġfavor":5106,"Ġfrustr":5107,"Ġax":5108,"Ġaffect":5109,"Ġopp":5110,"Ġowned":5111,"peri":5112,"Ġpip":5113,"Ġpast":5114,"Ġprior":5115,"Ġpiezo":5116,"Ġpeak":5117,"Ġdi":5118,"Ġdates":5119,"Ġdire":5120,"Ġdict":5121,"Ġdigital":5122,"Ġdmy":5123,"Ġdatab":5124,"Ġdrift":5125,"Ġdown":5126,"ctability":5127,"ĠGame":5128,"ĠGreat":5129,"Ġ2009":5130,"uts":5131,"uted":5132,"utual":5133,"utting":5134,"ety":5135,"etically":5136,"chen":5137,"ching":5138,"chron":5139,"iad":5140,"ias":5141,"quant":5142,"Ġwo":5143,"Ġworld":5144,"Ġwire":5145,"Ġwill":5146,"Ġwrit":5147,"Ġwindow":5148,"Ġwater":5149,"Ġwinding":5150,"Ġwalks":5151,"Ġinconsistent":5152,"Ġincor":5153,"Ġoff":5154,"Ġoffic":5155,"ention":5156,"ĠAX":5157,"ĠAk":5158,"ĠAt":5159,"ĠAin":5160,"ĠAcc":5161,"ĠAMC":5162,"ĠAgent":5163,"ĠActions":5164,"ĠXB":5165,"ĠXPERIA":5166,"umb":5167,"ume":5168,"ump":5169,"umer":5170,"uminos":5171,"ants":5172,"Ġmay":5173,"Ġmenu":5174,"Ġmark":5175,"Ġmoment":5176,"Ġmixing":5177,"Ġmuch":5178,"Ġmutual":5179,"omi":5180,"ominally":5181,"omalous":5182,"imize":5183,"imising":5184,"aser":5185,"Ġbas":5186,"Ġbig":5187,"Ġbur":5188,"Ġbud":5189,"Ġback":5190,"Ġbody":5191,"Ġbases":5192,"Ġbreaking":5193,"Ġbelow":5194,"Ġbuild":5195,"Ġbarren":5196,"ĠRC":5197,"ĠRol":5198,"ĠRich":5199,"ĠReg":5200,"ĠRash":5201,"ĠRSOI":5202,"ĠRenormalization":5203,"even":5204,"event":5205,"ivid":5206,"ivated":5207,"ivative":5208,"ively":5209,"ivacy":5210,"ivious":5211,"elike":5212,"eliC":5213,"ĠHa":5214,"ĠHe":5215,"ĠHess":5216,"ĠHerm":5217,"ĠHidden":5218,"ĠHTC":5219,"rade":5220,"ema":5221,"emph":5222,"embedd":5223,"embedded":5224,"igher":5225,"ĠFrom":5226,"ĠFree":5227,"ĠFram":5228,"ĠFunction":5229,"ĠFast":5230,"ĠFinite":5231,"ĠFurther":5232,"ĠFinding":5233,"ĠFeliC":5234,"Ġ(\\":5235,"stac":5236,"stabilizer":5237,"Ġquality":5238,"ĠWT":5239,"ĠWay":5240,"ĠWork":5241,"ĠWXGA":5242,"ĠWUXGA":5243,"ĠWaals":5244,"Ġ40":5245,"Ġ41":5246,"Ġ42":5247,"Ġ43":5248,"Ġ47":5249,"Ġ430":5250,"ĠCD":5251,"ĠCore":5252,"ĠCell":5253,"ĠCrit":5254,"ĠCPU":5255,"ĠCipher":5256,"riple":5257,"ĠTr":5258,"ĠTw":5259,"ĠTensor":5260,"ĠTDA":5261,"ĠTele":5262,"ĠTRI":5263,"ĠTuring":5264,"ĠType":5265,"ĠTouch":5266,"ĠTegra":5267,"Ġgu":5268,"Ġgas":5269,"uniform":5270,"unleashed":5271,"uncation":5272,"unstri":5273,"Ġonce":5274,"Ġonto":5275,"Ġ88":5276,"Ġ855":5277,"ulcan":5278,"Ġnont":5279,"Ġnec":5280,"Ġnone":5281,"Ġnative":5282,"ams":5283,"ample":5284,"Ġ57":5285,"Ġ528":5286,"ida":5287,"ids":5288,"ider":5289,"ident":5290,"Ġlos":5291,"Ġline":5292,"Ġlast":5293,"Ġlangu":5294,"Ġlaser":5295,"Ġreform":5296,"Ġrepe":5297,"Ġreach":5298,"Ġrepeaters":5299,"Ġrearrang":5300,"Ġrelevant":5301,"romod":5302,"romagnet":5303,"ĠPage":5304,"ĠPort":5305,"ĠPress":5306,"ĠPAC":5307,"ĠPOV":5308,"ĠPublish":5309,"ĠPHON":5310,"olic":5311,"olition":5312,"olute":5313,"ĠLP":5314,"ĠLU":5315,"ĠLe":5316,"ĠLive":5317,"ĠLip":5318,"ĠLocal":5319,"ĠLarge":5320,"ĠLie":5321,"ĠLoun":5322,"ĠLDPC":5323,"ĠLattice":5324,"ĠLetter":5325,"ĠLamb":5326,"ĠLifted":5327,"ontaneous":5328,"parastatistics":5329,"0000":5330,"ilayer":5331,"ĠDA":5332,"ĠDem":5333,"ĠData":5334,"ĠDick":5335,"ĠDevices":5336,"ĠDQI":5337,"ĠDonate":5338,"ĠDaniel":5339,"Ġstability":5340,"Ġstill":5341,"Ġstatic":5342,"Ġstatist":5343,"Ġstart":5344,"Ġstrict":5345,"Ġsteady":5346,"Ġstaggered":5347,"Ġstarts":5348,"adoo":5349,"istrib":5350,"istants":5351,"Ġorders":5352,"ĠEV":5353,"ĠEffect":5354,"ĠEvalu":5355,"ĠEee":5356,"ĠEven":5357,"app":5358,"aping":5359,"resonant":5360,"ither":5361,"ateg":5362,"ateaus":5363,"ĠQC":5364,"ĠQUBO":5365,"uss":5366,"usage":5367,"ushi":5368,"otes":5369,"otically":5370,"otonic":5371,"irl":5372,"iral":5373,"ĠArena":5374,"ĠArrays":5375,"platform":5376,"planar":5377,"urv":5378,"urer":5379,"urated":5380,"ĠRetrieval":5381,"term":5382,"terative":5383,"acing":5384,"Ġ35":5385,"Ġ37":5386,"ĠIrreversibility":5387,"ĠIterative":5388,"ecs":5389,"ecompos":5390,"Ġissue":5391,"Ġ66":5392,"Ġ650":5393,"Ġ695":5394,"ĠNew":5395,"ĠNative":5396,"ĠNarrow":5397,"ĠNEGF":5398,"ĠNISQ":5399,"ĠNTT":5400,"ĠNVIDI":5401,"ĠNiPS":5402,"Ġhom":5403,"Ġhost":5404,"Ġhistory":5405,"Ġhopping":5406,"Ġhistor":5407,"Ġheterogeneous":5408,"Ġhorizon":5409,"Ġhigher":5410,"ilevel":5411,"avis":5412,"ĠThen":5413,"ĠJoe":5414,"ĠJadoo":5415,"ruply":5416,"Ġvan":5417,"Ġvoxel":5418,"Ġvalid":5419,"Ġcoming":5420,"Ġcompos":5421,"ĠZX":5422,"Ġansat":5423,"Ġexotic":5424,"Ġexpress":5425,"osite":5426,"ĠWeather":5427,"PAD":5428,"ifier":5429,"ifiable":5430,"Ġ124":5431,"Ġ125":5432,"Ġ127":5433,"ays":5434,"ĠOS":5435,"ĠOver":5436,"ĠOja":5437,"unds":5438,"Ġarrow":5439,"Ġarticles":5440,"Ġasks":5441,"ĠMarton":5442,"Ġcone":5443,"Ġconject":5444,"Ġconserv":5445,"Ġconsequ":5446,"Ġconcept":5447,"101":5448,"105":5449,"ĠQuant":5450,"Ġsupre":5451,"Ġsuccess":5452,"Ġsuggest":5453,"format":5454,"essment":5455,"essional":5456,"ĠBe":5457,"ĠBob":5458,"ĠBey":5459,"ĠBose":5460,"ĠBetween":5461,"ĠBrid":5462,"ĠBench":5463,"ĠBinary":5464,"ĠBenders":5465,"ĠBrav":5466,"Ġeither":5467,"Ġ101":5468,"Ġ104":5469,"Ġ107":5470,"Ġspontaneous":5471,"Ġwhat":5472,"phones":5473,"ĠTheory":5474,"201":5475,"2010":5476,"20160":5477,"Ġcoinc":5478,"Ġcouple":5479,"Ġcoarse":5480,"Ġcoplanar":5481,"Ġ131":5482,"Ġ139":5483,"Ġ1320":5484,"Ġ1305":5485,"compon":5486,"dup":5487,"Ġchiral":5488,"ĠUse":5489,"ĠUplo":5490,"Ġalway":5491,"estro":5492,"estKit":5493,"ĠInst":5494,"ĠInAs":5495,"ĠIntegrated":5496,"ĠInitial":5497,"Ġ71":5498,"Ġ76":5499,"pletely":5500,"aged":5501,"aging":5502,"agnost":5503,"sically":5504,"ups":5505,"ersonal":5506,"orthogonal":5507,"\":\"{{":5508,"ĠVL":5509,"ĠVenus":5510,"ĠVulcan":5511,"extreme":5512,"Ġ160":5513,"Ġ167":5514,"Ġintense":5515,"udy":5516,"ffing":5517,"thogonal":5518,"Ġreserv":5519,"Ġresolution":5520,"Ġresistance":5521,"Ġreshap":5522,"Ġ150":5523,"Ġ157":5524,"navigation":5525,"ips":5526,"ipal":5527,"Ġunits":5528,"Ġuncon":5529,"Ġunleashed":5530,"Ġmeasure":5531,"Ġmeasures":5532,"Ġbeh":5533,"Ġbegin":5534,"Ġsharp":5535,"Ġshoot":5536,"Ġshared":5537,"Ġshaping":5538,"Ġcontents":5539,"Ġgeneric":5540,"Ġgenerated":5541,"wgP":5542,"wgUser":5543,"wgVis":5544,"wgWM":5545,"Ġ90":5546,"Ġ95":5547,"Ġ97":5548,"Ġ98":5549,"ĠKoch":5550,"ĠKDDI":5551,"clip":5552,"Ġdelegated":5553,"Ġmodal":5554,"Ġmodule":5555,"Ġnonclassical":5556,"Ġnonzero":5557,"ibration":5558,"coupling":5559,"Ġtransvers":5560,"lector":5561,"igns":5562,"ignaling":5563,"Ġrates":5564,"Ġrenders":5565,"Ġrather":5566,"Ġoptim":5567,"Ġoptically":5568,"ĠCombin":5569,"8056":5570,"colation":5571,"Ġrow":5572,"Ġrole":5573,"Ġroot":5574,"Ġrounds":5575,"allback":5576,"Ġparticles":5577,"selection":5578,"Ġleft":5579,"Ġleverage":5580,"Ġlegacy":5581,"Ġcannot":5582,"Ġsimplic":5583,"Ġ2330":5584,"Ġ2370":5585,"Ġadditional":5586,"marting":5587,"ove":5588,"Ġ145":5589,"Ġaccount":5590,"Ġdisjoint":5591,"ouring":5592,"posal":5593,"position":5594,"introducing":5595,"Ġsubcircu":5596,"Ġsubstant":5597,"Ġimpact":5598,"Ġimplies":5599,"Ġimprov":5600,"Ġdecre":5601,"Ġdecoding":5602,"Ġdeconstruction":5603,"Ġdecoder":5604,"ificates":5605,"ĠAndroidcentral":5606,"grown":5607,"Ġproved":5608,"ĠErasure":5609,"ĠErasures":5610,"Ġperfect":5611,"Ġperturb":5612,"ĠSepar":5613,"Ġquadratic":5614,"Ġstudies":5615,"Ġstudied":5616,"Ġpressure":5617,"olem":5618,"Ġerasures":5619,"Ġapplying":5620,"Ġprepar":5621,"Ġprevent":5622,"321":5623,"3212":5624,"3242":5625,"3226":5626,"3221":5627,"Ġiter":5628,"Ġoverall":5629,"Ġoverlap":5630,"Ġdetail":5631,"Ġneutral":5632,"spacing":5633,"specs":5634,"Ġundermin":5635,"anufact":5636,"ĠStore":5637,"ĠStates":5638,"ĠStruct":5639,"ĠStream":5640,"ĠStudy":5641,"Ġshows":5642,"Ġshowing":5643,"ixel":5644,"wikidata":5645,"Archos":5646,"Ġevidence":5647,"Ġsinglet":5648,"Ġ2500":5649,"Ġ2930":5650,"Ġminimal":5651,"ĠProposal":5652,"ĠEnhanc":5653,"Ġencodes":5654,"iller":5655,"illar":5656,")$-":5657,"dead":5658,"depth":5659,"degree":5660,"dissip":5661,"Ġsolve":5662,"Ġprim":5663,"Ġpredicting":5664,"Ġprivacy":5665,"propag":5666,"Ġrainbow":5667,"Ġ170":5668,"Ġ172":5669,"Ġ175":5670,"Ġobser":5671,"Ġobey":5672,"Ġobstruct":5673,"Ġobstac":5674,"Ġbounded":5675,"ĠExt":5676,"ĠExplicit":5677,"ĠExtern":5678,"ĠExclusion":5679,"Ġatomic":5680,"Ġintroduces":5681,"8928":5682,"opups":5683,"Ġdespite":5684,"Ġemulation":5685,"Ġembedded":5686,"Ġempir":5687,"Ġseed":5688,"Ġselection":5689,"Ġlimitations":5690,"Ġregions":5691,"Ġregimes":5692,"Ġrelax":5693,"Ġrelative":5694,"Ġrelativ":5695,"Ġreliable":5696,"connect":5697,"Ġtrace":5698,"Ġtraffic":5699,"Ġtractability":5700,"Ġworks":5701,"Ġlocalized":5702,"7200":5703,"7225":5704,"Ġ1900":5705,"Ġfunctional":5706,"Ġposed":5707,"Ġposition":5708,"Ġcontrols":5709,"Ġyou":5710,"Ġyears":5711,"Ġprocesses":5712,"Ġprocessors":5713,"Ġassemb":5714,"Ġassistants":5715,"Ġassessment":5716,"Ġelectro":5717,"Ġelectrons":5718,"Ġelectronic":5719,"4213":5720,"823":5721,"8210":5722,"8274":5723,"textit":5724,"textbf":5725,"Ġsets":5726,"Ġsetup":5727,"ĠHamiltonians":5728,"5502":5729,"okens":5730,"Ġedge":5731,"Ġplateaus":5732,"ĠReal":5733,"ĠReferences":5734,"ĠReleased":5735,"Ġstrateg":5736,"Ġcommut":5737,"logo":5738,"ãĥ¼":5739,"ãĥĭ":5740,"Ġenables":5741,"Ġ181":5742,"Ġderiving":5743,"Ġlater":5744,"Ġremained":5745,"ĠPhoton":5746,"ĠPrecise":5747,"Ġsuperrad":5748,"Ġinvestigation":5749,"controlled":5750,"scill":5751,"science":5752,"scape":5753,"channel":5754,"Ġstructural":5755,"Ġvectors":5756,"Ġparametrised":5757,"3313":5758,"CDMA":5759,"hods":5760,"iability":5761,"ĠForm":5762,"Ġforming":5763,"Ġformulation":5764,"Ġformulate":5765,"Ġanalytical":5766,"Ġlearn":5767,"ĠPlayNow":5768,"Ġestablishing":5769,"2023":5770,"2026":5771,"Ġapplied":5772,"Ġmatches":5773,"Ġnetworking":5774,"ecker":5775,"Ġreduces":5776,"Ġreducing":5777,"Ġdeveloped":5778,"Ġdevelopment":5779,"5302":5780,"ĠiSWAP":5781,"inuum":5782,"ĠChr":5783,"ĠChaw":5784,"ĠChannel":5785,"ĠChromod":5786,"ĠConver":5787,"ĠConnect":5788,"ĠConsequ":5789,"ologically":5790,"Ġadvantages":5791,"640":5792,"6502":5793,"InP":5794,"Infobox":5795,"]]\\":5796,"ãĤ³ãĥ":5797,"Ġtemplate":5798,"Ġtechnical":5799,"Ġtechnologically":5800,"Ġcolor":5801,"periments":5802,"Ġincludes":5803,"Ġquantit":5804,"Ġquantifier":5805,"olerance":5806,"Ġexcitations":5807,"Ġconfidence":5808,"Ġconfinement":5809,"){.":5810,"6802":5811,"Editable":5812,"link":5813,"Ġ221":5814,"ĠSystems":5815,"Ġfluores":5816,"Ġinitio":5817,"Ġ485":5818,"Ġcompens":5819,"Ġcompilation":5820,"Ġdegrade":5821,"Ġrobotic":5822,"Ġidentifies":5823,"Ġdemonstrated":5824,")\"\\":5825,")\"},\"":5826,"overflow":5827,"ĠMeet":5828,"Ġclasses":5829,"Ġpromises":5830,"Ġwavefunction":5831,"Ġwaveguide":5832,"Ġincrease":5833,"Ġincreases":5834,"Ġmapping":5835,"ĠCarr":5836,"ĠContact":5837,"ĠContents":5838,"ĠPadre":5839,"Ġexperiment":5840,"ifying":5841,"Ġcosts":5842,"Ġcostly":5843,"Ġrandomness":5844,"6755":5845,"6752":5846,"6737":5847,"PageName":5848,"PageIs":5849,"mini":5850,"premium":5851,"ancy":5852,"atching":5853,"Ġsemi":5854,"Ġsemidefinite":5855,"Ġsemiclassical":5856,"Ġoffered":5857,"ĠTools":5858,"Ġsuppress":5859,"marking":5860,"Ġdefect":5861,"Ġdefine":5862,"ĠCommons":5863,"ĠCommunication":5864,"Ġdiscuss":5865,"ĠSpecifications":5866,"ĠSpecification":5867,"Ġextends":5868,"Ġcharacterization":5869,"Ġcharacterize":5870,"Ġcharacteristic":5871,"Ġachieved":5872,"áĢĻ":5873,"Ġtruncation":5874,"aligned":5875,"Ġsevere":5876,"ĠSimulating":5877,"ĠSmartphone":5878,"Ġfamilies":5879,"Ġpoly":5880,"Ġpolynomial":5881,"ĠGenerating":5882,"ĠGeneralized":5883,"ĠAdaIn":5884,"ĠAlgorithm":5885,"ĠAlgebra":5886,"ĠAlthough":5887,"ĠAlbum":5888,"Ġquestions":5889,"Ġlonger":5890,"Ġreflecting":5891,"partition":5892,"Ġintegral":5893,"Ġdecoupling":5894,"wikimediaBad":5895,"Ġapproximately":5896,"Ġstronger":5897,"eezing":5898,"operation":5899,"optical":5900,"options":5901,"Ġsumm":5902,"Ġsmaller":5903,"ĠMoore":5904,"Ġclear":5905,"Ġwayback":5906,"Ġindex":5907,"Ġindicators":5908,"Ġindivid":5909,"Ġindecompos":5910,"ĠAppearance":5911,"Ġmultiqubit":5912,"Ġboson":5913,"Ġbosons":5914,"Ġbroadband":5915,"amples":5916,"Ġrepresentations":5917,"Ġcombined":5918,"Ġcombinatorial":5919,"Ġconnected":5920,"Ġcontains":5921,"Ġsubset":5922,"Ġdetected":5923,"Ġachieves":5924,"Ġachieving":5925,"website":5926,"ĠMatt":5927,"ĠMultiple":5928,"Ġmaximum":5929,"Ġbecom":5930,"ĠReconstruction":5931,"Ġgoal":5932,"Ġgood":5933,"Ġstoring":5934,"Ġprojects":5935,"Ġprojected":5936,"ĠEuCl":5937,"Ġannealing":5938,"Ġinterfac":5939,"Ġcontexts":5940,"wgCanonical":5941,"Ġtransformations":5942,"ymbolic":5943,"Ġdistinction":5944,"Ġobtained":5945,"ĠPhoneArena":5946,"Ġgroups":5947,"Ġconsists":5948,"Ġconsistency":5949,"Ġfeaturing":5950,"Ġidentifying":5951,"Ġsupports":5952,"Ġdiscriminated":5953,"290":5954,"6602":5955,"6902":5956,"6903":5957,"6906":5958,"DMRG":5959,"LanguageSelect":5960,"SQD":5961,"SQL":5962,"lapsible":5963,"pageLanguage":5964,"truncated":5965,"Ġtasks":5966,"edictive":5967,"Ġsynthesis":5968,"Ġsyndrom":5969,"Ġsynchron":5970,"Ġcrystals":5971,"Ġpoints":5972,"Ġpowerful":5973,"Ġbipartition":5974,"Ġbottom":5975,"ĠResource":5976,"ĠResponse":5977,"ĠResonators":5978,"ĠRandomized":5979,"Ġreceivers":5980,"Ġreceived":5981,"Ġreceiver":5982,"Ġretaining":5983,"Ġextraction":5984,"ĠOthers":5985,"wgRestrict":5986,"Ġacceler":5987,"Ġdeterminant":5988,"Ġdeterministic":5989,"Ġevaluation":5990,"Ġevaluated":5991,"centralNotice":5992,"Ġseparable":5993,"Ġsignificantly":5994,"Ġphotonics":5995,"3123":5996,"6503":5997,"BCO":5998,"NOS":5999,"Wikibase":6000,"_{\\{":6001,"frequency":6002,"ganization":6003,"urable":6004,"});});":6005,"Î´c":6006,"Ġtherefore":6007,"itudes":6008,"ĠMicrowave":6009,"ĠMethods":6010,"Ġcriterion":6011,"ĠSuper":6012,"isionId":6013,"Ġfactors":6014,"Ġdimensionality":6015,"Ġinvertible":6016,"ĠAcro":6017,"ĠAccess":6018,"Ġmessage":6019,"Ġmultimode":6020,"Ġmultilevel":6021,"Ġmakes":6022,"Ġbitstr":6023,"Ġlogarithm":6024,"Ġretail":6025,"ĠPrint":6026,"ĠPredictive":6027,"ĠParallel":6028,"Ġpropagates":6029,"Ġoracles":6030,"ĠBounds":6031,"Ġattempt":6032,"Ġrestric":6033,"Ġuniversality":6034,"wgPageCont":6035,"Ġpartition":6036,"ArticleId":6037,"ArticleTarget":6038,"ĠProcessor":6039,"Ġpossible":6040,"Ġpossibility":6041,"Ġtheorems":6042,"Ġextensive":6043,"Ġdescribe":6044,"Ġdescribed":6045,"Ġconsidered":6046,"Ġthermodynamics":6047,"ĠDeterministic":6048,"ĠEncodings":6049,"Ġpotentials":6050,"23550":6051,"23556":6052,"5306":6053,"DCU":6054,"DOF":6055,"Order":6056,"Organization":6057,"Project":6058,"Probably":6059,"Padre":6060,"electron":6061,"hiddenrow":6062,"polar":6063,"visualEditor":6064,"watches":6065,"interlanguage":6066,"Ġslowest":6067,"ĠMolecules":6068,"Ġprice":6069,"Ġdominant":6070,"Ġdiagonalizing":6071,"ĠGoogle":6072,"ĠGeometry":6073,"ĠAtoms":6074,"ĠAtomic":6075,"Ġmonotonic":6076,"Ġmassive":6077,"elerated":6078,"ĠCreate":6079,"ĠCreative":6080,"Ġlocated":6081,"Ġrevealing":6082,"ĠQRAM":6083,"Ġ3330":6084,"Ġexpected":6085,"Ġcondensed":6086,"Ġweakly":6087,"Ġcouplings":6088,"Ġalgebraic":6089,"agged":6090,"Ġintrinsically":6091,"theoretically":6092,"Ġresolve":6093,"Ġresolving":6094,"Ġinterferometers":6095,"Ġrotations":6096,"Ġparallelism":6097,"Ġparticularly":6098,"Ġimportance":6099,"Ġdistinguishing":6100,"Ġdistinguishability":6101,"Ġdetuned":6102,"Ġdetuning":6103,"Ġdetectors":6104,"proved":6105,"Ġinvolves":6106,"Ġinvolving":6107,"Ġyielding":6108,"Ġcommonly":6109,"Ġcollision":6110,"Ġcollisions":6111,"Ġamplitude":6112,"Ġamplitudes":6113,"ĠMeasurements":6114,"Ġmechanisms":6115,"Ġmagnons":6116,"Ġmagnitude":6117,"ĠLindbladians":6118,"Ġcorresponds":6119,"...":6120,"6806":6121,"AQUOS":6122,"China":6123,"CssJs":6124,"Kitaev":6125,"Play":6126,"Qubit":6127,"Query":6128,"Specker":6129,"desktop":6130,"momentum":6131,"transparent":6132,"Ġutilizing":6133,"Ġirredu":6134,"Ġideal":6135,"arcia":6136,"Ġsatisfies":6137,"Ġsaturated":6138,"rocity":6139,"icycle":6140,"ĠSXRD":6141,"ĠSample":6142,"ĠSamsun":6143,"ĠSurbhi":6144,"Ġflavor":6145,"Ġoccup":6146,"Ġpassage":6147,"Ġdeliver":6148,"Ġincoming":6149,"Ġbranch":6150,"Ġbranches":6151,"Ġbuilt":6152,"Ġbuildup":6153,"ĠRelational":6154,"ĠRobyn":6155,"emble":6156,"ĠFeynman":6157,"Ġ($\\":6158,"Ġgoverning":6159,"Ġnaming":6160,"Ġnamely":6161,"Ġlists":6162,"Ġlayered":6163,"Ġlargely":6164,"Ġreadout":6165,"Ġorganic":6166,"ĠNeural":6167,"Ġvoltage":6168,"Ġexceed":6169,"Ġphenomen":6170,"Ġphenomena":6171,"Ġcoefficients":6172,"ĠUSA":6173,"Ġallows":6174,"Ġallowed":6175,"ĠAndrew":6176,"wgULSis":6177,"Ġrigid":6178,"Ġrigorous":6179,"ĠComputing":6180,"ĠSpectral":6181,"Ġemerged":6182,"Ġassumptions":6183,"ĠUnconventional":6184,"Ġfermionic":6185,"Ġcompetitors":6186,"ĠCorrection":6187,"Ġlabels":6188,"Ġsequentially":6189,"Ġexhibiting":6190,"Ġasymptotic":6191,"Ġasymptotically":6192,"MINOS":6193,"Namespace":6194,"QRAM":6195,"demolition":6196,"eqiad":6197,"harmonic":6198,"kern":6199,"patibility":6200,"yclic":6201,"Ġensemble":6202,"Ġrank":6203,"Ġ}}&":6204,"Ġironed":6205,"inesses":6206,"Ġtwirl":6207,"Ġtreatments":6208,"eshkov":6209,"Ġsolely":6210,"ĠMobyMax":6211,"Ġcalc":6212,"Ġcreating":6213,"Ġcalled":6214,"ĠSinglet":6215,"Ġferromagnetic":6216,"Ġfilms":6217,"Ġfails":6218,"Ġpurification":6219,"ĠGadgets":6220,"ĠAbout":6221,"Ġmitigate":6222,"Ġbusinesses":6223,"Ġquartic":6224,"ĠColor":6225,"ĠCloud":6226,"ĠTechnology":6227,"Ġladder":6228,"Ġreproduce":6229,"ĠLoire":6230,"ĠLinear":6231,"ĠLearning":6232,"absorption":6233,"ĠDoCo":6234,"ĠDuffing":6235,"ĠDespite":6236,"ĠDiagonalization":6237,"ĠElite":6238,"ĠElectron":6239,"Ġ3430":6240,"ĠImproved":6241,"ĠNote":6242,"Ġhelp":6243,"Ġholds":6244,"Ġvertices":6245,"Ġcomponents":6246,"Ġanchors":6247,"Ġexplore":6248,"ĠOfficial":6249,"ĠObservables":6250,"Ġcoexistence":6251,"Ġchanges":6252,"ĠUrushi":6253,"Ġalignment":6254,"Ġalternative":6255,"Ġalphabet":6256,"\":\"+\\\\\",\"":6257,"Ġinterpretation":6258,"Ġmeasurable":6259,"Ġnonlocality":6260,"ibrational":6261,"Ġtransducers":6262,"ĠComplexity":6263,"Ġparadig":6264,"Ġadmits":6265,"Ġdissipative":6266,"Ġneighbouring":6267,"ĠProfessional":6268,"Ġentirely":6269,"Ġcapture":6270,"Ġcaptured":6271,"profit":6272,"Ġobstructions":6273,"Ġobservables":6274,"Ġemploying":6275,"Ġemitters":6276,"ĠUnderstanding":6277,"Ġconfirmed":6278,"Ġfrequencies":6279,"Ġreciprocity":6280,"ĠContextuality":6281,"ĠDefault":6282,"Ġcycles":6283,"centralauth":6284,"\":[\"\",\"\"],\"":6285,"Ġheavily":6286,"ĠAmerican":6287,"QCBMs":6288,"ĠCounterdiabatic":6289,"TransformTable":6290,"Ġsandwiched":6291,"Ġacoustic":6292,"Ġmarginals":6293,"ĠLorentzian":6294,"Ġattractive":6295,"18911":6296,"4113":6297,"6943":6298,"Backend":6299,"BlancBright":6300,"Default":6301,"Hints":6302,"LUMINOS":6303,"Madan":6304,"Suzuk":6305,"\\\"\"\"":6306,"aparticles":6307,"auging":6308,"brackets":6309,"caption":6310,"decoration":6311,"doped":6312,"eCollapsible":6313,"globalCssJs":6314,"iometric":6315,"makeCollapsible":6316,"noise":6317,"oichiometric":6318,"screen":6319,"triluminos":6320,"tablesorter":6321,"wapping":6322,"||[]).":6323,"ÎĶE":6324,"Ġrule":6325,"Ġellipse":6326,"Ġengine":6327,"inforcement":6328,"Ġtackle":6329,"architecture":6330,"enarios":6331,"enhanced":6332,"Ġthousands":6333,"Ġthreshold":6334,"Ġthereby":6335,"Ġsmartwatches":6336,"ĠMimmi":6337,"ĠModular":6338,"ĠSqueezing":6339,"ĠSemiconductor":6340,"ĠSeveral":6341,"ĠSymFT":6342,"isolated":6343,"Ġfavorable":6344,"Ġopposite":6345,"Ġpipeline":6346,"Ġdatabase":6347,"Ġwireless":6348,"Ġincorpor":6349,"Ġofficial":6350,"Ġmarket":6351,"Ġmomentum":6352,"Ġbudget":6353,"Ġbuilds":6354,"ĠRichard":6355,"ĠRashba":6356,"ĠHermitian":6357,"embeddability":6358,"ĠFeliCa":6359,"stabilizerness":6360,"ĠWayback":6361,"ĠWorking":6362,"riplet":6363,"ĠTelephones":6364,"ĠTRILUMINOS":6365,"unstrip":6366,"Ġnontrivial":6367,"Ġnecess":6368,"Ġnonequilibrium":6369,"Ġloss":6370,"Ġlanguages":6371,"Ġreformulating":6372,"Ġrepeated":6373,"Ġrearrangements":6374,"ĠPublishing":6375,"ĠPHONE":6376,"ĠLipkin":6377,"ĠLounge":6378,"ĠDicke":6379,"Ġstatistical":6380,"Ġstrictly":6381,"ĠEvaluation":6382,"ĠNarrowband":6383,"ĠNVIDIA":6384,"Ġcomposed":6385,"Ġansatz":6386,"Ġexpressivity":6387,"ĠMartonik":6388,"Ġconsequence":6389,"Ġconceptual":6390,"Ġsuprem":6391,"ĠBeyond":6392,"ĠBenchmarking":6393,"ĠBravia":6394,"component":6395,"ĠUpload":6396,"Ġalways":6397,"estKitchen":6398,"ĠInAsP":6399,"ĠInitialization":6400,"agnostic":6401,"Ġreservoir":6402,"Ġshooting":6403,"wgVisualEditor":6404,"ĠKochen":6405,"Ġsubcircuits":6406,"Ġperfectly":6407,"32424":6408,"anufacturer":6409,"ĠEnhancer":6410,"Ġobstructing":6411,"Ġobstacles":6412,"ĠExternal":6413,"Ġempirical":6414,"Ġrelativistic":6415,"Ġsuperradiance":6416,"ĠChawla":6417,"ĠChromodynamics":6418,"ĠConsequently":6419,"Ġfluorescent":6420,"ĠAdaInit":6421,"wikimediaBadges":6422,"Ġindividual":6423,"Ġindecomposable":6424,"LanguageSelector":6425,"Ġsyndrome":6426,"wgRestriction":6427,"wgPageContent":6428,"23556331":6429,"ProbablyEditable":6430,"desktopArticleTarget":6431,"Ġirreducible":6432,"ĠSamsung":6433,"ĠDoCoMo":6434,"Suzuki":6435}